[PAD]	0
[UNK]	0
[BOS]	0
[EOS]	0
.	-3.3908
▁	-3.66441
을	-4.10845
이	-4.1157
의	-4.26202
에	-4.31025
가	-4.38488
,	-4.44274
는	-4.59339
를	-4.64441
은	-4.84395
고	-5.13958
한	-5.1491
▁수	-5.21315
로	-5.22435
과	-5.22653
도	-5.25954
에서	-5.37469
지	-5.48722
으로	-5.51587
인	-5.53652
▁있다	-5.58813
일	-5.59435
와	-5.65086
다	-5.67804
▁이	-5.74751
해	-5.75072
하는	-5.77893
(	-5.80709
)	-5.81219
기	-5.81518
할	-5.82382
하고	-5.83448
▁‘	-5.84504
?	-5.9108
’	-5.94807
▁“	-5.95315
·	-5.96622
”	-6.06326
▁등	-6.07198
▁있는	-6.09901
만	-6.21626
년	-6.23056
자	-6.24674
▁한	-6.24782
▁1	-6.24786
시	-6.2508
▁그	-6.25725
했다	-6.28778
수	-6.29845
대	-6.32462
어	-6.34953
▁제	-6.36024
▁전	-6.3755
사	-6.38658
서	-6.40008
리	-6.40145
▁한다	-6.4251
주	-6.53291
▁2	-6.5446
월	-6.54495
된	-6.55263
면	-6.56718
▁및	-6.59755
적	-6.60398
▁것으로	-6.60995
▁중	-6.62412
▁3	-6.64163
성	-6.64289
상	-6.6468
스	-6.67831
정	-6.69454
들이	-6.7036
▁대한	-6.73745
부	-6.74618
진	-6.75842
원	-6.77167
장	-6.7734
▁김	-6.78187
라	-6.78763
화	-6.79096
게	-6.80725
나	-6.80763
▁내	-6.82007
전	-6.82043
요	-6.82072
아	-6.82303
동	-6.82356
제	-6.82567
▁한국	-6.82778
산	-6.82929
하게	-6.8315
▁것	-6.85551
에는	-6.85998
개	-6.87832
구	-6.88902
▁위해	-6.89712
비	-6.91666
보	-6.91952
▁더	-6.92239
▁안	-6.93298
세	-6.93771
한다	-6.95068
▁주	-6.95084
이다	-6.95124
며	-6.9529
▁4	-6.95357
에게	-6.95698
▁경우	-6.95823
까지	-6.96261
소	-6.97636
하기	-6.97711
선	-6.99398
▁유	-6.99681
▁5	-6.99686
▁시	-7.01599
차	-7.02973
드	-7.03057
용	-7.05343
명	-7.05589
▁정	-7.07701
▁할	-7.08618
▁따라	-7.08982
2	-7.09893
야	-7.10177
실	-7.10647
조	-7.11304
▁고	-7.12549
1	-7.12567
▁때	-7.12709
▁일	-7.13158
회	-7.13397
▁원	-7.14513
적인	-7.1585
▁지난	-7.15961
관	-7.16162
하지	-7.16176
우	-7.16718
▁사	-7.17376
치	-7.18062
미	-7.18484
▁10	-7.1885
적으로	-7.19855
▁함께	-7.20808
▁통해	-7.21161
여	-7.2191
하여	-7.22323
▁보	-7.22482
▁신	-7.23359
▁나는	-7.23452
▁오	-7.24535
▁다	-7.24621
▁이번	-7.24655
분	-7.24913
트	-7.25085
호	-7.25166
▁해	-7.25564
신	-7.26646
법	-7.26969
▁밝혔다	-7.27787
형	-7.28297
▁공	-7.28717
▁있습니다	-7.30702
▁두	-7.30769
▁것이	-7.31199
▁지	-7.31526
중	-7.31607
▁6	-7.31768
재	-7.31998
▁대	-7.32115
당	-7.32541
▁구	-7.33568
단	-7.33688
입니다	-7.33925
▁기	-7.35057
▁후	-7.35824
계	-7.35997
무	-7.36192
영	-7.36313
되는	-7.36491
히	-7.36516
위	-7.38291
방	-7.38623
▁소	-7.39034
▁하는	-7.39383
식	-7.39392
▁많은	-7.4011
▁서울	-7.40131
▁말	-7.4095
물	-7.41117
금	-7.41716
▁상	-7.42231
천	-7.42315
니	-7.42541
▁미국	-7.42684
▁위한	-7.43194
연	-7.43782
오	-7.43873
권	-7.44048
유	-7.44641
▁다른	-7.45
▁가장	-7.45736
▁네	-7.45925
▁장	-7.46237
▁각	-7.46304
던	-7.46605
국	-7.46611
될	-7.46633
▁무	-7.46723
문	-7.46996
▁부	-7.47128
하	-7.478
▁잘	-7.47833
▁7	-7.48144
에서는	-7.48284
안	-7.48913
이라고	-7.49184
▁다음	-7.49203
▁저는	-7.4933
양	-7.49408
▁나	-7.49539
경	-7.49841
부터	-7.50175
▁등을	-7.50378
▁아	-7.50689
▁지역	-7.50716
러	-7.50907
▁말했다	-7.51052
▁연	-7.51311
▁바	-7.51909
하며	-7.53003
공	-7.53157
마	-7.53304
▁것이다	-7.54152
▁저	-7.54644
▁대해	-7.54645
▁비	-7.5541
내	-7.55758
▁동	-7.55884
▁했다	-7.56124
▁중국	-7.56692
됐다	-7.57039
르	-7.57141
▁거	-7.57144
민	-7.57499
▁자	-7.57859
▁경기도	-7.5825
▁우리	-7.58724
▁불	-7.58857
▁게	-7.58979
▁것은	-7.59017
▁같은	-7.5912
▁사용	-7.59142
청	-7.59193
점	-7.5925
해야	-7.59649
▁미	-7.59671
보다	-7.5993
▁재	-7.60176
질	-7.60506
▁도	-7.60554
▁8	-7.60879
▁큰	-7.61833
▁것을	-7.62199
이나	-7.63797
3	-7.63886
▁지원	-7.6454
▁하	-7.65502
▁관련	-7.65921
돼	-7.66439
생	-7.67749
▁또는	-7.67836
▁9	-7.67886
▁모	-7.67933
▁조	-7.68134
▁양	-7.68145
▁필요한	-7.68551
하면	-7.68602
된다	-7.68877
▁가운데	-7.69025
종	-7.69225
▁서	-7.69407
▁이상	-7.69469
▁세	-7.69684
-	-7.70357
▁있어	-7.70817
▁뒤	-7.71346
급	-7.71399
파	-7.71727
▁박	-7.7174
▁이후	-7.71915
모	-7.72074
강	-7.72304
석	-7.72601
▁때문에	-7.72721
면서	-7.72723
들의	-7.72803
▁마	-7.73286
역	-7.73775
▁총	-7.73869
학	-7.73945
운	-7.74437
들	-7.74518
▁많이	-7.74988
교	-7.7518
▁강	-7.75381
간	-7.75745
하여야	-7.75779
▁선	-7.75925
되고	-7.76063
▁간	-7.76145
4	-7.76795
데	-7.77125
▁경	-7.77371
려	-7.77398
습니다	-7.77525
군	-7.776
▁그는	-7.77746
현	-7.77789
들은	-7.77832
▁19	-7.77909
직	-7.77927
▁차	-7.78826
심	-7.78863
▁일본	-7.7916
▁있도록	-7.79275
▁지난해	-7.79585
▁20	-7.79867
▁현재	-7.79952
▁최근	-7.80125
었다	-7.80472
▁남	-7.80629
건	-7.81715
거	-7.81887
▁약	-7.82248
출	-7.8343
▁세계	-7.83554
▁따른	-7.83627
▁특히	-7.83663
▁올해	-7.83675
들을	-7.83821
▁관리	-7.84415
▁이어	-7.84704
체	-7.84791
포	-7.84887
▁국내	-7.85025
합니다	-7.85163
▁여	-7.85717
▁등이	-7.85917
▁줄	-7.85971
감	-7.86097
▁이날	-7.86481
▁사업	-7.86682
지만	-7.86691
▁다시	-7.87201
▁데	-7.87248
▁하고	-7.87312
라고	-7.87747
▁분	-7.88082
▁어	-7.88126
▁다양한	-7.8841
는데	-7.88547
▁지금	-7.88552
▁될	-7.88623
▁반	-7.89233
▁없는	-7.89239
▁기업	-7.89539
▁제가	-7.90133
▁건	-7.90424
하면서	-7.90622
▁달	-7.90623
▁모두	-7.90956
▁경제	-7.91074
▁못	-7.91102
▁직접	-7.91166
▁인	-7.91435
에도	-7.91539
▁입	-7.91753
행	-7.91918
▁시간	-7.92301
▁실	-7.92608
▁방	-7.93394
래	-7.93799
▁교육	-7.938
터	-7.94848
라는	-7.95049
▁운영	-7.95339
▁12	-7.95421
▁경기	-7.95641
▁예	-7.95863
▁11	-7.96573
피	-7.96637
▁보고	-7.96897
하다	-7.97204
▁30	-7.9724
속	-7.97276
""	-7.98009
▁내가	-7.98075
시간	-7.98124
▁당	-7.9818
루	-7.98484
▁위	-7.9887
▁하나	-7.98916
▁발	-7.99217
판	-7.99229
위원회	-7.99488
매	-7.99555
▁있다는	-7.99686
▁조사	-7.99796
업	-7.99942
▁있어요	-7.99946
▁확인	-7.99965
입	-8.00133
사업	-8.00144
▁구청장은	-8.00224
▁진행	-8.00309
타	-8.00381
워	-8.00419
▁문	-8.00884
▁영	-8.00911
▁개	-8.01302
▁아니라	-8.01362
린	-8.01569
반	-8.01599
▁모든	-8.01702
배	-8.02151
▁영화	-8.02246
▁날	-8.02398
▁배	-8.02431
▁설치	-8.02844
▁문화	-8.02914
▁성	-8.03228
▁시장	-8.03401
임	-8.03685
▁생각	-8.0373
▁위하여	-8.03815
관리	-8.03877
길	-8.04057
약	-8.04061
▁된다	-8.04105
▁단	-8.04347
▁A	-8.04365
설	-8.04372
명이	-8.0444
자가	-8.04443
▁명	-8.04508
준	-8.05138
▁결정	-8.05149
▁시작	-8.05479
▁알	-8.05494
▁해당	-8.05571
▁좋은	-8.05612
남	-8.05832
력	-8.05977
발	-8.06017
병	-8.06161
▁결과	-8.06233
증	-8.06233
디	-8.06287
별	-8.06494
▁맞	-8.06972
통	-8.07177
▁파	-8.07574
▁없다	-8.07754
되어	-8.08035
▁대표	-8.08341
두	-8.08444
해서	-8.09363
레	-8.09495
프	-8.09634
억	-8.09702
류	-8.09758
이하	-8.0981
▁물	-8.09872
▁어떤	-8.0989
▁외	-8.09929
▁오늘	-8.10146
센터	-8.10273
▁만	-8.10362
A	-8.10379
복	-8.10477
▁정도	-8.10526
▁국가	-8.10561
태	-8.10701
▁따르면	-8.10842
시설	-8.10891
저	-8.11589
티	-8.11615
▁교	-8.11688
▁초	-8.11723
▁오후	-8.11799
▁경찰	-8.1203
량	-8.12053
▁필요	-8.12065
▁우	-8.12194
이라는	-8.12232
▁국	-8.1278
그	-8.129
▁등의	-8.13631
승	-8.13648
란	-8.13756
5	-8.13804
크	-8.1427
」	-8.14687
▁준비	-8.14965
▁있을	-8.1508
립	-8.15723
등	-8.15889
바	-8.15961
▁"	-8.16498
작	-8.16592
▁사람	-8.16681
▁어떻게	-8.1685
▁번	-8.16967
."	-8.1717
▁좀	-8.17207
층	-8.17274
▁난	-8.17367
어요	-8.17504
져	-8.17669
▁「	-8.18034
▁우리는	-8.1809
이라	-8.18433
▁볼	-8.18636
했던	-8.18826
노	-8.18831
▁당시	-8.18853
품	-8.189
▁타	-8.19095
▁신청	-8.19129
지역	-8.19133
▁이를	-8.19134
▁경우에는	-8.19444
이에요	-8.19469
▁너무	-8.19641
▁매	-8.20046
항	-8.20243
▁노	-8.20634
▁동안	-8.20668
온	-8.2075
▁개발	-8.20758
▁제품	-8.20847
▁이런	-8.21003
▁투자	-8.21007
시장	-8.21108
▁회사	-8.21157
▁있었다	-8.21222
▁이용	-8.21314
▁추진	-8.2146
▁북한	-8.2182
▁열	-8.21929
m	-8.21998
▁때문이다	-8.22002
토	-8.22116
S	-8.22278
▁다만	-8.22354
▁관한	-8.22812
예	-8.22856
▁첫	-8.23214
지는	-8.23262
즈	-8.23447
▁여성	-8.23503
▁확대	-8.23605
'	-8.23828
▁판매	-8.23856
▁있	-8.23972
▁사회	-8.24008
료	-8.2403
▁않은	-8.24206
▁높은	-8.24284
희	-8.24796
▁스	-8.24837
▁새로운	-8.24857
기를	-8.2487
억원	-8.24884
▁최	-8.24938
▁피	-8.25174
▁만큼	-8.25248
▁심	-8.25272
교육	-8.25834
▁있다고	-8.26532
창	-8.26554
▁감	-8.26567
▁평가	-8.2674
▁본	-8.27083
결	-8.27447
▁생	-8.27457
목	-8.27465
▁전국	-8.27516
▁합니다	-8.2752
▁연구	-8.2762
▁적	-8.27833
D	-8.2805
▁참여	-8.28333
▁살	-8.28344
달	-8.28449
▁또	-8.28707
▁산	-8.28881
엔	-8.28968
▁정책	-8.2909
백	-8.29349
장은	-8.29377
e	-8.29666
격	-8.3007
▁걸	-8.30368
집	-8.30733
기업	-8.308
▁당신은	-8.30804
했다고	-8.3093
▁들어	-8.31104
처럼	-8.31271
▁아니	-8.3182
절	-8.31873
T	-8.3215
▁있나요	-8.32182
▁집	-8.32186
문화	-8.32422
색	-8.32666
했습니다	-8.32748
박	-8.33853
▁활동	-8.34032
▁법	-8.34213
C	-8.34385
▁15	-8.3442
▁배우	-8.34424
각	-8.34446
▁일부	-8.3473
▁추가	-8.34856
▁당신이	-8.34856
들에게	-8.3492
▁온	-8.34951
▁기존	-8.34966
▁감사	-8.35342
▁몇	-8.35627
▁학교	-8.35714
▁않고	-8.35741
▁추	-8.35802
난	-8.35875
▁마련	-8.36026
▁오전	-8.36056
▁방문	-8.36069
▁개선	-8.36129
▁정부	-8.3617
▁화	-8.36482
졌다	-8.36975
외	-8.36982
▁군	-8.36994
▁등에	-8.37034
▁차량	-8.37141
▁관계자는	-8.37199
철	-8.37301
편	-8.37301
항에	-8.3732
▁트럼프	-8.37545
본	-8.37559
▁손	-8.37613
▁보인다	-8.37708
카	-8.37953
되지	-8.38186
▁있고	-8.38389
장이	-8.38396
하거나	-8.38439
만원	-8.3854
했고	-8.38721
O	-8.38796
음	-8.39034
▁국제	-8.39113
▁생산	-8.39192
더	-8.39219
▁문제	-8.39224
기관	-8.3934
▁요구	-8.39474
▁새	-8.39484
7	-8.39512
▁부산	-8.39575
▁포	-8.39717
▁호	-8.39926
▁진	-8.40118
향	-8.40154
번	-8.4023
M	-8.40403
▁보내	-8.40555
6	-8.40671
해요	-8.40808
▁조례	-8.40982
▁올	-8.41245
o	-8.41358
망	-8.41371
거나	-8.41389
버	-8.41452
▁기간	-8.41526
▁채	-8.41599
▁오는	-8.41706
▁도시	-8.4177
P	-8.41833
▁어느	-8.41898
산업	-8.41958
▁있으며	-8.42039
▁적용	-8.42215
▁열린	-8.42332
▁여러	-8.42451
▁주요	-8.42477
▁주민	-8.42711
▁성장	-8.42893
G	-8.42999
▁수사	-8.43169
▁속	-8.43194
언	-8.43209
▁환경	-8.43271
든	-8.43582
▁개최	-8.43671
▁같이	-8.43719
환	-8.43766
▁바로	-8.44071
▁기술	-8.44227
▁안전	-8.4425
▁개인	-8.44279
▁없이	-8.44323
표	-8.4446
평	-8.44723
B	-8.45038
▁편	-8.45282
▁행사	-8.45466
▁전체	-8.45702
▁북	-8.45795
스트	-8.458
▁결	-8.45803
▁생활	-8.45826
▁대통령이	-8.45899
근	-8.45918
후	-8.46232
▁막	-8.46255
▁구성	-8.46335
▁주문	-8.46469
▁기록	-8.46537
울	-8.46562
▁그리고	-8.46567
▁전문	-8.46575
▁가족	-8.46642
▁서비스	-8.46679
▁갈	-8.46838
단체	-8.47047
∼	-8.47237
▁노력	-8.47307
▁발생	-8.47428
▁임	-8.4744
▁받은	-8.47448
릴	-8.47481
▁되	-8.47491
▁사진	-8.47504
성을	-8.47621
▁계속	-8.47794
▁청	-8.47828
곳	-8.47875
▁시행	-8.48319
▁음식	-8.48413
▁강화	-8.48437
▁관심	-8.48705
▁산업	-8.48833
▁아이	-8.48987
에서도	-8.48995
▁해외	-8.4903
락	-8.49082
랑	-8.49312
팀	-8.49322
▁된	-8.49484
네	-8.49586
으며	-8.49677
▁제공	-8.49755
합	-8.4979
▁발전	-8.49873
이었다	-8.49952
▁공개	-8.49968
▁사람이	-8.5005
지원	-8.50062
▁만들어	-8.50119
▁방송	-8.50175
▁예정이다	-8.50184
열	-8.50327
▁지급	-8.504
▁조성	-8.50707
브	-8.5076
불	-8.50797
▁설명했다	-8.50868
령	-8.51031
▁너	-8.51479
▁민	-8.51758
션	-8.51795
였다	-8.51879
코	-8.52275
▁100	-8.5255
8	-8.5274
▁현장	-8.52741
▁출	-8.52775
▁증가	-8.52827
▁처리	-8.53365
살	-8.53493
다고	-8.53625
론	-8.53746
처	-8.53894
▁설명	-8.54023
림	-8.54055
▁더욱	-8.54064
▁관계	-8.54474
▁사건	-8.54627
▁아닌	-8.54765
▁최대	-8.54811
▁주장	-8.54908
까	-8.54936
▁계획	-8.55154
▁정말	-8.55162
▁업무	-8.55368
▁가능성이	-8.55433
업체	-8.55488
▁기준	-8.55621
▁집중	-8.55814
▁프로그램	-8.55862
▁성공	-8.55888
채	-8.5591
▁구매	-8.56147
▁찾아	-8.56271
▁받고	-8.56355
인데	-8.56366
사가	-8.56629
▁농	-8.56685
▁여기	-8.56851
▁국회	-8.56891
초	-8.56949
▁대상	-8.57257
변	-8.57309
장을	-8.57349
▁대학	-8.57411
9	-8.57496
▁통	-8.57768
▁있지만	-8.57896
액	-8.57928
▁만나	-8.58015
▁없	-8.58143
▁친구	-8.58146
하도록	-8.58172
▁처음	-8.58461
▁공무원	-8.58763
았다	-8.58764
▁발표	-8.58816
▁송	-8.58826
서를	-8.59053
▁정부가	-8.59105
▁해결	-8.5931
▁18	-8.59319
으면	-8.59434
광	-8.59592
▁호의	-8.5961
▁회의	-8.59802
름	-8.60059
▁대상으로	-8.60102
탄	-8.60106
▁기대	-8.60206
▁삼	-8.60247
▁않는	-8.6034
▁아직	-8.6036
▁신고	-8.6036
▁문제가	-8.60828
▁분석	-8.60871
▁가지	-8.60894
▁K	-8.60999
▁이미	-8.61091
▁시설	-8.61116
▁백	-8.6124
▁것입니다	-8.61266
▁지정	-8.61283
▁판단	-8.61299
▁치	-8.615
독	-8.61557
▁유지	-8.61642
순	-8.62016
추	-8.62129
▁선정	-8.62159
▁되는	-8.62188
▁도지사	-8.62272
습	-8.62316
개월	-8.62506
▁매우	-8.62514
▁청와대	-8.62681
조제	-8.62859
▁말한다	-8.63023
▁금	-8.63235
▁가격	-8.63503
i	-8.63679
▁예정	-8.63726
▁상품	-8.639
▁순	-8.64428
죠	-8.64486
일까지	-8.64671
▁때에는	-8.6469
▁팀	-8.64804
담	-8.64964
E	-8.6497
▁기관	-8.65234
▁16	-8.65292
▁대부분	-8.65358
곡	-8.65405
▁대통령	-8.65439
R	-8.65585
일부터	-8.65633
▁관	-8.65648
▁먼저	-8.65795
으	-8.66129
▁부분	-8.66302
▁확보	-8.66317
른	-8.66454
▁일정	-8.66464
▁시간이	-8.66517
▁14	-8.66557
겨	-8.6668
▁당신의	-8.66731
▁리	-8.66755
▁정보	-8.66885
갈	-8.66931
▁요청	-8.66971
▁국민	-8.67165
▁제작	-8.67336
▁해요	-8.67414
키	-8.67428
북	-8.67454
▁공동	-8.675
쪽	-8.6757
▁됐다	-8.67748
기간	-8.6784
▁13	-8.6793
되면	-8.67938
▁내용	-8.68016
▁우리가	-8.68113
성이	-8.68548
했지만	-8.68635
▁계약	-8.68762
나요	-8.68926
t	-8.6896
▁표	-8.69069
자는	-8.69108
▁크게	-8.69206
▁또한	-8.69245
▁그런	-8.69647
▁소속	-8.69877
▁있는데	-8.6989
▁자신의	-8.69925
했어요	-8.70072
송	-8.70111
▁학생	-8.7012
정책	-8.70151
▁않았다	-8.70157
▁인사	-8.70204
▁받아	-8.70224
례	-8.70262
씨가	-8.70331
▁들	-8.70427
▁복	-8.70444
I	-8.70462
▁우선	-8.70539
들과	-8.70561
▁건강	-8.7066
▁잡	-8.70685
투	-8.70745
N	-8.70981
▁식	-8.71001
▁금융	-8.71025
▁학	-8.71081
▁일반	-8.71152
▁협력	-8.71317
▁코	-8.71365
▁이해	-8.71539
▁몸	-8.71558
▁직	-8.71766
볼	-8.72064
되었다	-8.72068
▁서울특별시	-8.721
되면서	-8.72108
▁규정	-8.72242
▁행정	-8.72278
▁수출	-8.7234
▁선택	-8.72349
구청장	-8.72418
a	-8.72495
지를	-8.72564
▁논의	-8.73081
회의	-8.73158
▁사실	-8.73239
▁규모	-8.7335
▁종	-8.73518
L	-8.73522
농	-8.73908
▁단체	-8.7407
날	-8.74075
취	-8.74108
▁점	-8.74162
조에	-8.74181
▁합의	-8.74236
기술	-8.74258
▁증	-8.74508
▁왜	-8.74545
명의	-8.74647
▁애	-8.74799
▁음악	-8.74907
▁업체	-8.75055
▁보호	-8.75159
블	-8.75256
원이	-8.75278
▁남북	-8.75375
▁사항을	-8.75734
▁좋아	-8.759
▁등으로	-8.75945
기가	-8.75997
▁사고	-8.76239
▁앞	-8.76326
함	-8.76459
주의	-8.76474
▁토	-8.76531
말	-8.76541
▁주세요	-8.76645
▁최고	-8.76649
▁관심이	-8.76745
▁게임	-8.7679
▁폭	-8.76904
▁전했다	-8.7706
▁17	-8.77069
▁글로벌	-8.77088
▁하루	-8.77157
▁눈	-8.77205
▁도입	-8.77245
▁쓰	-8.77365
▁대비	-8.77368
▁돌	-8.77463
하였다	-8.77551
▁물론	-8.77673
▁참가	-8.77771
▁인상	-8.78058
▁B	-8.78199
▁보면	-8.78231
자를	-8.78239
▁공연	-8.7835
▁예상	-8.78475
로부터	-8.78479
너	-8.78627
▁여행	-8.78634
▁귀	-8.78716
▁있기	-8.78725
▁이야기	-8.78734
▁위원	-8.78802
▁카	-8.78818
▁의원	-8.78929
율	-8.79107
▁가지고	-8.79188
▁공간	-8.7925
▁검토	-8.79259
▁책	-8.79277
▁민간	-8.80069
▁소개	-8.80075
탁	-8.80092
▁과거	-8.80179
▁저희	-8.80179
니다	-8.80241
씨	-8.80336
▁현지	-8.80531
▁변	-8.80573
▁그동안	-8.80757
▁활성화	-8.8083
▁역	-8.80932
▁나라	-8.81127
▁그럼	-8.8124
범	-8.81249
▁참	-8.81265
명을	-8.81312
▁변경	-8.81326
▁앞으로	-8.81345
환경	-8.81494
▁담	-8.81618
▁공공	-8.81694
▁혹시	-8.81905
▁자동차	-8.81935
▁미래	-8.81957
네요	-8.81984
▁않	-8.82018
긴	-8.82045
▁사랑	-8.82058
▁실시	-8.82204
▁역시	-8.82207
기도	-8.82216
하던	-8.82453
▁공급	-8.82453
▁25	-8.82495
▁작업	-8.82523
▁운동	-8.82572
▁잠	-8.82696
친	-8.8271
▁50	-8.82809
▁특별	-8.82851
하자	-8.82881
▁황	-8.83372
▁가능한	-8.83411
▁각종	-8.83634
패	-8.83664
▁일자리	-8.83717
▁고객	-8.84047
훈	-8.84116
공사	-8.84143
▁연락	-8.8436
▁사람들이	-8.84527
▁알려	-8.84585
▁일이	-8.84611
▁24	-8.84654
▁중인	-8.84678
▁하지만	-8.84863
▁제기	-8.84888
▁규제	-8.84897
▁앞서	-8.85086
거리	-8.85219
▁반영	-8.8539
▁메	-8.85489
▁회	-8.85557
▁현	-8.85709
▁경쟁	-8.85788
테	-8.85882
▁제출	-8.8591
▁나온다	-8.85952
▁나서	-8.85955
하기로	-8.85999
씨는	-8.86028
▁예약	-8.86053
▁골	-8.86075
위원	-8.8615
도록	-8.86164
▁선수	-8.86214
▁해야	-8.86224
▁지방	-8.86278
▁각각	-8.86327
▁고용	-8.86384
▁과정에서	-8.86583
▁팔	-8.86673
▁광	-8.86799
착	-8.86866
계획	-8.86973
올	-8.87123
▁말씀	-8.87128
골	-8.87137
▁특	-8.87291
▁나타났다	-8.87418
▁인정	-8.8742
▁우려	-8.87464
총	-8.8755
충	-8.87555
▁대회	-8.87619
▁것도	-8.87699
개발	-8.88175
▁실제	-8.88189
▁경기도가	-8.88384
찬	-8.88403
▁건물	-8.88714
▁먹	-8.88744
▁예산	-8.88856
▁C	-8.88895
▁변화	-8.89091
▁됩니다	-8.8946
이며	-8.89515
▁지난달	-8.89541
익	-8.8969
▁취	-8.89757
▁받을	-8.89798
년간	-8.89803
▁수준	-8.8984
혜	-8.89873
축	-8.90024
F	-8.90095
▁친	-8.903
봉	-8.90369
협	-8.90373
▁경영	-8.90578
운영	-8.90619
▁조금	-8.90627
▁이렇게	-8.90687
▁시민	-8.90842
▁거예요	-8.90969
▁전달	-8.9101
대로	-8.91012
▁건설	-8.9104
▁벌	-8.91255
균	-8.9134
▁알고	-8.91371
▁승	-8.91493
▁선거	-8.91524
▁활용	-8.9172
▁없어	-8.91845
▁외국인	-8.9185
▁버	-8.91995
이란	-8.91997
책	-8.92061
K	-8.92086
▁S	-8.92092
정보	-8.92146
▁인기	-8.9217
▁수도	-8.92187
견	-8.92276
마다	-8.92294
▁하며	-8.92305
▁언론	-8.92477
▁등록	-8.92547
▁인천	-8.92607
▁제안	-8.9264
▁창	-8.92646
님	-8.927
▁카드	-8.92735
▁러시아	-8.92896
경제	-8.92952
▁드라마	-8.93025
은행	-8.93071
암	-8.93096
▁제도	-8.93155
▁위험	-8.93253
▁영향을	-8.93269
기에	-8.93416
▁윤	-8.93427
▁감소	-8.93457
0	-8.93502
사회	-8.93532
▁있게	-8.93559
▁설	-8.93773
▁가능	-8.93887
▁상승	-8.93971
▁거래	-8.94025
김	-8.94043
했다는	-8.94044
렸다	-8.9406
▁권	-8.94099
▁만에	-8.94217
숙	-8.94381
▁병원	-8.94465
▁구조	-8.94578
▁전에	-8.94651
자의	-8.94654
▁자리	-8.94705
▁길	-8.94725
메	-8.94735
▁인해	-8.94813
▁요	-8.94882
애	-8.94996
규	-8.95016
▁않아	-8.95028
▁구축	-8.95044
▁되어	-8.9507
▁홍보	-8.95185
수가	-8.95234
▁후보	-8.95342
▁인터넷	-8.9538
▁않다	-8.954
▁같다	-8.95429
능	-8.95469
지고	-8.95475
10	-8.95508
조사	-8.95594
▁넘	-8.956
객	-8.95712
▁노동	-8.95762
▁드	-8.96003
▁그의	-8.96008
▁반대	-8.96059
▁작품	-8.96084
▁밤	-8.96089
▁이제	-8.96104
▁있어서	-8.96127
▁상태	-8.96148
세요	-8.96176
▁않을	-8.96179
었	-8.96257
▁최종	-8.96266
커	-8.96357
▁작성	-8.96397
▁계획이다	-8.96509
▁이에	-8.96625
▁영어	-8.96636
5%	-8.96687
▁관광	-8.96711
▁버스	-8.96755
막	-8.96895
▁광주	-8.96932
▁결제	-8.9696
사를	-8.97003
▁목적으로	-8.97004
▁아파트	-8.97029
▁체험	-8.97035
▁추천	-8.97037
▁중심으로	-8.97158
▁삼성	-8.97207
쳐	-8.97357
▁수업	-8.97376
악	-8.97471
낸	-8.97494
▁불법	-8.97698
▁커	-8.97719
씩	-8.97791
▁계	-8.97811
한다는	-8.97928
학생	-8.97977
▁정상회담	-8.98186
▁서로	-8.98274
▁23	-8.98288
▁기본	-8.98376
밀	-8.98398
▁용	-8.984
▁21	-8.98496
▁강조했다	-8.98557
률	-8.9862
으나	-8.98704
움	-8.98744
▁도착	-8.98764
▁정상	-8.98843
▁되고	-8.98921
▁언제	-8.9896
▁공유	-8.98976
▁해당하는	-8.98992
육	-8.99135
▁근무	-8.99339
있	-8.99363
▁교통	-8.99374
▁얼마나	-8.99401
▁독	-8.99588
▁레	-8.99656
▁이러한	-8.99736
▁심의	-8.9976
▁위탁	-8.99804
▁대응	-8.99827
황	-8.99911
▁성과	-9.00293
런	-9.00367
▁많다	-9.00385
돌	-9.00411
▁서울시	-9.00426
▁시험	-9.00504
위를	-9.00711
▁나왔다	-9.00799
▁같아	-9.01015
▁두고	-9.01019
▁경험	-9.01028
▁협상	-9.01046
리는	-9.01077
▁한국의	-9.01094
▁내년	-9.01105
검	-9.0117
▁27	-9.01185
▁한다는	-9.01191
▁청년	-9.01252
▁홍	-9.0126
▁의미	-9.01294
▁40	-9.0142
협회	-9.01431
▁중소기업	-9.01817
▁않는다	-9.01829
침	-9.01874
▁자료	-9.0198
▁내일	-9.0201
▁중요한	-9.02045
술	-9.02198
학교	-9.02214
▁하지	-9.02242
)’	-9.02276
▁도내	-9.02315
▁도로	-9.02345
하지만	-9.0235
▁중심	-9.02426
▁낮	-9.02453
▁돼	-9.02458
찰	-9.02472
별로	-9.02474
▁허	-9.02478
▁악	-9.02502
▁사람들	-9.02503
▁문재인	-9.02727
▁22	-9.02728
▁것이라는	-9.02741
▁역할을	-9.03034
▁평	-9.0307
복지	-9.03085
시면	-9.03164
▁주택	-9.03221
▁입장	-9.03231
▁그가	-9.03296
덕	-9.03319
▁브랜드	-9.03329
▁거쳐	-9.03489
▁어려운	-9.03631
s	-9.03651
▁조선	-9.03667
30	-9.03677
▁검사	-9.03759
▁독일	-9.03802
▁200	-9.03899
▁받았다	-9.03997
▁호텔	-9.04012
▁주변	-9.0406
▁달리	-9.04109
▁전통	-9.04148
▁정치	-9.04165
▁알려졌다	-9.04219
극	-9.04255
풍	-9.04275
▁수행	-9.04295
▁내부	-9.04437
▁질	-9.04479
줄	-9.04566
▁전문가	-9.04596
▁디자인	-9.04601
▁수립	-9.04668
▁핵심	-9.04692
▁제시	-9.04762
▁대화	-9.04791
▁내려	-9.04809
▁설립	-9.04879
▁이동	-9.04881
삼	-9.05003
▁영상	-9.05045
▁들어가	-9.05146
▁남자	-9.05202
▁책임	-9.0532
▁숨	-9.05345
),	-9.05397
▁중구	-9.05442
▁이전	-9.05592
▁직원	-9.05647
▁수입	-9.05649
▁전시	-9.05689
▁월	-9.05827
▁여자	-9.05838
▁연결	-9.05961
택	-9.06038
▁그룹	-9.06043
▁우리나라	-9.06055
▁고려	-9.06101
▁곳	-9.06491
▁가능하다	-9.06604
점을	-9.06783
졌	-9.06842
▁예술	-9.06848
▁대하여	-9.0696
되며	-9.07
▁천	-9.07116
▁만든	-9.07276
▁취업	-9.07355
인지	-9.07405
▁별지	-9.07467
▁탈	-9.0747
▁접	-9.07543
▁평화	-9.07599
▁제대로	-9.07673
▁매년	-9.07852
폭	-9.07857
▁자신	-9.07874
▁달라	-9.08083
▁28	-9.08169
▁얘기	-9.08184
▁조직	-9.0825
▁피해	-9.08284
관계	-9.08333
▁상황에서	-9.08406
▁번째	-9.08443
▁26	-9.08458
▁현대	-9.08505
▁아래	-9.0863
▁2018	-9.08642
▁한류	-9.08895
▁몰	-9.0892
척	-9.08999
▁마을	-9.09018
가요	-9.0906
▁받는	-9.09082
▁넘어	-9.09137
▁풍	-9.09307
▁행	-9.09334
▁방식	-9.0948
기는	-9.09555
▁모습을	-9.09559
▁지속	-9.09647
렸	-9.09654
▁자연	-9.09697
필	-9.09724
▁소비자	-9.09728
▁인근	-9.0979
▁대신	-9.1001
▁공사	-9.10053
▁가는	-9.10197
▁원인	-9.10326
확	-9.10354
병원	-9.10359
안전	-9.10443
▁정도로	-9.1049
▁취소	-9.1053
▁진출	-9.10544
▁베트남	-9.10607
▁별	-9.10638
▁하는데	-9.10672
▁비핵화	-9.10742
▁중앙	-9.10756
▁종합	-9.10774
▁환	-9.10799
▁지적	-9.10818
▁사업을	-9.10835
▁갖고	-9.10866
▁평균	-9.10873
▁누	-9.10891
▁당신	-9.10924
았	-9.10946
▁자체	-9.10979
▁투	-9.11168
상을	-9.11202
▁온라인	-9.11255
지도	-9.11399
▁역사	-9.11445
▁2016	-9.11464
▁모델	-9.11482
▁모습이	-9.11566
▁환자	-9.1157
그룹	-9.11823
로서	-9.11901
▁상황	-9.11917
▁목	-9.11926
▁장애인	-9.11944
▁조정	-9.11978
▁전화	-9.11983
▁밀	-9.1203
했을	-9.12042
▁발견	-9.12156
혀	-9.12177
▁뭐	-9.12253
▁우수	-9.12355
▁그러	-9.12376
▁작은	-9.12434
▁점을	-9.12457
▁무대	-9.12475
▁참석	-9.12538
▁축제	-9.1254
력이	-9.12551
▁합	-9.12559
▁창업	-9.12753
대표	-9.12765
권을	-9.12773
▁위반	-9.12783
세를	-9.12804
▁가진	-9.12941
▁할인	-9.12984
손	-9.13147
족	-9.13238
▁표현	-9.13257
겠	-9.13547
폐	-9.13569
▁향	-9.13644
▁바랍니다	-9.13647
▁장소	-9.13666
▁같아요	-9.13691
▁그것	-9.13952
▁지나	-9.13986
▁심사	-9.14038
▁시대	-9.14123
▁돌아	-9.14233
▁연기	-9.14244
되	-9.14262
▁접수	-9.14274
▁놓	-9.14409
▁회장	-9.14535
▁따로	-9.14582
항의	-9.14661
▁공식	-9.14672
▁담당	-9.14697
▁없습니다	-9.14721
투자	-9.14776
▁네가	-9.14792
▁하락	-9.14822
▁목소리	-9.14873
력을	-9.1489
▁있던	-9.14982
▁왕	-9.14989
하세요	-9.15141
왕	-9.15153
▁높아	-9.15221
기로	-9.15234
한다고	-9.15276
평가	-9.15378
다면	-9.15427
십	-9.15439
▁글	-9.15443
▁나가	-9.15446
생활	-9.15451
▁은행	-9.1551
▁의료	-9.15541
퍼	-9.1557
레이	-9.15571
▁적극	-9.15598
▁분야	-9.15612
20	-9.15633
비를	-9.15654
▁밝	-9.15662
▁잔	-9.15702
▁출신	-9.15739
정부	-9.15751
▁조치	-9.15819
▁사이	-9.15851
대가	-9.16043
▁청소년	-9.16175
경기	-9.16212
활동	-9.16216
▁올라	-9.16236
▁휴	-9.16354
탈	-9.16363
▁하면	-9.1637
▁선생님	-9.16477
▁자유한국당	-9.16524
▁검찰	-9.16652
▁뜻	-9.16676
금을	-9.16684
▁비판	-9.16794
지면서	-9.16886
▁보도	-9.16989
▁포함	-9.17017
하는데	-9.17029
▁항	-9.17045
▁기념	-9.17069
▁유럽	-9.17075
년부터	-9.17111
새	-9.17137
▁대한민국	-9.17165
▁이들	-9.17296
▁제한	-9.17302
▁문제를	-9.17485
수를	-9.17524
▁것이라고	-9.17653
p	-9.17732
▁급	-9.17884
에선	-9.17906
▁저녁	-9.17981
▁관련해	-9.18093
▁출연	-9.18154
d	-9.18231
▁않았	-9.18263
▁키	-9.18391
구역	-9.1848
▁거야	-9.18486
하고자	-9.18535
▁전략	-9.18555
었습니다	-9.18678
▁부담	-9.18808
스타	-9.18851
▁대통령은	-9.18853
▁점검	-9.18926
감을	-9.19014
▁가정	-9.19076
▁상담	-9.19384
▁비해	-9.19451
자들이	-9.19555
도시	-9.19578
▁비용	-9.19664
▁촬영	-9.19807
▁보여	-9.19881
존	-9.20065
▁치료	-9.20102
▁극	-9.20116
▁부동산	-9.20265
▁자신이	-9.20285
▁영국	-9.20291
벌	-9.20367
였	-9.20368
▁대형	-9.20394
▁확정	-9.20403
했으며	-9.2045
▁공부	-9.2047
▁현실	-9.20531
했는데	-9.20562
여명이	-9.20735
▁파악	-9.20848
▁D	-9.20892
해주세요	-9.20907
촌	-9.20916
▁때문	-9.21026
함을	-9.21066
진다	-9.21079
▁희망	-9.21216
H	-9.21271
▁맞아	-9.21275
자치	-9.21282
▁복지	-9.21362
▁어디	-9.21369
▁모습	-9.21385
▁많아	-9.21524
▁의견을	-9.21705
▁목표	-9.21772
▁협의	-9.21935
▁절차	-9.22011
▁견	-9.22153
▁꼭	-9.22226
▁발생한	-9.22227
▁충	-9.22276
▁행복	-9.2228
▁혁신	-9.22347
▁인식	-9.22355
자로	-9.22369
운동	-9.22525
▁금액	-9.22538
▁이는	-9.22655
▁터	-9.22731
대회	-9.22797
▁제주	-9.23112
겠다	-9.23158
압	-9.23231
▁콘텐츠	-9.23235
▁일을	-9.23278
베	-9.23336
▁공격	-9.23409
▁대해서는	-9.23444
니까	-9.235
▁빈	-9.23518
▁사회적	-9.23556
▁감독	-9.23577
▁자기	-9.23697
▁맛	-9.23742
▁29	-9.23747
▁읽	-9.23809
윤	-9.23948
▁태	-9.24263
▁중에서	-9.2427
하신	-9.24348
▁교수	-9.2438
▁기능	-9.24409
물을	-9.24462
▁이상의	-9.24466
츠	-9.24534
거래	-9.24557
▁절	-9.24569
▁소재	-9.24594
▁시스템	-9.24598
▁어려움	-9.24623
V	-9.24636
▁전망이다	-9.2466
▁사실을	-9.24684
▁거리	-9.24752
▁선발	-9.24814
이고	-9.24819
왔다	-9.24832
화를	-9.24847
▁위치	-9.24847
▁정부의	-9.24893
▁마지막	-9.24933
링	-9.24968
▁출시	-9.24969
l	-9.24999
▁소송	-9.2505
▁못한	-9.25158
▁통합	-9.25168
▁영업	-9.25176
▁쉽게	-9.25271
▁가수	-9.25278
▁시즌	-9.2528
▁높다	-9.25337
▁장관	-9.25343
▁필요하다고	-9.25395
▁철	-9.2543
까요	-9.25584
갑	-9.25632
이지만	-9.25669
▁사무	-9.25714
▁예방	-9.25789
▁법률	-9.25803
▁내용을	-9.25806
▁규정에	-9.25879
발전	-9.26009
겠습니다	-9.26017
▁31	-9.26052
플	-9.26059
▁안에	-9.26075
▁부족	-9.2608
▁광고	-9.26095
됩니다	-9.26124
▁걱정	-9.26191
쳤다	-9.26295
▁전환	-9.26376
▁비롯해	-9.26461
련	-9.26529
협력	-9.26558
닝	-9.26689
▁패	-9.26712
▁만들	-9.26788
▁실적	-9.26845
▁기억	-9.26852
기준	-9.26969
▁얼마	-9.27147
▁2017	-9.2715
팅	-9.2716
▁대구	-9.27238
▁한번	-9.27252
▁향후	-9.27329
▁화재	-9.27396
하겠다	-9.27426
▁딸	-9.2743
▁존재	-9.27451
▁안정	-9.2758
곤	-9.27596
측	-9.27699
▁삼성전자	-9.27768
▁나와	-9.27863
께	-9.27873
▁에너지	-9.2793
▁기획	-9.27952
g	-9.27956
▁결과를	-9.27969
▁미세먼지	-9.28011
서비스	-9.28024
주택	-9.28057
▁업계	-9.2813
▁대출	-9.28199
▁소방	-9.2829
했	-9.28361
▁요즘	-9.28363
▁풀	-9.28416
▁판	-9.28453
▁확산	-9.28534
▁완료	-9.28607
킹	-9.28636
▁베	-9.28734
지가	-9.28815
본부	-9.29021
자에게	-9.29035
월부터	-9.2926
대상	-9.2932
▁자유	-9.29355
▁경기도는	-9.29371
▁보도했다	-9.29449
▁전망	-9.2947
▁사례	-9.29596
▁면	-9.29611
▁마음	-9.29617
▁선물	-9.29695
조의	-9.29731
▁정보를	-9.29734
▁스스로	-9.29966
▁2015	-9.29994
W	-9.30023
▁어제	-9.30071
▁실제로	-9.30097
▁앞두고	-9.30246
▁재정	-9.30276
▁아시아	-9.30364
▁언급	-9.30366
▁신규	-9.30428
▁매출	-9.30447
▁괜찮	-9.30463
▁가져	-9.30505
접	-9.30521
▁프로젝트	-9.30637
대를	-9.30739
▁늘	-9.30781
▁도움이	-9.3079
▁장기	-9.30803
▁소득	-9.30914
위원장	-9.30947
▁병	-9.31015
▁함	-9.31081
▁이유로	-9.31126
▁아무	-9.31201
▁필요하다	-9.31367
보고	-9.31395
▁발언	-9.31464
▁혐의로	-9.31611
▁필	-9.31646
▁측	-9.31668
▁방법	-9.31739
▁항상	-9.31922
▁상황이	-9.32006
금융	-9.32069
▁제품을	-9.32102
▁검	-9.32144
현지시간	-9.32227
▁대통령의	-9.3231
▁참석한	-9.3236
▁그녀는	-9.32372
▁지원을	-9.32418
▁시기	-9.32453
록	-9.32459
▁속도	-9.32526
▁승리	-9.32758
▁기여	-9.32827
▁이하	-9.32847
▁구청장이	-9.32862
▁침	-9.32874
되기	-9.3288
▁등장	-9.32885
▁없었다	-9.32933
▁해서	-9.32971
▁공장	-9.32975
▁크다	-9.33027
있는	-9.3303
득	-9.33105
▁밖에	-9.33125
▁위기	-9.33127
궁	-9.33299
▁데이터	-9.33299
▁사망	-9.33322
▁G	-9.33388
▁그래서	-9.33395
공원	-9.33525
납	-9.33575
하기도	-9.3361
량이	-9.3362
▁달러	-9.33667
▁동시에	-9.337
▁남성	-9.33708
▁믿	-9.33754
▁넘는	-9.33811
식을	-9.33842
▁아동	-9.33847
▁활동을	-9.33881
▁논란이	-9.33881
▁여전히	-9.33909
▁적이	-9.33965
징	-9.34064
▁그렇게	-9.34153
▁위원장	-9.34162
▁디	-9.3417
▁행동	-9.34207
문을	-9.3426
▁전반	-9.3429
뜨	-9.34373
▁체결	-9.34406
▁의혹	-9.34539
▁되나요	-9.346
▁곳이	-9.34645
▁암	-9.34659
▁안내	-9.34719
▁도는	-9.34766
▁나섰다	-9.34766
▁사실이	-9.34806
▁있는지	-9.3482
▁위해서는	-9.34864
▁살아	-9.34954
▁근	-9.35009
▁내용이	-9.35082
▁받	-9.35111
성과	-9.35145
▁팬들	-9.3515
▁스마트폰	-9.35189
▁수요	-9.35237
▁싶어	-9.35255
▁민주당	-9.353
▁이번에	-9.35317
▁작가	-9.35363
▁뿐	-9.35396
▁최저임금	-9.35472
옥	-9.35485
▁이유	-9.35494
▁그림	-9.3552
▁통한	-9.35524
▁쪽	-9.35561
염	-9.35697
▁고민	-9.3573
X	-9.35779
u	-9.35786
▁답	-9.35816
제를	-9.35838
▁인도	-9.35915
▁있었	-9.35948
스가	-9.36008
▁경남	-9.36014
▁사전	-9.36015
▁이름	-9.36016
▁규칙	-9.36134
50	-9.3615
▁향상	-9.36176
분기	-9.36215
▁불편	-9.36221
▁나오	-9.36379
▁어린이	-9.36439
▁그녀	-9.36467
으로부터	-9.36485
▁부과	-9.36506
회사	-9.36517
▁재판	-9.36601
▁피부	-9.36663
▁죽	-9.36707
▁꿈	-9.36757
▁한반도	-9.36808
▁따	-9.36945
▁중단	-9.3703
헌	-9.37125
km	-9.37204
▁정신	-9.37221
▁머리	-9.37287
19	-9.37308
▁약속	-9.37321
▁포함한	-9.37327
려고	-9.37466
▁노래	-9.37573
▁개정	-9.37576
홍	-9.37666
▁방안	-9.37721
없이	-9.37781
▁야	-9.37813
대학교	-9.37815
▁위원장은	-9.37863
▁서비스를	-9.37888
보험	-9.37911
▁비롯한	-9.37925
▁세상	-9.37979
▁청구	-9.37985
빙	-9.38041
▁유통	-9.38087
▁공정	-9.38164
▁의한	-9.38184
버스	-9.38241
▁보험	-9.38242
▁법원	-9.38276
▁M	-9.38325
받은	-9.38337
교육청	-9.38427
듯	-9.3844
장에서	-9.38442
▁싶습니다	-9.38576
▁자금	-9.38586
▁의원이	-9.38618
▁거의	-9.38647
▁외부	-9.38658
개의	-9.387
▁P	-9.38774
이라며	-9.38807
냐	-9.38854
▁중요	-9.38909
▁0	-9.39095
특	-9.39131
처리	-9.39134
원은	-9.39225
▁없어요	-9.39276
▁피해자	-9.39302
▁녹	-9.39316
빈	-9.39449
▁의원은	-9.39475
▁노인	-9.39513
▁얼굴	-9.39606
▁한다고	-9.39616
▁배송	-9.39619
▁결국	-9.39651
▁총리	-9.39714
▁단계	-9.39715
소득	-9.39732
완	-9.39798
▁이것은	-9.39898
▁위원회	-9.39908
▁목적	-9.39947
▁폐	-9.40009
▁회원	-9.40077
▁동물	-9.40091
▁관계자	-9.40109
인가요	-9.40191
▁원하는	-9.40305
▁미국의	-9.40433
▁없을	-9.40438
▁자녀	-9.40486
공무원	-9.40527
원을	-9.40556
주세요	-9.40595
칭	-9.40633
▁시도	-9.40791
▁형	-9.40918
▁통과	-9.4098
힌	-9.40997
▁연장	-9.41047
▁열리는	-9.41063
▁교회	-9.41064
▁제재	-9.41173
▁갖	-9.41175
▁타고	-9.41271
▁빨리	-9.41337
▁사람은	-9.41414
하려고	-9.41485
▁채용	-9.41509
▁위해서	-9.4161
▁예산의	-9.41631
▁인한	-9.41693
▁명의	-9.41726
▁같습니다	-9.41775
▁끝	-9.41776
▁지원할	-9.41777
욕	-9.41783
U	-9.41869
▁한국어	-9.41883
슬	-9.41914
혼	-9.41972
▁과정	-9.42029
▁60	-9.42067
전을	-9.42248
c	-9.4233
▁도움	-9.42341
보다는	-9.42358
▁명이	-9.42399
▁의사	-9.42502
센	-9.42567
단이	-9.42594
▁많	-9.42603
▁기사	-9.42613
▁기반	-9.42613
▁입주	-9.42647
시켜	-9.42673
점이	-9.4268
▁의견	-9.42717
▁소통	-9.42718
▁사항	-9.42784
▁특별한	-9.42806
▁인구	-9.42841
▁자주	-9.42884
▁F	-9.42904
흥	-9.43014
▁범위	-9.4303
▁택시	-9.43134
▁울	-9.43139
춘	-9.43168
▁성적	-9.43251
▁있으면	-9.43254
▁차례	-9.43273
▁특정	-9.43298
▁지적했다	-9.43322
▁강조	-9.43333
▁프랑스	-9.43339
글	-9.4346
제도	-9.43519
▁물건	-9.43742
▁것에	-9.43841
때	-9.439
관광	-9.43953
▁나의	-9.43977
>	-9.43984
▁아주	-9.4402
▁해도	-9.44043
▁가능성	-9.44135
수록	-9.44291
연구	-9.44363
▁매장	-9.4437
사는	-9.44371
칠	-9.44384
렌	-9.44442
▁주도	-9.44454
▁후에	-9.44502
▁술	-9.44527
▁유명	-9.44583
서는	-9.44603
셔	-9.44705
▁위촉	-9.44769
▁작	-9.44792
’(	-9.44795
▁축	-9.44893
▁이유는	-9.44983
▁내놓	-9.45025
▁기업이	-9.45095
▁대중	-9.45116
▁체	-9.45131
▁준	-9.45193
▁이루	-9.45201
▁범죄	-9.45206
▁나온	-9.45253
▁라	-9.45268
▁육성	-9.45298
▁통신	-9.45332
▁도널드	-9.45342
▁수밖에	-9.45356
케이	-9.45376
▁한국에서	-9.45435
▁김정은	-9.45435
페	-9.45503
▁집에	-9.45543
▁알아	-9.45575
▁창출	-9.45577
혈	-9.45587
▁인간	-9.45606
▁범위에서	-9.45607
치를	-9.45634
하겠습니다	-9.45654
▁효과	-9.45677
국장	-9.45699
▁맞는	-9.4572
주는	-9.45749
대책	-9.45776
▁프로	-9.45835
▁건가요	-9.46061
▁미리	-9.46095
▁통일	-9.46182
▁주목	-9.46286
▁<	-9.46352
▁받았	-9.46366
▁좋아하는	-9.46369
좋	-9.46421
기구	-9.46517
었어요	-9.46539
▁중에	-9.46542
행사	-9.46572
녀	-9.46588
▁의장	-9.46646
▁없다는	-9.4665
연구원	-9.46727
▁직무	-9.46847
▁축구	-9.46856
▁사진을	-9.46879
▁않습니다	-9.4691
업무	-9.46927
▁학생들이	-9.46973
갔다	-9.46998
▁위원장이	-9.47215
▁겨울	-9.47331
▁음	-9.47332
시스템	-9.47456
▁부모	-9.47686
▁롯데	-9.47693
▁지지	-9.47704
한테	-9.47761
▁차지	-9.47814
▁놀	-9.47896
▁보수	-9.47945
r	-9.47973
▁보다	-9.47984
빠	-9.47993
▁가격이	-9.4803
인들이	-9.4811
랜드	-9.48228
▁부상	-9.4823
▁논란	-9.48247
▁결혼	-9.48248
▁이들이	-9.48315
▁만드는	-9.48674
▁더불어민주당	-9.4869
▁요리	-9.48718
▁어렵다	-9.4875
▁전자	-9.48759
▁주로	-9.48809
▁육	-9.4881
라도	-9.48886
▁처	-9.48893
한국	-9.48899
▁주장했다	-9.48972
으로서	-9.48973
▁경북	-9.48974
계약	-9.49031
▁이벤트	-9.49046
▁홍콩	-9.49077
▁출석	-9.49081
▁우려가	-9.49084
▁외국	-9.49092
▁아침	-9.49135
슈	-9.49138
▁관련된	-9.4914
▁마무리	-9.49245
▁석	-9.49254
▁보는	-9.49279
뿐	-9.49341
결과	-9.49415
▁돼요	-9.49491
▁부탁	-9.49615
▁학습	-9.49627
▁판결	-9.49645
▁우승	-9.49738
▁돈을	-9.49759
▁종류	-9.4977
함으로써	-9.49833
하려는	-9.49853
걸	-9.4988
▁투입	-9.49894
▁원내대표	-9.49901
학년	-9.50025
▁대책	-9.50082
지방	-9.50107
▁시절	-9.50124
▁봐	-9.50137
▁때는	-9.5018
어야	-9.5018
하다는	-9.50222
▁소비	-9.50268
관이	-9.50276
▁배경	-9.50292
▁말을	-9.50298
▁인력	-9.50315
▁점에서	-9.50324
▁입장을	-9.50374
라면	-9.50404
2%	-9.50474
▁수상	-9.50476
법인	-9.50598
▁불구하고	-9.50794
클	-9.50803
셔서	-9.50815
n	-9.50856
왔	-9.5088
▁가입	-9.50943
▁혐의	-9.50945
3%	-9.5105
▁늘어나	-9.51081
혁	-9.51099
신청	-9.51106
▁모여	-9.5111
▁조건	-9.51174
y	-9.51177
▁처음으로	-9.51203
▁조례는	-9.51211
세가	-9.51242
▁커피	-9.51257
▁사장	-9.51313
▁보고서	-9.51341
▁떠	-9.51357
▁오래	-9.51464
교회	-9.51473
널	-9.51499
▁찾는	-9.51523
▁여부	-9.51537
공항	-9.5155
k	-9.51625
물이	-9.51706
▁변호사	-9.51866
▁새로	-9.51894
▁힘	-9.52001
▁해소	-9.52002
▁않도록	-9.52157
사의	-9.52404
싱	-9.52451
▁대체	-9.52454
▁그러면	-9.5251
휴	-9.52512
▁완화	-9.52577
촉	-9.52695
▁방향	-9.52703
▁예상된다	-9.52784
린다	-9.52845
▁둘	-9.52851
▁민원	-9.52857
▁엄마	-9.52889
▁인증	-9.52909
▁있을까요	-9.52928
▁돈	-9.52935
▁옷	-9.52958
하시면	-9.5323
보호	-9.53336
1%	-9.53371
머	-9.53385
▁씨	-9.53423
▁실무	-9.53425
▁팬	-9.53454
누	-9.53478
▁의무	-9.5353
▁가구	-9.53585
▁센터	-9.53687
콘	-9.53721
4%	-9.5373
스를	-9.53772
▁그대로	-9.5378
▁낙	-9.53817
▁지도	-9.53837
▁의해	-9.53847
▁효과가	-9.53847
▁탄	-9.53849
▁수도권	-9.53885
▁싶은	-9.53965
▁주관	-9.54074
▁오르	-9.54093
▁법인	-9.54145
▁배출	-9.54145
▁느끼	-9.54173
▁포장	-9.54183
▁주는	-9.54187
▁아버지	-9.5432
▁아이들	-9.54359
▁너는	-9.54394
▁부문	-9.54474
▁아니다	-9.54589
음을	-9.54627
재단	-9.54638
만명	-9.54675
원의	-9.54699
증권	-9.54708
람	-9.54748
▁되면	-9.54798
들도	-9.54807
▁하나에	-9.5494
탕	-9.54978
으니	-9.54984
▁도와	-9.5506
▁여름	-9.5509
▁발표한	-9.55097
▁퇴	-9.55167
▁강원도	-9.55269
▁소리	-9.55273
▁전기	-9.55284
▁대전	-9.55284
▁보장	-9.55305
▁2014	-9.55313
▁솔	-9.55314
예요	-9.55342
▁핵	-9.55402
▁이미지	-9.55415
▁경찰이	-9.55426
▁쌓	-9.55462
화가	-9.55667
▁그것은	-9.55717
▁기회를	-9.55838
씨의	-9.55958
▁방안을	-9.55985
▁기초	-9.56017
▁겸	-9.56031
▁이곳	-9.56034
&	-9.56037
▁홈페이지	-9.56037
▁장면	-9.56113
7%	-9.56119
▁못하고	-9.56192
페이	-9.56232
사항	-9.56253
▁보이는	-9.56306
▁올리	-9.56308
▁의지	-9.56345
▁찍	-9.56396
▁제일	-9.56452
▁전문가들	-9.56508
▁우리의	-9.566
통신	-9.56612
▁것과	-9.56752
▁상대로	-9.56883
▁교체	-9.56894
였던	-9.56987
▁신뢰	-9.57006
행위	-9.57047
▁엄	-9.57127
▁힘들	-9.57147
▁2019	-9.5722
▁발굴	-9.57221
하겠다는	-9.57251
▁임명	-9.57321
▁알리	-9.5743
▁감정	-9.57441
▁응	-9.57495
받	-9.57503
▁중이다	-9.57615
▁만약	-9.57672
▁나오는	-9.57918
▁싶어요	-9.58099
▁대규모	-9.58127
8%	-9.58218
▁경쟁력	-9.58255
▁회복	-9.58292
▁연계	-9.58301
했으나	-9.58368
▁덧붙였다	-9.5847
▁운전	-9.58477
▁숙	-9.58481
▁교류	-9.58512
▁단지	-9.58642
▁혼자	-9.588
시에	-9.58824
▁독립	-9.58826
▁그들은	-9.58915
▁클	-9.58946
자와	-9.58946
▁여기에	-9.58964
로운	-9.58966
하다고	-9.58991
▁맞춰	-9.59017
념	-9.59024
▁보니	-9.59086
▁정확한	-9.5916
▁상황을	-9.59264
줘	-9.59277
밖에	-9.59362
리가	-9.59414
몰	-9.59523
▁농업	-9.59528
12	-9.59653
h	-9.59707
er	-9.59742
업계	-9.59752
▁훈련	-9.59772
▁확	-9.59782
▁그냥	-9.59806
어서	-9.59845
효	-9.59846
▁출발	-9.59859
▁끼	-9.59863
▁깨	-9.59886
도로	-9.59954
6%	-9.59971
15	-9.59978
18	-9.59995
0%	-9.6008
▁이야기를	-9.60093
▁되었다	-9.60126
▁나타나	-9.60137
▁꽃	-9.60195
▁내리	-9.60262
▁공항	-9.60381
▁못했다	-9.60397
▁비상	-9.60506
▁스마트	-9.60514
▁바라	-9.6058
과정	-9.60583
▁듯	-9.60585
부가	-9.60606
딩	-9.60703
▁대표가	-9.60708
▁제외	-9.60733
▁김씨	-9.60797
▁계산	-9.6081
하시는	-9.60854
벽	-9.60903
세대	-9.60972
▁누구	-9.60977
▁구속	-9.61024
▁반도체	-9.61081
었던	-9.61193
▁있었던	-9.61289
▁상대	-9.61299
▁최선	-9.61322
사와	-9.61387
▁놓고	-9.61404
체육	-9.61465
▁플랫폼	-9.61472
▁서류	-9.6151
00	-9.61568
Y	-9.61638
스터	-9.6176
협의회	-9.61801
▁위치한	-9.61806
학과	-9.61886
▁잘못	-9.61924
▁왔	-9.61943
▁업무를	-9.61946
▁회담	-9.61958
▁노조	-9.62001
▁수술	-9.62022
▁순간	-9.62044
▁납부	-9.62063
▁감독이	-9.6207
▁하나님	-9.6207
▁퍼	-9.621
▁메뉴	-9.6213
▁형성	-9.62206
년에	-9.62354
안을	-9.62391
▁사실상	-9.62401
가족	-9.62402
▁좋다	-9.62479
▁앞에	-9.62485
드립니다	-9.62514
에게는	-9.62526
▁지금까지	-9.62565
▁지적이	-9.62576
▁나이	-9.627
▁운영하는	-9.62788
▁직장	-9.62837
▁매력	-9.62889
▁낮은	-9.62911
▁지사	-9.62932
▁당신에게	-9.62986
▁연속	-9.63031
▁중요하다	-9.63041
▁전부	-9.63077
률이	-9.63134
▁페	-9.63145
▁망	-9.63176
참	-9.63212
제품	-9.63213
▁싸	-9.63215
구조	-9.6325
▁것이에요	-9.6336
답	-9.63431
▁긴급	-9.63464
슨	-9.63496
▁땅	-9.63504
진흥	-9.63539
▁힘을	-9.63541
▁사항은	-9.63565
▁300	-9.63567
▁되지	-9.63579
▁젊은	-9.63612
명으로	-9.6362
▁당국	-9.63643
▁금지	-9.63728
▁일대	-9.63731
▁운행	-9.63767
공단	-9.63776
▁요금	-9.63784
▁오히려	-9.63785
17	-9.63791
▁교사	-9.63814
돈	-9.63823
▁한국인	-9.63853
조원	-9.63855
▁않으면	-9.63879
▁E	-9.63929
▁조치를	-9.63944
▁북미	-9.63983
장애인	-9.63984
행정	-9.63985
었지만	-9.64001
더라도	-9.64009
잡	-9.6402
/	-9.64048
비가	-9.64065
9%	-9.64091
대학	-9.64101
25	-9.64118
▁500	-9.64147
섭	-9.64168
▁설계	-9.64185
▁정부는	-9.64185
▁속에서	-9.64362
▁사용할	-9.64366
▁싶다	-9.64369
쿠	-9.64401
▁보이	-9.64401
국제	-9.6442
80	-9.64449
▁펼쳐	-9.645
▁금리	-9.64573
▁트	-9.64684
▁갔	-9.64684
▁대표는	-9.65109
▁형태	-9.65114
▁현금	-9.65169
▁동의	-9.65189
40	-9.65191
▁지시	-9.65294
▁근거	-9.65376
▁주거	-9.65379
▁위원은	-9.65407
▁완성	-9.6545
▁직업	-9.65466
▁매일	-9.65573
▁나누	-9.65575
▁색	-9.65596
▁나에게	-9.65621
11	-9.65669
▁N	-9.65742
▁식사	-9.65751
▁이란	-9.6576
▁건축	-9.65789
▁정리	-9.65841
▁이행	-9.65856
카드	-9.65912
▁지역의	-9.65917
었고	-9.65997
▁지자체	-9.66115
▁점이	-9.66125
▁밝혀	-9.66232
허	-9.66287
▁모집	-9.66296
▁무슨	-9.66308
▁보통	-9.66346
13	-9.66383
하였	-9.664
▁낸	-9.66412
▁이것	-9.66443
연구소	-9.66458
▁봉	-9.66467
▁겁니다	-9.66518
주년	-9.6653
비용	-9.6664
임을	-9.66643
위에	-9.66729
▁강남	-9.66787
▁사용자	-9.66894
▁시점	-9.67006
▁붙	-9.67044
:	-9.67094
▁하기	-9.67097
▁받지	-9.67126
▁L	-9.67179
영화	-9.67223
▁혼	-9.67266
▁협약	-9.67283
▁기금	-9.67283
▁스포츠	-9.67325
▁국립	-9.67336
▁뉴욕	-9.67337
년대	-9.67343
회를	-9.67359
▁바람	-9.67391
▁거주	-9.67436
▁전혀	-9.67462
시부터	-9.6748
▁사는	-9.67586
on	-9.67597
검사	-9.67607
▁의심	-9.6762
▁재난	-9.67648
▁방침이다	-9.67666
▁검찰은	-9.6772
리를	-9.67767
▁강한	-9.67808
▁최초로	-9.67932
▁앞에서	-9.67936
▁주식	-9.6797
예술	-9.67974
▁방식으로	-9.68001
만큼	-9.68003
▁취지	-9.68059
▁졸업	-9.68085
▁질문	-9.68088
▁참여하는	-9.68122
▁임금	-9.68125
▁곧	-9.6819
▁대법원	-9.6824
▁근로자	-9.68321
▁답변	-9.68558
▁브	-9.68575
마을	-9.68597
식품	-9.68622
▁경찰에	-9.68715
▁식당	-9.68807
▁허가	-9.68887
▁첨부	-9.68914
번호	-9.68954
▁쉽지	-9.6897
귀	-9.6907
▁문제는	-9.69114
▁인물	-9.6913
욱	-9.69228
▁쏟아	-9.69501
▁쉬	-9.69517
▁보였다	-9.69536
시까지	-9.69538
▁전남	-9.69553
▁재산	-9.69563
부서	-9.69621
▁열심히	-9.69641
년까지	-9.69647
알	-9.69693
16	-9.69705
▁정기	-9.69716
겠다는	-9.69725
▁생명	-9.69744
▁규모의	-9.69794
▁이상이	-9.69839
▁격	-9.6989
500	-9.69899
▁최소	-9.70008
▁왔다	-9.70011
웠	-9.70051
▁무역	-9.70172
▁피해를	-9.70228
▁임시	-9.70242
장에	-9.70319
▁인권	-9.7032
▁염	-9.7034
▁담긴	-9.70342
문제	-9.70359
▁2013	-9.70384
60	-9.70411
▁사이즈	-9.70427
▁공공기관	-9.70472
▁셈이	-9.70476
▁운영에	-9.70505
청장	-9.70537
▁제조	-9.70584
코리아	-9.70663
▁의결	-9.7067
▁장비	-9.70724
▁바란다	-9.70729
▁보안	-9.70749
▁가서	-9.70751
▁바뀌	-9.70764
▁다수	-9.7077
▁통화	-9.70778
▁전용	-9.7081
▁나도	-9.70855
▁떨어지	-9.70907
건설	-9.70911
▁물품	-9.70944
방송	-9.70952
▁기회가	-9.70974
▁반드시	-9.70975
b	-9.7101
▁수익	-9.71035
▁여부를	-9.71061
▁사용하는	-9.71062
▁과제	-9.7113
장과	-9.71131
시가	-9.71156
▁바탕으로	-9.71187
▁삶	-9.71189
드리겠습니다	-9.71223
▁역할	-9.71307
▁본다	-9.71331
치는	-9.71331
▁번호	-9.7137
▁부서	-9.71381
지로	-9.71387
▁같	-9.71416
▁TV	-9.71464
▁싱가포르	-9.71506
▁불러	-9.71507
▁것처럼	-9.71544
▁일어나	-9.71586
▁적극적으로	-9.71638
▁빠르게	-9.71686
▁도전	-9.71706
▁눈길	-9.71731
▁한국에	-9.71734
하시	-9.71762
▁70	-9.71764
▁대만	-9.7177
됐	-9.71774
되었	-9.71786
▁카페	-9.71903
▁곡	-9.71952
틀	-9.72004
▁가능합니다	-9.72018
▁빛	-9.72047
▁대통령과	-9.72129
좌	-9.72145
▁지속적으로	-9.72217
이자	-9.72227
▁주제로	-9.72345
▁블록체인	-9.72362
▁구민	-9.72384
봐	-9.72476
▁한국당	-9.72542
▁관세	-9.72554
벨	-9.72603
▁대해서	-9.72604
▁없다고	-9.72635
▁평소	-9.72666
공간	-9.72705
▁확인해	-9.72724
심사	-9.72742
▁사람을	-9.72762
▁참여한	-9.72839
차례	-9.72883
▁분위기	-9.72891
▁떠나	-9.729
▁자동	-9.72916
▁눈에	-9.72963
▁회계	-9.73004
▁반발	-9.73031
있다	-9.731
▁위원회의	-9.73131
▁꾸	-9.73156
▁주차	-9.73177
▁가치	-9.7324
▁이거	-9.73283
▁사태	-9.73347
▁없고	-9.73359
▁있지	-9.7339
▁콘서트	-9.73402
▁하다	-9.73455
▁접근	-9.73509
컨	-9.73512
▁수정	-9.73516
성장	-9.73534
째	-9.73585
었는데	-9.73586
▁못하는	-9.73588
▁마음을	-9.73622
들에	-9.7365
시키는	-9.73658
▁빼	-9.73665
▁빌	-9.7372
지구	-9.73734
자료	-9.73746
▁행위	-9.73755
풀	-9.73784
▁하나요	-9.73791
▁가야	-9.73809
탑	-9.73839
나무	-9.73855
월에	-9.73867
▁갈등	-9.7387
셨	-9.73875
▁했습니다	-9.73939
함에	-9.73976
스는	-9.7403
▁자리를	-9.74134
▁냉	-9.74214
개를	-9.74249
▁진단	-9.74252
▁북한이	-9.74271
▁자료를	-9.74324
▁평양	-9.74397
감이	-9.74435
▁보관	-9.74446
부를	-9.74451
▁측은	-9.74459
한다면	-9.74523
제가	-9.74562
▁경험이	-9.74583
▁발급	-9.74616
▁일단	-9.74669
▁유치	-9.74678
▁시각	-9.74701
▁주민들	-9.74714
▁군사	-9.74727
분야	-9.74845
▁보상	-9.74939
▁듣	-9.74967
▁부위원장	-9.74999
장으로	-9.75012
▁배치	-9.75084
▁스타	-9.75096
상황	-9.75111
▁생각이	-9.75131
▁인도네시아	-9.75196
드리	-9.75281
컬	-9.75305
자금	-9.75311
▁날씨	-9.75332
▁정당	-9.75354
▁보기	-9.7546
▁연간	-9.7546
▁특성	-9.756
▁속에	-9.75627
▁체계	-9.75689
▁정비	-9.75805
▁때까지	-9.75811
▁생기	-9.7582
▁특수	-9.75832
쳤	-9.7595
했기	-9.75953
량을	-9.75989
▁남편	-9.7599
앤	-9.7601
▁전날	-9.76042
▁정하는	-9.76055
지지	-9.76086
▁헤	-9.761
▁사이에	-9.7613
응	-9.76134
▁전쟁	-9.76142
▁불과	-9.76186
an	-9.76189
됐고	-9.76239
렀	-9.7627
우리	-9.76342
▁먹고	-9.76343
IC	-9.76345
허가	-9.76437
▁폭염	-9.76443
▁오늘은	-9.76473
▁과학	-9.76514
▁그러나	-9.76562
▁호주	-9.76579
▁지식	-9.7661
▁진술	-9.76622
소를	-9.76708
▁이용자	-9.76733
죄	-9.76775
▁거기	-9.7679
하되	-9.76819
▁공감	-9.7682
달러	-9.76824
▁가득	-9.76954
등급	-9.76987
▁배달	-9.76993
▁그리	-9.77036
▁국무위원장	-9.77056
개선	-9.77114
▁도민	-9.77212
롭	-9.77246
▁제주도	-9.77257
▁이들은	-9.77259
▁써	-9.77261
뿐만	-9.77272
▁제출하여야	-9.77313
▁폭행	-9.77318
▁선언	-9.77324
관은	-9.77342
교통	-9.77389
▁자문	-9.77402
▁사과	-9.77422
▁주소	-9.77528
▁항공	-9.77531
짝	-9.77545
케	-9.77568
▁품	-9.77574
▁했어요	-9.77595
▁처벌	-9.77635
▁어머니	-9.77643
▁수수료	-9.77645
14	-9.777
웅	-9.77734
▁토론	-9.77755
▁아들	-9.77782
리아	-9.77798
▁최고의	-9.77801
▁다니	-9.77869
▁목사	-9.77915
▁기준으로	-9.7795
▁슬	-9.77981
겠지만	-9.78025
▁프로그램을	-9.78072
▁개혁	-9.78149
밥	-9.78168
▁부인	-9.7823
▁느낌	-9.78265
턴	-9.78267
▁표시	-9.78281
▁옥	-9.78298
▁이내에	-9.78339
▁길이	-9.78407
▁거부	-9.78459
21	-9.78544
▁말고	-9.78572
▁컴퓨터	-9.78683
해도	-9.78695
▁차이가	-9.78765
되도록	-9.78776
▁머	-9.78778
▁빠른	-9.78989
▁작년	-9.79013
▁초과	-9.79043
▁품질	-9.79046
▁분양	-9.79077
▁2012	-9.79078
▁시작한	-9.79087
▁해석	-9.79102
▁저희가	-9.79161
▁늦	-9.7919
헬	-9.79296
▁체육	-9.793
▁협조	-9.79302
▁인수	-9.79332
▁메일	-9.79393
▁대기업	-9.79487
▁즐길	-9.79488
▁악화	-9.79493
▁시장이	-9.79515
▁SK	-9.7956
놓	-9.79566
톤	-9.79642
▁밝힌	-9.79657
트리	-9.79728
▁주최	-9.79738
찾	-9.79801
▁바다	-9.79958
▁모바일	-9.80067
▁어렵	-9.80086
▁기부	-9.80096
▁추가로	-9.80156
▁캐나다	-9.80183
▁공모	-9.80193
상품	-9.80214
▁이용해	-9.80372
▁찬	-9.80391
▁끝난	-9.80489
륙	-9.80501
▁즐기	-9.80544
▁당신을	-9.80572
▁증거	-9.80645
쇼	-9.80649
▁교환	-9.80692
릭	-9.80726
▁마케팅	-9.80731
▁여기서	-9.80746
하실	-9.80763
▁경비	-9.80801
▁보여주	-9.80858
▁디지털	-9.80988
율이	-9.81072
▁발행	-9.81076
▁신경	-9.81188
▁남아	-9.81292
▁일상	-9.81377
▁전력	-9.81395
해온	-9.81407
▁관하여	-9.81452
▁중국의	-9.81485
f	-9.81508
이번	-9.81541
▁집행	-9.81611
기금	-9.81647
▁달성	-9.81662
▁사람들은	-9.81697
감독	-9.81741
▁시작했다	-9.81841
▁자격	-9.81845
다른	-9.81931
▁제공하는	-9.81937
▁유치원	-9.81962
▁멤버	-9.81993
수는	-9.8202
▁본인	-9.82028
▁지하철	-9.82085
▁선호	-9.82102
▁구입	-9.82114
▁느	-9.82169
적이고	-9.82169
▁지원하는	-9.82211
부서의	-9.82218
▁불가능	-9.82262
▁오른	-9.82472
▁말이	-9.8249
▁훨씬	-9.82574
▁SNS	-9.82607
▁유리	-9.82617
▁섬	-9.82624
하겠다고	-9.82671
▁방문해	-9.82684
▁초기	-9.82705
▁교육감	-9.82718
▁권리	-9.82734
일간	-9.82766
▁전해졌다	-9.8279
사진	-9.82815
▁무엇보다	-9.82882
스크	-9.82899
▁가방	-9.8291
룸	-9.82971
▁탐	-9.82975
▁화제	-9.83031
▁크기	-9.8305
라며	-9.83166
먼	-9.83202
▁충분히	-9.8336
▁사고가	-9.8339
▁안에서	-9.83436
▁허용	-9.83447
▁최대한	-9.83474
▁관광객	-9.83563
▁불안	-9.8357
▁게시	-9.83633
▁북한의	-9.83634
▁양국	-9.83659
핑	-9.83722
▁웃	-9.83736
스러운	-9.83772
▁부여	-9.83791
▁이름을	-9.83832
▁외교	-9.83994
▁활발	-9.83999
선을	-9.83999
경찰서	-9.84048
v	-9.84174
▁후원	-9.84181
▁크	-9.84309
능력	-9.8432
시험	-9.84334
▁도서관	-9.84359
▁지금은	-9.84386
▁식품	-9.84396
▁이익	-9.84419
▁세종	-9.84425
▁제외한	-9.84458
개국	-9.84483
폰	-9.84504
개소	-9.84575
▁이달	-9.84591
이어서	-9.84605
쯤	-9.84608
읍	-9.84618
▁가까운	-9.84659
▁먹는	-9.84667
자원	-9.84697
▁국방부	-9.84725
▁먹을	-9.84766
▁교수는	-9.84768
▁세대	-9.84785
▁절반	-9.84885
▁부분이	-9.84896
둥	-9.84902
▁기자	-9.84927
▁페이스북	-9.84943
찌	-9.84943
웠다	-9.85027
으려	-9.85038
콜	-9.85104
▁카메라	-9.85192
▁하여야	-9.85231
▁대기	-9.85335
▁테	-9.85349
▁지켜	-9.85373
▁종료	-9.85493
▁많았다	-9.85499
▁캐릭터	-9.85513
▁후보자	-9.8553
▁R	-9.85576
▁빚	-9.85587
하셨	-9.8559
장의	-9.85606
시민	-9.85628
(1	-9.85675
▁LG	-9.85705
▁될까요	-9.85707
▁이뤄지	-9.85727
드는	-9.85781
장관	-9.85811
▁가게	-9.85826
▁있다면	-9.85855
봐야	-9.85864
원으로	-9.85904
▁기자회견	-9.85922
흘	-9.85948
▁아름다운	-9.85963
▁느껴	-9.85964
호에	-9.8601
▁보이고	-9.86081
훈련	-9.86095
▁의하여	-9.86101
▁다소	-9.86131
기관의	-9.86139
▁완	-9.86177
▁나올	-9.86202
▁개편	-9.86204
▁만들기	-9.86205
▁반복	-9.86226
▁이용할	-9.86226
▁틀	-9.86241
▁혐의를	-9.86305
▁소유	-9.86337
▁회장이	-9.8635
▁좌	-9.86483
▁봄	-9.86529
▁나를	-9.8654
▁이와	-9.86566
▁들고	-9.86567
▁바꾸	-9.86625
▁있습니까	-9.86648
잔	-9.86657
▁행사를	-9.86673
▁지구	-9.86709
▁인기가	-9.86752
▁지역에	-9.86752
▁서식	-9.86819
▁부부	-9.86827
느	-9.86904
▁과정을	-9.86904
▁나머지	-9.86995
▁징수	-9.87004
▁상당	-9.87009
회관	-9.87031
재산	-9.87046
▁싶은데	-9.87052
▁앱	-9.87094
▁전년	-9.87124
▁공개된	-9.87132
랜	-9.87152
번째	-9.87153
닥	-9.87227
분의	-9.87259
▁기대된다	-9.87286
▁위에	-9.87396
▁직후	-9.8744
방안	-9.87472
혹	-9.87475
리스트	-9.87483
▁때마다	-9.87497
▁중간	-9.8751
▁걷	-9.8752
▁시청	-9.87544
▁주말	-9.8755
께서	-9.87555
▁의회	-9.87572
▁비슷한	-9.87635
▁사상	-9.87643
▁열어	-9.87645
▁후반	-9.87656
▁열고	-9.87658
▁울산	-9.87715
▁실력	-9.87736
드릴게요	-9.87774
▁꾸준히	-9.87786
70	-9.87808
▁그때	-9.87833
위가	-9.87849
▁강원	-9.87866
낼	-9.87907
▁상호	-9.87913
▁노동자	-9.87913
▁부진	-9.87917
드릴	-9.87939
물질	-9.87942
▁사이트	-9.88013
▁좋을	-9.88016
▁처분	-9.88017
▁자산	-9.88064
▁절대	-9.88083
활	-9.88122
부는	-9.88129
▁의미가	-9.88161
▁지키	-9.8817
▁실패	-9.88188
▁좋지	-9.88201
▁알려주	-9.88245
▁교육부	-9.8827
▁지역에서	-9.88274
▁등은	-9.88291
치고	-9.88308
▁적발	-9.88341
보는	-9.88361
▁비교	-9.88454
지원센터	-9.88505
▁루	-9.88509
나는	-9.88516
▁국회의원	-9.88574
▁않아요	-9.88651
▁투표	-9.88657
▁생각합니다	-9.88661
▁친구들	-9.88785
▁기업의	-9.88798
▁미국이	-9.88888
▁예측	-9.88902
값	-9.88908
▁시장에서	-9.89003
습니까	-9.89011
트를	-9.89032
▁쓴	-9.89034
▁시작된	-9.8905
▁즉시	-9.89075
▁잇	-9.89118
놀이	-9.89199
▁인생	-9.89214
함이	-9.89236
느냐	-9.89246
▁친환경	-9.89343
▁밥	-9.89367
렬	-9.89385
▁징계	-9.8939
▁참석했다	-9.89391
롱	-9.89429
벤	-9.89444
회가	-9.8945
▁설정	-9.89475
▁싶	-9.89605
시행	-9.89635
▁계기	-9.89647
▁강제	-9.89706
▁결과가	-9.89725
▁멕시코	-9.89727
치가	-9.89731
▁교육을	-9.89733
▁미국과	-9.89777
▁김영	-9.89802
▁승인	-9.89819
▁빠져	-9.89901
▁충남	-9.89919
▁검증	-9.89924
▁요인	-9.89939
▁있었습니다	-9.89981
▁법안	-9.90007
▁노선	-9.90044
▁제품은	-9.90121
▁부탁드립니다	-9.90121
▁벽	-9.90199
▁나무	-9.90269
시설을	-9.90296
시키	-9.90337
▁구분	-9.90367
▁제품이	-9.90373
▁무료	-9.90402
▁원활	-9.9041
▁환불	-9.90501
▁장애	-9.90543
끼	-9.90548
▁초청	-9.90559
▁위협	-9.90594
▁아마	-9.90681
프라	-9.90699
시고	-9.90712
▁확장	-9.90714
포럼	-9.90732
▁여러분	-9.90759
▁없었	-9.9094
▁걸리	-9.90967
보세요	-9.9099
웨	-9.91091
▁역량	-9.91104
▁모아	-9.91111
▁방지	-9.91157
▁유명한	-9.91213
펜	-9.91229
▁보조금	-9.91252
쓰	-9.91299
▁기소	-9.91311
▁수용	-9.91333
▁작용	-9.91337
봤	-9.91352
▁시군	-9.91375
▁통보	-9.91389
▁높이	-9.9142
관을	-9.91469
▁캐	-9.91515
▁새벽	-9.91521
▁나선	-9.91528
리그	-9.91531
팔	-9.91567
▁규정함을	-9.91567
▁실현	-9.91598
▁출전	-9.9161
쟁	-9.91642
▁상황이다	-9.91643
▁시행령	-9.91662
▁개정안	-9.91665
▁성격	-9.91714
▁지하	-9.91728
주민	-9.91747
▁장관이	-9.91751
조정	-9.91784
▁검찰이	-9.91792
자들의	-9.91804
이었던	-9.91853
▁같은데	-9.91953
회장	-9.91971
시킬	-9.91972
▁하겠습니다	-9.91976
▁축하	-9.91986
▁그래	-9.92012
▁많았	-9.92024
구를	-9.92043
▁보유	-9.92142
▁상장	-9.92182
셔야	-9.92202
씨를	-9.92222
▁진입	-9.9223
▁했지만	-9.92284
▁그린	-9.92297
▁주제	-9.92315
▁나오고	-9.92414
▁자세	-9.92456
▁응원	-9.92531
▁평가를	-9.9255
▁흐름	-9.92592
▁강남구	-9.92605
▁효과를	-9.92612
▁대변인	-9.92625
호선	-9.92702
끊	-9.92712
▁운용	-9.92717
조치	-9.92719
▁때문입니다	-9.92758
게요	-9.92788
끈	-9.92791
이야	-9.928
단지	-9.92805
▁순위	-9.92834
중앙	-9.92847
▁전면	-9.92874
▁가고	-9.92925
▁내에서	-9.92942
체험	-9.93013
갔	-9.93038
▁미술	-9.93053
▁기술을	-9.93134
▁토지	-9.93158
▁압박	-9.93176
단계	-9.93215
▁꼽	-9.93216
하려면	-9.93287
여성	-9.93308
▁여야	-9.93401
시대	-9.93416
하려	-9.93441
담당	-9.93454
▁반면	-9.93458
▁아니냐	-9.93459
국가	-9.93482
▁고객님	-9.93499
▁동영상	-9.93508
▁참석해	-9.93519
웨이	-9.93532
돼야	-9.93538
되자	-9.93577
▁T	-9.9362
▁대표팀	-9.93635
▁선고	-9.93746
▁문의	-9.93754
▁태국	-9.93762
▁마음이	-9.93766
▁확인할	-9.93793
▁이건	-9.93817
▁사무실	-9.93836
겠어요	-9.93911
▁범	-9.93937
꽃	-9.93956
상담	-9.94022
▁들어서	-9.94065
의료	-9.94067
▁진행된	-9.94067
▁봤	-9.94082
따	-9.94093
▁상반기	-9.94173
▁비가	-9.94301
험	-9.94301
팩	-9.94305
▁있어야	-9.94359
▁별표	-9.9436
▁연출	-9.94367
▁여론	-9.94425
▁구청장에게	-9.94447
최	-9.9448
▁편의	-9.94483
▁덜	-9.94509
▁행사가	-9.94588
단을	-9.94604
개혁	-9.94624
▁태풍	-9.94644
▁충격	-9.94671
월까지	-9.94673
억원을	-9.94709
수사	-9.9471
리지	-9.94721
▁사건이	-9.94728
▁체크	-9.94761
▁기대하고	-9.94765
▁갑자기	-9.94797
▁하반기	-9.94799
법을	-9.94877
▁폐지	-9.94885
▁집에서	-9.94888
▁스페인	-9.94932
시티	-9.95081
▁세금	-9.95081
▁자체가	-9.95088
▁열린다	-9.95089
▁비밀	-9.95121
▁계획을	-9.95267
노동	-9.95271
짜	-9.95285
심을	-9.95365
▁마시	-9.95366
▁권한	-9.95395
▁아내	-9.95403
표를	-9.95503
할게요	-9.95531
▁세부	-9.95553
▁미만	-9.95595
▁개별	-9.95609
▁케	-9.9562
▁전까지	-9.95636
팀이	-9.95636
과학	-9.95683
▁만난	-9.9569
▁건립	-9.957
축제	-9.95701
홀	-9.95924
▁브라질	-9.96016
▁수요가	-9.96023
본부장	-9.96037
▁집단	-9.96061
▁대북	-9.96092
▁수원	-9.96107
▁진정	-9.96187
▁효	-9.96187
▁걸쳐	-9.96218
가격	-9.96252
시아	-9.96255
받는	-9.96258
▁한편	-9.96306
컵	-9.96333
칸	-9.96333
▁책을	-9.96341
▁생각한다	-9.96348
▁상대적으로	-9.96351
▁광역	-9.96361
▁자전거	-9.96381
드릴까요	-9.96389
계획을	-9.96406
멘	-9.96423
하라	-9.96441
▁자본	-9.96445
퇴	-9.96522
▁언어	-9.96537
▁의견이	-9.96548
힐	-9.96606
▁이내	-9.96618
▁시범	-9.96634
경찰	-9.96642
엄	-9.96669
24	-9.96746
▁음료	-9.968
단은	-9.96811
▁포기	-9.96817
▁가능한가요	-9.96875
▁정책을	-9.96918
점검	-9.96925
▁모르겠	-9.96934
쉽	-9.96969
▁폭발	-9.96988
부장	-9.97087
▁떨어진	-9.97111
▁바른미래당	-9.97165
▁상징	-9.97183
▁처음이다	-9.97194
▁생각해	-9.97224
▁활약	-9.97233
▁그들	-9.97259
▁비행기	-9.97269
▁차별	-9.97314
리스	-9.97342
▁감사합니다	-9.97354
▁의혹을	-9.97386
▁못해	-9.97425
▁긴	-9.97428
하니	-9.97448
▁넣어	-9.97754
신고	-9.97767
▁매체	-9.97804
▁취임	-9.9783
▁패션	-9.97843
▁티	-9.97849
▁전시회	-9.97867
▁선수들	-9.97889
▁푸	-9.97961
내는	-9.97991
진이	-9.98004
▁기계	-9.98038
▁이사장	-9.98077
분이	-9.98082
려면	-9.98107
▁발생하는	-9.98194
서울특별시	-9.98194
전이	-9.98201
▁쓸	-9.98224
▁기다려	-9.98266
됐던	-9.98284
▁북부	-9.98335
▁촉진	-9.98419
짐	-9.98495
밴	-9.98496
▁참여해	-9.98518
▁어려워	-9.98543
▁헌	-9.98556
▁스타일	-9.98561
▁원래	-9.98574
맥	-9.98577
▁관람	-9.98606
▁삶의	-9.98629
▁커지고	-9.98633
되었습니다	-9.98635
캠프	-9.98651
▁미안	-9.98663
먹	-9.98714
▁압	-9.98714
▁했	-9.98718
▁V	-9.98845
연금	-9.98867
실장	-9.989
▁이슈	-9.98904
전문	-9.98945
▁엘	-9.98998
▁듣고	-9.99054
▁단속	-9.99076
▁등에서	-9.99086
감사	-9.99088
▁단위	-9.99101
▁영역	-9.992
▁H	-9.99213
▁구성된	-9.99268
▁고령	-9.99287
▁어린	-9.99379
▁조기	-9.9943
▁현장에서	-9.9943
▁참고	-9.99469
▁앨범	-9.99478
맞	-9.99509
닐	-9.99514
주가	-9.99514
▁아이디어	-9.99525
사건	-9.99537
▁단순	-9.99558
사고	-9.99572
식이	-9.99631
▁부품	-9.99656
▁칼	-9.99715
됐다고	-9.99742
▁사건을	-9.99812
국민	-9.99822
▁부회장	-9.99838
▁했는데	-9.99853
▁빨	-9.99859
▁기대한다	-9.99863
▁예고	-9.99897
▁시장에	-9.99917
급여	-10.0001
▁결론	-10.0004
▁드러났다	-10.0004
▁거듭	-10.0006
▁일부를	-10.0007
▁당선	-10.0009
▁따른다	-10.001
데요	-10.0011
▁기대감	-10.0014
사업을	-10.0018
▁인천광역시	-10.0023
▁예비	-10.0024
▁존	-10.0026
▁입고	-10.0027
▁부족한	-10.0029
핵	-10.0029
▁심리	-10.0031
▁포함된	-10.0032
▁줄어들	-10.0033
w	-10.0042
▁월드컵	-10.0045
의원	-10.0046
▁뉴스	-10.0059
▁출산	-10.0063
혁신	-10.0068
▁오픈	-10.0074
▁특징	-10.0078
이라도	-10.0078
점으로	-10.0082
단의	-10.0084
▁쿠	-10.0086
▁남은	-10.0089
종합	-10.0103
▁나왔	-10.0104
▁구체적인	-10.0106
▁사정	-10.0107
▁연주	-10.0109
▁만족	-10.0112
▁유엔	-10.0113
▁길을	-10.0115
▁암호화폐	-10.0118
▁진행된다	-10.0122
▁알게	-10.013
▁추세	-10.0132
바이	-10.0139
▁이들의	-10.014
▁선임	-10.0141
▁맥	-10.0146
▁골프	-10.0151
▁근로	-10.0154
보건	-10.0155
▁적은	-10.0155
▁완전히	-10.0157
▁짓	-10.016
▁오랜	-10.016
▁원장	-10.0167
▁새롭게	-10.0168
▁기회	-10.017
al	-10.0172
진흥원	-10.0172
▁멀	-10.0173
▁마이크	-10.0176
상의	-10.018
ar	-10.0182
▁곳에	-10.0186
▁돌아가	-10.0187
▁자랑	-10.0187
교사	-10.019
▁사업에	-10.0193
조사를	-10.0195
앙	-10.0196
▁주의	-10.0196
맹	-10.02
▁부정	-10.02
▁수집	-10.0206
▁일찍	-10.0206
▁종목	-10.021
사들이	-10.0211
▁흔들	-10.0215
▁기타	-10.0219
질환	-10.0219
▁힘든	-10.022
▁대학생	-10.0226
순환	-10.0227
▁사법	-10.0229
▁피해가	-10.0231
전에	-10.0234
▁저에게	-10.0236
▁요소	-10.0238
자동차	-10.0242
▁부모님	-10.0242
▁이어질	-10.0245
▁갖춘	-10.0245
▁일주일	-10.0247
37	-10.0252
▁이끌	-10.0255
▁홀	-10.0261
▁청소	-10.0264
▁연습	-10.0266
라운드	-10.0268
▁살고	-10.0268
▁터키	-10.0272
텔	-10.0273
▁짐	-10.0274
하나	-10.0275
년이	-10.0284
▁분석이	-10.0288
▁의뢰	-10.0294
▁기록했다	-10.0298
▁활	-10.0299
▁끝나	-10.0301
▁그들이	-10.0302
▁운	-10.0308
▁인재	-10.0309
쇄	-10.0311
▁주인공	-10.0311
▁수많은	-10.0311
▁편리	-10.0314
▁화장실	-10.0316
▁이메일	-10.0317
▁노출	-10.0317
▁받아야	-10.0318
▁2010	-10.0319
▁가면	-10.0319
▁모두가	-10.0321
▁뒤에	-10.0324
▁포인트	-10.0332
▁담겨	-10.0332
등록	-10.0336
▁모양	-10.0336
예산	-10.0337
▁출입	-10.0337
▁발생했다	-10.034
▁고발	-10.0345
▁사업이	-10.035
▁유출	-10.0356
됐지만	-10.0374
▁분명	-10.0375
▁화장품	-10.0375
▁모르	-10.0376
▁보낸	-10.0377
▁2000	-10.0377
분쯤	-10.0384
▁수탁자	-10.0385
▁경제적	-10.0386
▁휘	-10.0388
36	-10.0392
▁융자	-10.0392
in	-10.0397
▁대표적인	-10.0402
▁출장	-10.0404
▁80	-10.0409
27	-10.0414
▁자율	-10.0425
입니까	-10.0428
▁노사	-10.0428
▁2011	-10.043
이기도	-10.0431
▁움직임	-10.0444
▁구간	-10.0446
▁광주시	-10.0447
Pop	-10.0449
▁확인됐다	-10.0451
▁안건	-10.0452
▁포함해	-10.0453
솔	-10.0453
▁해주	-10.0455
▁덕	-10.0455
▁다녀	-10.0458
▁손을	-10.0463
곽	-10.0464
사무	-10.0467
춤	-10.0468
▁점점	-10.0469
으면서	-10.0471
▁주시	-10.0473
▁출범	-10.0476
당한	-10.0479
했어	-10.0482
효과	-10.0491
▁했던	-10.0491
▁옆	-10.0494
▁걸어	-10.0494
▁수사를	-10.0498
해주는	-10.0503
▁검색	-10.0503
▁완벽	-10.0504
겠다고	-10.0504
▁현상	-10.0507
위원회의	-10.051
▁논	-10.0514
▁묘	-10.0515
▁부르	-10.0515
▁지연	-10.0522
▁필리핀	-10.0523
줬다	-10.0525
자들	-10.0529
▁주고	-10.0541
▁스타트업	-10.0543
▁누구나	-10.0546
▁어린이집	-10.0548
료를	-10.0551
여행	-10.0553
파크	-10.0554
세기	-10.0555
만원을	-10.0563
▁공연을	-10.0566
▁일제	-10.0567
▁기다리	-10.0568
▁뜻을	-10.0575
▁삶을	-10.0575
▁차이	-10.0577
▁비용을	-10.058
38	-10.0581
▁가까이	-10.0583
▁담은	-10.0588
맛	-10.0591
▁먹어	-10.0595
조차	-10.0595
▁개입	-10.0597
▁외에	-10.0609
▁우수한	-10.0617
이랑	-10.0618
▁인원	-10.0622
릿	-10.0623
튼	-10.0627
▁둘러	-10.0627
켜	-10.063
▁둔	-10.0632
▁알려진	-10.0636
겐	-10.0638
▁소상공인	-10.0646
▁향해	-10.0646
▁국내외	-10.0649
▁씨가	-10.0652
▁지급할	-10.0654
▁있을지	-10.0658
▁해제	-10.066
관련	-10.0665
▁문건	-10.0666
▁인터뷰	-10.067
받고	-10.067
▁이유가	-10.0671
▁철도	-10.0672
23	-10.0677
사로	-10.0679
▁기능을	-10.0682
▁추진하는	-10.0687
▁특징이다	-10.0689
줬	-10.0692
▁정치적	-10.0696
증을	-10.0698
▁시민들	-10.0701
틱	-10.0704
경기도	-10.0707
굴	-10.0711
▁시선	-10.0711
▁실험	-10.0713
▁주차장	-10.0717
▁강사	-10.0718
▁그래도	-10.072
공장	-10.0721
럽	-10.0729
▁칠	-10.073
▁만한	-10.073
▁명예	-10.0731
▁손님	-10.0736
추진	-10.0736
▁하여	-10.0737
▁고통	-10.0739
▁궁금	-10.0742
금액	-10.0746
▁재무	-10.0746
▁종교	-10.0748
▁이틀	-10.075
▁되기	-10.0751
▁있으니	-10.0755
▁착	-10.0755
▁인프라	-10.0755
▁누가	-10.0757
자리	-10.077
▁십	-10.0772
▁프	-10.0772
▁재미있	-10.0774
▁전북	-10.0779
▁의식	-10.078
공연	-10.0781
▁익	-10.0782
▁참여할	-10.0784
▁단독	-10.0785
▁차관	-10.0786
▁미디어	-10.0792
프로	-10.0796
▁끌어	-10.0797
▁파일	-10.0801
▁법령	-10.0803
▁필요하다는	-10.0805
▁사업자	-10.0811
▁학생들	-10.0813
▁지분	-10.0814
▁점이다	-10.0814
현장	-10.0815
▁초대	-10.0816
▁보완	-10.0821
▁뒷	-10.0824
200	-10.0826
▁그려	-10.0833
▁보조	-10.0843
▁성인	-10.0843
▁지역사회	-10.0855
음에도	-10.0855
▁실천	-10.0856
명과	-10.0857
▁관객	-10.0857
꾸	-10.0861
군이	-10.0863
▁쌀	-10.0865
▁신설	-10.0868
▁뉴	-10.0871
맨	-10.0872
▁아니면	-10.0873
회계	-10.0873
▁주민들이	-10.0876
▁만날	-10.0881
쾌	-10.0888
▁입학	-10.0888
룬	-10.0888
▁지출	-10.089
▁가동	-10.0893
▁당장	-10.0895
▁책임을	-10.0908
▁비난	-10.0914
▁들어간	-10.0914
▁신용	-10.0918
▁직원들	-10.092
엘	-10.0925
▁혹은	-10.0927
▁보급	-10.0927
▁재개	-10.093
▁적어	-10.0931
▁노력하여야	-10.0935
▁발표했다	-10.0937
▁총괄	-10.0939
▁가을	-10.094
▁샘플	-10.094
▁와서	-10.0943
▁깊은	-10.0947
▁그런데	-10.0947
▁맛있	-10.0949
▁임대	-10.095
군수	-10.0957
▁정권	-10.096
▁굴	-10.0965
▁관련한	-10.0976
▁부당	-10.0976
▁끝에	-10.0978
▁지배	-10.0981
아이	-10.0981
연맹	-10.0982
▁가능성을	-10.0983
요금	-10.0987
▁흥미	-10.0987
▁장관은	-10.0999
▁사안	-10.1003
▁공원	-10.1003
▁KT	-10.1008
▁개방	-10.101
▁열렸다	-10.1011
▁가시	-10.1013
J	-10.1015
권이	-10.1019
▁특허	-10.1021
▁토요일	-10.1024
▁나선다	-10.1026
▁자원	-10.1026
▁선수들이	-10.1032
잉	-10.1034
▁지내	-10.1034
털	-10.1036
▁만들고	-10.1038
받아	-10.1042
딜	-10.1044
▁기울	-10.1044
▁뇌	-10.1046
▁늘어난	-10.1046
▁경기도와	-10.106
▁불만	-10.1063
▁관객들	-10.1066
든지	-10.1067
600	-10.1073
일에는	-10.1076
과학기술	-10.1084
▁말레이시아	-10.1086
▁시내	-10.1099
교류	-10.11
▁늘어	-10.1108
▁그간	-10.1114
하더라도	-10.1115
▁되었	-10.1123
▁알려져	-10.1125
줍니다	-10.1128
엑스	-10.113
업소	-10.1132
위는	-10.1137
타임	-10.1138
▁대로	-10.1139
▁강력한	-10.1144
인들의	-10.1145
▁법정	-10.1146
▁경고	-10.1148
해왔다	-10.1151
▁의혹이	-10.1155
도지사	-10.116
▁놀이	-10.1166
▁나갈	-10.117
▁겪고	-10.1171
▁김문수	-10.1171
TV	-10.1171
▁아이돌	-10.1172
▁데뷔	-10.1182
주시겠어요	-10.1182
▁보유한	-10.1183
▁밑	-10.1184
▁발생할	-10.1185
렉	-10.1187
도서관	-10.1195
▁고등학교	-10.1196
▁지휘	-10.1197
▁시위	-10.1198
하였습니다	-10.1202
큐	-10.1203
▁적극적인	-10.1207
▁원칙	-10.1211
▁제거	-10.1211
멸	-10.1213
▁진료	-10.1218
▁실수	-10.1225
▁개설	-10.1226
48	-10.1226
▁방법을	-10.1227
▁상황에	-10.1229
▁분야에서	-10.1229
▁따뜻한	-10.1233
▁마치	-10.1235
▁부담이	-10.1239
▁펼치	-10.1246
뉴	-10.1249
▁민족	-10.1251
▁측정	-10.1258
▁올려	-10.1259
▁것인지	-10.1262
▁입법	-10.1265
▁쓰레기	-10.1267
▁양성	-10.1267
▁세트	-10.1274
실에서	-10.1275
참여	-10.1279
붙	-10.1282
▁차단	-10.1291
법원	-10.1291
▁한국과	-10.1297
▁되었습니다	-10.1299
▁‘2018	-10.1305
▁역대	-10.1309
▁춤	-10.131
▁산하	-10.1314
틴	-10.1315
▁정한다	-10.1319
▁강의	-10.1319
!	-10.1326
▁훼손	-10.1326
▁계좌	-10.1328
으세요	-10.1331
▁옮겨	-10.1331
십시오	-10.1331
▁반환	-10.1337
▁해양	-10.1339
같은	-10.1339
▁본사	-10.1341
▁부지	-10.1341
▁지방자치단체	-10.1341
봄	-10.1349
마크	-10.1349
체계	-10.1352
해줄	-10.1354
군의	-10.1354
▁여행을	-10.1354
활동을	-10.1354
▁운전자	-10.1355
▁의도	-10.1357
▁느낄	-10.1358
▁연말	-10.1359
▁통계	-10.136
▁얼	-10.1367
했는지	-10.1369
군요	-10.1369
▁신문	-10.137
톱	-10.1374
▁고려해	-10.1375
▁태도	-10.1375
▁비중이	-10.1378
▁예전	-10.1378
mm	-10.1379
▁구글	-10.1383
▁클럽	-10.1383
▁죄송합니다	-10.1393
▁네트워크	-10.1397
99	-10.1399
당이	-10.1401
▁상영	-10.1406
▁손흥민	-10.1407
▁폼페이오	-10.1407
▁사업장	-10.1409
▁인하	-10.1411
or	-10.1412
▁관계자들	-10.1412
▁증시	-10.1413
▁임원	-10.1413
en	-10.1414
금리	-10.1416
▁올린	-10.1417
▁징역	-10.1418
▁면접	-10.1421
신문	-10.1424
▁뜨거운	-10.1429
▁문서	-10.143
▁평택	-10.1432
▁제조업	-10.1433
선수	-10.1433
▁국토교통부	-10.1434
▁라인	-10.1439
사용	-10.144
괄	-10.1441
▁휴가	-10.1445
▁정한	-10.1447
▁천안	-10.1451
▁변화가	-10.1454
가구	-10.146
▁말해	-10.1461
▁관할	-10.1464
▁보존	-10.1464
▁번역	-10.1466
▁행사는	-10.147
뇨	-10.1472
▁이재	-10.1474
▁통제	-10.1478
었어	-10.148
▁35	-10.148
▁보이지	-10.1486
▁대법원장	-10.1488
트로	-10.1489
지면	-10.1489
서울	-10.1493
▁대리	-10.1497
▁공익	-10.1502
시키고	-10.1505
▁권고	-10.1505
▁발달	-10.1506
▁이끌어	-10.1506
시켰다	-10.1511
▁됐	-10.1516
28	-10.1518
▁형사	-10.1518
▁심의를	-10.1518
▁즉	-10.1533
▁사전에	-10.1535
▁있음을	-10.1538
보니	-10.1547
▁시작으로	-10.1548
▁2009	-10.155
▁균형	-10.155
▁재판부	-10.1552
룡	-10.1555
되어야	-10.1557
▁홈	-10.1558
려는	-10.1561
▁국민연금	-10.1562
▁주목된다	-10.1564
▁생각을	-10.1569
쇠	-10.1571
▁생긴	-10.1576
미사일	-10.1576
▁업	-10.1577
▁심각한	-10.1585
▁서명	-10.1591
▁추정	-10.1592
직원	-10.1593
판매	-10.1606
「	-10.1607
▁국토부	-10.1607
▁채널	-10.1609
젠	-10.161
▁변동	-10.1615
▁점심	-10.1617
됨에	-10.162
▁간담회	-10.1622
총회	-10.1623
▁들어오	-10.1631
작업	-10.1636
▁난민	-10.1637
차량	-10.1637
▁J	-10.164
39	-10.1641
베이	-10.1643
▁학부모	-10.1644
스와	-10.1646
▁이뤄	-10.1647
▁아이들이	-10.1648
▁분리	-10.1649
▁I	-10.1657
게임	-10.1658
폭력	-10.1659
산업단지	-10.1659
▁대해서도	-10.1664
▁장은	-10.1665
▁샤	-10.1666
▁정착	-10.1676
▁이뤄진	-10.1681
청소년	-10.1682
치료	-10.1691
푸	-10.1691
▁평생	-10.1692
▁낮아	-10.1694
▁벗어나	-10.1699
▁등과	-10.1703
▁점수	-10.1705
융합	-10.1706
▁진짜	-10.1708
여명의	-10.1711
▁발송	-10.1714
▁연령	-10.1718
년도	-10.1722
제로	-10.1723
▁드리	-10.1727
▁할머니	-10.1729
▁뛰어	-10.1729
▁비율	-10.1731
엠	-10.1733
▁폐기물	-10.1737
▁정체	-10.1741
▁인정하는	-10.1742
화된	-10.1744
▁활용해	-10.1749
▁수학	-10.1749
▁정황	-10.175
▁대행	-10.175
여명	-10.1751
▁상임	-10.1753
▁가족들	-10.1755
5000	-10.1761
▁극복	-10.1764
호가	-10.1768
▁도심	-10.1771
▁마약	-10.1777
▁충북	-10.1777
▁색상	-10.178
▁전공	-10.1781
동안	-10.1785
대의	-10.1785
레스	-10.1786
▁옆에	-10.1789
▁내에	-10.1793
프로그램	-10.1794
▁테스트	-10.1798
▁키우	-10.18
멜	-10.1806
▁짜	-10.1812
▁하면서	-10.1813
스의	-10.1814
▁없어서	-10.1815
▁맞춤형	-10.1818
▁풀어	-10.1818
선거	-10.1822
▁댓글	-10.1823
▁거론	-10.1828
▁당부했다	-10.1829
▁방침	-10.1842
▁시민들이	-10.1849
▁감독은	-10.1854
Z	-10.1857
▁문제로	-10.1868
▁나눠	-10.1869
▁다리	-10.1871
간다	-10.1872
결정	-10.1887
▁표준	-10.1889
▁노원구	-10.189
▁중국이	-10.1891
▁재료	-10.1893
▁희생	-10.1898
▁급격	-10.1899
▁우리에게	-10.19
▁에이	-10.1901
▁화면	-10.1903
전에서	-10.191
▁만남	-10.191
칙	-10.1911
▁국민들	-10.1911
▁늘고	-10.1915
▁수석	-10.192
여개	-10.192
명은	-10.192
▁합격	-10.1922
▁글을	-10.1924
▁띄	-10.1928
▁분석했다	-10.1931
텍	-10.1932
생산	-10.1932
▁사랑을	-10.1944
들로	-10.1944
선이	-10.1948
▁취득	-10.1952
▁범행	-10.196
▁스트레스	-10.196
▁차원에서	-10.1961
▁기재	-10.1962
▁타이	-10.1962
▁당일	-10.1963
▁앉아	-10.1966
▁마리	-10.1966
▁곳은	-10.1969
▁금감원	-10.1972
▁괴	-10.1972
스럽	-10.1975
▁비즈니스	-10.1977
거든요	-10.1978
▁동료	-10.1978
▁완전	-10.1979
경영	-10.1988
▁않기	-10.1992
▁확실	-10.1992
▁들었다	-10.1993
▁가로	-10.1995
▁형식	-10.1996
▁실시간	-10.2001
▁불가피	-10.2002
▁의원들	-10.2006
섬	-10.2008
▁현황	-10.2017
▁커뮤니티	-10.2018
▁무엇을	-10.2021
▁시장의	-10.2022
▁상위	-10.2024
둘	-10.2025
▁하늘	-10.2028
90	-10.203
전자	-10.203
▁올랐다	-10.2035
▁계기로	-10.2046
킬	-10.2046
▁업종	-10.2047
년에는	-10.2047
▁이웃	-10.205
▁테니	-10.2051
▁연구원	-10.2052
▁보육	-10.2055
▁사유	-10.2055
▁소요	-10.2066
늘	-10.2072
자들은	-10.2074
방법	-10.2077
▁코스	-10.2085
▁질병	-10.2087
▁모임	-10.2094
▁임기	-10.2095
안이	-10.2096
▁레이	-10.2104
▁방법으로	-10.2106
협정	-10.2106
에너지	-10.2107
▁확인하고	-10.211
▁가치를	-10.211
▁기업들이	-10.2113
▁바이오	-10.2114
▁전개	-10.2118
▁효율적인	-10.212
됐으며	-10.2125
항제	-10.2128
▁복합	-10.2128
낭	-10.2133
▁매각	-10.2141
라인	-10.2141
▁메시지를	-10.2142
▁잡아	-10.2143
▁유해	-10.2145
▁사례가	-10.2145
위원회는	-10.2145
얼	-10.2145
▁굉장히	-10.2146
▁공연이	-10.215
둔	-10.215
▁나아가	-10.2153
▁AI	-10.2156
랩	-10.2158
▁방법이	-10.2158
▁보건	-10.2159
▁예정입니다	-10.216
▁이어지고	-10.2163
몬	-10.2169
▁감염	-10.217
▁혜택을	-10.2172
▁벗	-10.2173
▁노후	-10.2174
트가	-10.2177
▁운영을	-10.2177
▁담당자	-10.2184
컴	-10.2187
▁위로	-10.2187
수당	-10.2188
▁편성	-10.2191
떼	-10.2193
26	-10.2196
▁메시지	-10.2197
▁드러나	-10.2198
▁문화를	-10.2205
▁그것이	-10.2207
▁무리	-10.2208
▁건축물	-10.2208
▁수능	-10.221
몽	-10.221
▁신체	-10.2212
▁지불	-10.2212
주기	-10.2213
졌습니다	-10.2213
▁못할	-10.2225
싸	-10.2229
▁시간에	-10.223
▁플	-10.2231
아웃	-10.2231
▁바닥	-10.2236
▁시정	-10.2238
튜	-10.224
▁좋았	-10.2243
▁실행	-10.2245
▁추석	-10.2245
▁사업은	-10.225
민주	-10.2257
재정	-10.2257
▁블랙	-10.2258
▁쓰는	-10.2258
▁고객이	-10.2258
▁2020	-10.2264
축구	-10.2265
▁2008	-10.227
닷	-10.2275
▁체제	-10.2276
▁동반	-10.2278
▁실내	-10.228
코드	-10.2286
부문	-10.2287
▁1000	-10.2287
사무소	-10.2289
∼20	-10.229
연합회	-10.229
졸	-10.2293
▁부총리	-10.2293
▁급증	-10.2298
▁여의도	-10.2298
꾼	-10.2299
▁임직원	-10.2302
▁있으나	-10.2302
▁돌파	-10.2307
▁주가	-10.2309
▁곳에서	-10.2309
▁티켓	-10.2311
▁당초	-10.2312
해져	-10.2317
▁초등학교	-10.2319
▁부정적	-10.2319
▁걸려	-10.2322
▁사로잡	-10.2323
해달라	-10.2325
▁거에요	-10.2331
▁작동	-10.2331
▁상처	-10.2333
▁곳으로	-10.2336
▁응답	-10.2338
철도	-10.2338
하우스	-10.2341
800	-10.2343
▁그만큼	-10.235
▁단축	-10.2355
▁대폭	-10.2357
▁개념	-10.2366
▁호소	-10.2366
▁용인	-10.2368
▁보내주	-10.2371
자인	-10.2372
사랑	-10.2372
▁파주	-10.2373
더니	-10.2383
았습니다	-10.2388
▁150	-10.2394
▁신발	-10.2394
▁시청자들	-10.2394
롤	-10.2395
▁마감	-10.2397
▁긍정적	-10.2401
▁채택	-10.2402
▁질문에	-10.2404
▁그렇지	-10.2407
▁실시한	-10.241
▁선수가	-10.2412
▁적정	-10.2416
EU	-10.2418
인력	-10.2421
▁유튜브	-10.2425
▁다르	-10.2427
▁올해는	-10.2429
▁능력	-10.2431
▁상품을	-10.2431
▁판사	-10.2442
▁아시안게임	-10.2449
윈	-10.2449
▁소화	-10.245
▁비중	-10.2451
미국	-10.2454
▁찾아가	-10.2457
▁점도	-10.2461
▁잡고	-10.2465
싸움	-10.2469
▁복잡	-10.247
▁쇼핑	-10.2471
▁부대	-10.2472
▁개의	-10.2473
▁더불어	-10.2473
▁가슴	-10.2474
▁안보	-10.2475
▁끌고	-10.2477
55	-10.248
▁가려	-10.2483
▁착용	-10.2484
▁벌써	-10.2486
▁놀라	-10.2491
▁무역전쟁	-10.2492
▁경기를	-10.2495
▁합동	-10.2496
▁열정	-10.2502
절차	-10.2504
텐	-10.2507
▁90	-10.2509
▁그건	-10.251
받을	-10.251
▁액	-10.2512
내용	-10.2515
▁똑같	-10.2522
타운	-10.2523
▁영상을	-10.2529
▁여건	-10.2533
▁자극	-10.2534
▁늘리	-10.2536
▁주주	-10.2536
팝	-10.254
▁이끄는	-10.2546
액이	-10.2548
▁들여	-10.255
것	-10.2554
▁들었	-10.2561
심의위원회	-10.2562
▁날짜	-10.2563
▁영양	-10.2564
▁포항	-10.2565
▁일요일	-10.2568
▁취약	-10.2571
at	-10.2572
▁오른쪽	-10.2573
킨	-10.2573
▁나중에	-10.2573
▁미치는	-10.2575
▁결승	-10.2582
씨와	-10.2584
▁채권	-10.2589
용품	-10.2596
즐	-10.2599
▁소식	-10.26
보면	-10.2603
자산	-10.2611
▁창원	-10.2618
▁치료를	-10.2621
첨	-10.2625
센터에서	-10.2632
▁현대차	-10.2636
▁굳	-10.2636
▁올림픽	-10.2637
▁통해서	-10.2638
▁조작	-10.264
▁10%	-10.2647
▁둔화	-10.2647
▁기상청	-10.265
▁않게	-10.2655
▁찬성	-10.266
▁화성	-10.266
▁과태료	-10.2662
이라면	-10.2673
대는	-10.2673
므	-10.2674
콤	-10.2675
▁투명	-10.2678
▁흑	-10.2688
▁농가	-10.2691
▁당사자	-10.2692
▁충전	-10.2695
버리	-10.2696
▁전부터	-10.2697
신도시	-10.2697
▁강릉	-10.2703
중국	-10.2704
▁공기	-10.2708
▁공개했다	-10.2709
▁한화	-10.271
체가	-10.2711
▁자리에	-10.2714
▁웃음	-10.2716
▁영수증	-10.2718
▁야당	-10.2719
해진	-10.272
되었고	-10.272
업자	-10.2723
▁금요일	-10.2726
소리	-10.2732
기록	-10.2732
▁담아	-10.2741
▁소비자들	-10.2742
Q	-10.2743
▁떨	-10.275
▁복귀	-10.2752
▁전원	-10.2753
시킨	-10.2755
▁체포	-10.2759
캐	-10.2764
▁여당	-10.2764
▁꿈을	-10.2766
세포	-10.2772
▁품목	-10.2772
전략	-10.2776
▁통하여	-10.2778
▁머물	-10.2778
▁농촌	-10.278
▁이사	-10.2785
▁녹색	-10.2786
▁로봇	-10.2787
무역	-10.2788
▁어디에	-10.2788
▁간의	-10.2794
▁찾고	-10.2795
▁진행되는	-10.2798
없는	-10.2798
▁경력	-10.2808
▁사유가	-10.281
▁잠시	-10.281
▁생각하는	-10.2811
▁요구하는	-10.2814
▁찾은	-10.2815
셀	-10.2815
▁기업들	-10.2816
원입니다	-10.282
상태	-10.2821
▁감안	-10.2823
▁전망된다	-10.2824
듀	-10.2824
고속도로	-10.2824
▁뿐만	-10.2826
▁무료로	-10.2828
청사	-10.2829
▁누군가	-10.283
▁독서	-10.2831
▁모색	-10.2832
▁묵	-10.284
▁높아지고	-10.2841
▁올라가	-10.2846
짜리	-10.2847
▁여권	-10.2849
▁계정	-10.285
▁이제는	-10.2852
49	-10.2852
▁연휴	-10.2855
빛	-10.2859
▁투어	-10.2862
럼	-10.2862
▁토대로	-10.2862
호서식의	-10.2866
호서식에	-10.2867
램	-10.2868
▁고위	-10.2868
▁세워	-10.2871
▁유입	-10.2871
▁이유를	-10.2873
▁점차	-10.2875
▁힘이	-10.2877
농업	-10.2879
▁대학교	-10.2879
▁수여	-10.2881
▁김치	-10.2882
▁관측	-10.2884
▁대안	-10.2887
▁야구	-10.2889
▁파견	-10.2893
▁백악관	-10.2899
▁비용이	-10.2901
깊	-10.2902
▁거라	-10.2903
▁현행	-10.2903
▁초반	-10.291
▁법적	-10.2911
핀	-10.2912
▁이어졌다	-10.2914
▁꺼	-10.2918
▁생일	-10.2923
해지고	-10.2923
대출	-10.2925
▁충돌	-10.2928
▁당신과	-10.293
▁좋겠다	-10.2931
받았	-10.2931
▁산불	-10.2935
▁유도	-10.2936
구요	-10.2938
▁측면	-10.294
▁서류를	-10.2946
나라	-10.2948
▁떨어져	-10.295
▁뛰	-10.2952
특별	-10.2952
22	-10.2953
▁하나로	-10.2954
▁20%	-10.2955
▁축소	-10.2959
29	-10.296
▁몽골	-10.2963
▁첨단	-10.2963
▁맞추	-10.2967
▁그녀가	-10.2968
▁찾을	-10.2969
▁U	-10.2971
▁최초	-10.2972
▁이름이	-10.2976
▁지속적인	-10.2976
사업자	-10.2979
▁방탄소년단	-10.2982
▁박물관	-10.2985
▁증명	-10.2985
▁국내에서	-10.2986
▁눈이	-10.2994
▁정부와	-10.2994
▁사용료	-10.2995
▁경기가	-10.2997
▁성폭력	-10.3005
원장	-10.3008
▁기술이	-10.3009
▁팀이	-10.301
피해	-10.301
▁사이에서	-10.3012
▁그게	-10.3013
▁받기	-10.3019
▁앞둔	-10.3022
▁대선	-10.3022
▁신호	-10.3024
▁관내	-10.3024
IP	-10.3029
▁월요일	-10.3035
▁풀이된다	-10.3039
▁학생이	-10.3049
묘	-10.3049
▁지점	-10.3053
▁가치가	-10.3054
▁사회복지	-10.3055
▁산림	-10.3062
▁개막	-10.3063
디자인	-10.3066
▁분쟁	-10.3071
▁맨	-10.3071
▁선보인	-10.3072
▁숨진	-10.3075
위로	-10.3078
▁생겨	-10.3078
▁학교에	-10.3083
▁불이	-10.3086
첩	-10.309
▁왼쪽	-10.309
▁IT	-10.3091
▁감동	-10.31
▁이탈리아	-10.3103
▁탑승	-10.3103
협의체	-10.3104
▁알려주세요	-10.3109
▁불리는	-10.3116
▁사람에게	-10.3116
▁1,000	-10.3119
▁부산시	-10.3121
▁정원	-10.3129
창업	-10.3136
▁전망이	-10.3138
갑니다	-10.314
▁구속영장	-10.3142
건강	-10.3144
▁설치된	-10.3144
픽	-10.3148
▁셀	-10.3151
▁통상	-10.3151
▁배제	-10.3154
▁이른바	-10.3155
▁여유	-10.3155
▁위원회는	-10.3164
쌍	-10.3168
▁뿌리	-10.3182
예방	-10.3182
기능	-10.3182
▁밖의	-10.3183
▁학원	-10.3186
실적	-10.3187
전문가	-10.3188
▁자리에서	-10.3191
▁활용한	-10.3191
죽	-10.3191
▁위원장의	-10.3192
항공	-10.3197
▁어디서	-10.3199
▁점은	-10.3199
▁고기	-10.3199
밭	-10.32
▁기독교	-10.3207
사항을	-10.3208
크림	-10.3215
▁카카오	-10.322
100	-10.3223
져야	-10.3228
▁이용하는	-10.3233
cm	-10.3234
▁이전에	-10.3237
쉬	-10.3241
▁팬들이	-10.3245
▁승인을	-10.3246
▁향한	-10.325
▁휴식	-10.3252
▁옷을	-10.3253
▁몰려	-10.3254
▁보여주는	-10.3256
호텔	-10.3258
엽	-10.3259
▁일은	-10.3269
▁관련하여	-10.3273
▁있었지만	-10.3275
▁해상	-10.3276
▁고소	-10.3276
▁선사	-10.3277
▁의미를	-10.3278
▁동원	-10.3279
▁예능	-10.328
▁국회에서	-10.328
춰	-10.3281
▁청주	-10.3281
보장	-10.3295
▁세계적인	-10.3295
▁받게	-10.3296
평화	-10.3297
5,000	-10.3305
▁표정	-10.3305
▁본격	-10.3308
▁알았	-10.3311
▁출근	-10.3318
층에	-10.3324
▁영향	-10.3326
졌고	-10.333
▁내린	-10.3331
▁공정위	-10.3332
▁본격적	-10.3333
처분	-10.3334
봉투	-10.3334
▁미군	-10.3335
▁총장	-10.3336
하면서도	-10.3339
보증	-10.3345
▁수십	-10.3345
▁집회	-10.335
▁경계	-10.335
끄	-10.3352
▁외에도	-10.3355
▁생태계	-10.3356
▁입증	-10.3359
▁과목	-10.3368
▁연극	-10.3372
▁유력	-10.3376
▁50%	-10.3377
▁예산을	-10.3378
▁둘러싼	-10.3378
▁협업	-10.3379
▁생존	-10.3379
▁기도	-10.3381
마저	-10.3387
▁상생	-10.3389
쥐	-10.3397
▁필요합니다	-10.34
▁김정	-10.3405
됐습니다	-10.3405
▁문화재	-10.3408
▁한정	-10.3409
칼	-10.341
▁진화	-10.3411
▁단어	-10.342
▁경기도지사	-10.3421
▁목표로	-10.3422
▁하되	-10.3423
▁폭력	-10.3423
▁명절	-10.3423
면서도	-10.3427
▁풍부한	-10.3431
▁탄생	-10.3435
▁라이	-10.3442
▁바라보	-10.3445
▁대거	-10.3447
▁마음에	-10.3454
▁만들었다	-10.3455
IS	-10.3458
근무	-10.3459
▁없지만	-10.346
▁이것이	-10.3463
▁무엇	-10.3464
하러	-10.3465
▁드릴게요	-10.3467
▁찾기	-10.3467
해질	-10.3467
▁늦어	-10.3468
▁구단	-10.3469
▁소식을	-10.3469
BC	-10.3477
▁펀드	-10.3479
▁생각해요	-10.3483
▁숙박	-10.3483
생명	-10.3484
▁입은	-10.3487
▁눈물	-10.3487
님이	-10.3487
깃	-10.3491
▁반응	-10.3494
▁W	-10.3494
▁인정받	-10.3495
뷰	-10.3497
▁직원이	-10.3501
▁유일	-10.3501
▁영향으로	-10.3507
▁파티	-10.3508
▁애플	-10.3509
덤	-10.3511
▁현재까지	-10.3512
▁무상	-10.3515
98	-10.3515
았던	-10.3515
▁주력	-10.352
▁교수가	-10.352
음악	-10.3522
▁시책	-10.3524
▁돌려	-10.3526
▁넘게	-10.3535
▁달하는	-10.3536
▁대사	-10.3536
▁영향력	-10.3537
▁오염	-10.3537
▁물량	-10.354
▁비율이	-10.3546
방식	-10.3548
▁많지	-10.3549
▁제정	-10.3549
▁자신들	-10.355
▁넘겨	-10.3551
▁주인	-10.3552
▁안전한	-10.3555
▁상상	-10.3563
조직	-10.3565
브라	-10.3567
▁후보가	-10.3568
▁의원의	-10.3575
▁권력	-10.3575
▁얻어	-10.3578
▁적지	-10.358
▁행정부	-10.3586
▁성분	-10.3588
▁봉사	-10.359
▁제출한	-10.3591
▁낼	-10.3594
▁진행됐다	-10.3594
▁환영	-10.3595
▁긍정적인	-10.3598
▁강하게	-10.36
(20	-10.36
▁중소	-10.36
▁내고	-10.36
▁가졌다	-10.3601
▁시설물	-10.3604
유산	-10.3605
▁숲	-10.3605
▁이같이	-10.3606
▁빵	-10.361
▁쓰고	-10.3616
▁분위기를	-10.3617
폐기물	-10.3617
▁인공지능	-10.3619
▁소식이	-10.3619
▁이유다	-10.362
▁관계를	-10.3623
시즌	-10.3623
펀드	-10.3624
럭	-10.3625
▁끌	-10.3626
▁출동	-10.3629
▁최소화	-10.3632
▁아니요	-10.3635
▁이게	-10.3637
▁문화예술	-10.3639
▁결합	-10.364
▁실시한다	-10.364
▁증가한	-10.3644
뼈	-10.3646
▁투자자	-10.3648
▁여성이	-10.3653
▁관해	-10.3654
▁따라서	-10.366
▁형태로	-10.3661
흡	-10.3665
▁행복한	-10.3665
겁	-10.3666
▁이뤄질	-10.3672
마켓	-10.3673
▁질환	-10.3674
▁긴장	-10.3674
▁외교부	-10.3674
▁개봉	-10.3675
▁뛰어난	-10.3676
니아	-10.3681
▁돈이	-10.3682
▁다문화	-10.3688
▁회장은	-10.3698
세계	-10.3698
▁캠페인	-10.37
챔	-10.37
▁공동으로	-10.3703
▁감면	-10.3703
▁착수	-10.3704
▁하였다	-10.3707
플러스	-10.3715
▁조절	-10.3718
스카	-10.372
조선	-10.3722
▁문제점	-10.3724
▁딱	-10.3727
▁부담을	-10.3738
▁이용한	-10.3741
▁좋아요	-10.3742
장치	-10.3742
▁국민의	-10.3751
▁심각	-10.3752
▁분류	-10.3753
▁문자	-10.3755
▁메이	-10.3758
▁지진	-10.3759
▁박근혜	-10.3761
▁금융위	-10.3761
▁콜	-10.3763
럴	-10.3764
▁한식	-10.3771
노조	-10.3771
▁민주	-10.3772
묵	-10.3785
▁문제에	-10.379
▁장점	-10.3792
▁허위	-10.3794
▁고급	-10.3795
▁이루어지	-10.3798
전시	-10.3799
마당	-10.3802
▁조언	-10.3803
▁구현	-10.3805
선언	-10.3807
▁비슷	-10.3808
(5	-10.381
kg	-10.382
46	-10.3824
▁법무부	-10.3824
FC	-10.3826
롭게	-10.3828
▁동일	-10.3828
닉	-10.3831
▁교부	-10.3835
폴	-10.3835
▁물어	-10.3836
써	-10.3837
▁선출	-10.384
▁폐기	-10.3842
▁둔다	-10.3844
여서	-10.3848
집니다	-10.3848
▁시스템을	-10.3849
보고서	-10.385
옵	-10.3852
▁봤다	-10.3857
▁마치고	-10.386
건축	-10.3863
▁학생들의	-10.3866
▁면제	-10.3867
▁수준의	-10.3868
▁않았습니다	-10.3868
▁남아있	-10.3868
▁방북	-10.3871
시나요	-10.3876
▁가량	-10.3876
▁추억	-10.3883
▁남성이	-10.3885
▁선박	-10.3887
갈수록	-10.3888
▁제약	-10.389
300	-10.389
▁달려	-10.3893
▁건조	-10.3893
▁준다	-10.3897
마리	-10.3897
▁폐쇄	-10.3902
협상	-10.3904
랄	-10.3908
▁누리	-10.3908
▁별로	-10.3916
▁편안	-10.392
▁선정된	-10.3923
▁방문한	-10.3924
▁가스	-10.3924
▁다음달	-10.3926
▁실종	-10.393
▁동기	-10.3936
▁아직도	-10.3939
▁심화	-10.394
▁소녀	-10.3945
▁죽음	-10.3948
▁진실	-10.3948
조례	-10.3949
▁기획재정부	-10.395
▁마친	-10.395
▁작품을	-10.3955
▁측이	-10.3956
▁맞이	-10.3958
▁대상자	-10.3958
▁찍어	-10.3967
떡	-10.3971
▁너희	-10.3974
▁세우	-10.3975
▁지원한다	-10.3976
▁진전	-10.3981
학습	-10.3981
▁호응	-10.3982
장비	-10.3987
▁무기	-10.3988
랭	-10.3992
▁에스	-10.3993
▁맥주	-10.3996
▁청원	-10.3996
▁많고	-10.3999
▁추진하고	-10.4
연대	-10.4003
수행	-10.4005
운용	-10.4006
▁흘러	-10.4006
재판	-10.4017
▁덕분에	-10.402
스포츠	-10.4022
▁퇴직	-10.4023
▁가격은	-10.4032
▁CCTV	-10.4034
▁정확히	-10.4034
-1	-10.4037
구나	-10.4039
▁적립	-10.404
▁맡았	-10.4041
머니	-10.4043
되기도	-10.4049
▁참가자들	-10.4049
▁폴	-10.4052
▁유형	-10.4053
▁이목	-10.4055
▁강연	-10.4056
▁저도	-10.4057
▁현상이	-10.4062
35	-10.4066
▁혼란	-10.4069
▁남부	-10.4072
▁화물	-10.4075
▁낳	-10.4081
껏	-10.4084
차전	-10.4088
CC	-10.4089
▁현안	-10.4097
▁수당	-10.4098
▁아닙니다	-10.4098
▁효율적으로	-10.4102
북한	-10.4103
스코	-10.4112
하나요	-10.4113
▁올렸다	-10.4122
▁않았지만	-10.4126
하라고	-10.4134
▁베이	-10.4136
브리	-10.4137
▁일시	-10.4137
나가는	-10.4138
▁흐	-10.4141
95	-10.4143
▁사기	-10.4143
▁종이	-10.4146
사실	-10.4147
▁부실	-10.4151
▁설비	-10.4156
▁부처	-10.4161
▁전망했다	-10.417
▁본격적으로	-10.4171
▁아티스트	-10.4177
▁대하여는	-10.4181
뉴스	-10.4181
▁증진	-10.4187
▁고정	-10.4187
렸습니다	-10.4188
▁국방	-10.4191
▁지명	-10.4191
▁무게	-10.4192
▁소집	-10.4193
▁없나요	-10.4194
▁상관없	-10.4199
▁진행한다	-10.4203
흔	-10.4203
▁진로	-10.4207
▁필수	-10.4211
▁데다	-10.4216
▁침해	-10.4217
▁기분이	-10.4219
▁운영할	-10.4219
▁경기에서	-10.422
▁서울대	-10.4221
▁호흡	-10.4222
▁별도의	-10.4223
▁이중	-10.4224
▁내렸다	-10.4225
프레	-10.4226
▁장르	-10.4231
▁한글	-10.4232
▁추진할	-10.4237
▁검찰에	-10.4238
▁아빠	-10.4249
31	-10.4249
▁평가했다	-10.4251
자재	-10.4252
▁흥	-10.4253
▁플레이	-10.4253
▁싫어	-10.4254
▁동생	-10.4254
▁트위터	-10.4256
▁장식	-10.4257
는데요	-10.4261
▁정식	-10.4263
▁재고	-10.4265
벤처	-10.4265
▁30%	-10.4265
▁대단	-10.4284
▁포착	-10.4289
▁거주하는	-10.4289
▁영어를	-10.4289
▁보낼	-10.429
▁접촉	-10.4295
▁분위기가	-10.4296
47	-10.4298
▁직전	-10.43
▁편지	-10.4306
▁최저	-10.4311
젤	-10.4314
▁깨끗	-10.4314
▁조명	-10.4316
▁옛	-10.4316
▁대처	-10.4318
드려	-10.4319
▁왜냐하면	-10.4321
▁동네	-10.4323
▁2007	-10.4323
▁발휘	-10.4324
해졌다	-10.4325
▁핸드폰	-10.4328
▁저장	-10.4331
아시아	-10.4334
책임	-10.4336
▁도모	-10.4337
▁각자	-10.4337
▁약간	-10.4337
▁빠지	-10.4337
▁담배	-10.4338
▁프리	-10.4339
▁차지했다	-10.4342
▁고등	-10.4342
▁제목	-10.4342
▁것이란	-10.4342
▁상태다	-10.4348
▁먼	-10.4349
합니까	-10.4349
효율	-10.4356
▁마련된	-10.4359
▁감시	-10.4363
▁갖추	-10.4364
전쟁	-10.4366
일자리	-10.4367
▁진행하고	-10.4367
▁편의점	-10.4368
▁화웨이	-10.4369
▁공개한	-10.437
▁드리겠습니다	-10.4375
▁일자리를	-10.4377
▁아프	-10.4379
▁개발한	-10.438
▁비교적	-10.4385
▁공동주택	-10.4385
▁자는	-10.4393
기획	-10.4395
▁입력	-10.4398
700	-10.44
▁활용할	-10.4405
▁응급	-10.4405
▁별도로	-10.4405
ᆞ	-10.4409
▁죄송하지만	-10.441
▁쇼	-10.4414
▁주변에	-10.4417
」(	-10.4417
▁살해	-10.4418
▁분야의	-10.4421
규모	-10.4421
▁강력	-10.443
▁방향으로	-10.4437
▁준수	-10.4438
▁배터리	-10.4438
▁프리미엄	-10.4446
▁재미	-10.4448
▁묶	-10.445
되거나	-10.4451
▁늦게	-10.4453
~	-10.4453
▁숫자	-10.4453
▁열차	-10.4455
방위	-10.4456
▁소관	-10.4459
88	-10.4459
증진	-10.4464
▁드러	-10.4465
▁물리	-10.4468
▁제공한다	-10.4469
대상자	-10.447
소송	-10.447
▁조사됐다	-10.4479
닿	-10.4482
▁비롯	-10.4482
▁세탁	-10.4485
깔	-10.4489
75	-10.449
틈	-10.449
▁에어	-10.4491
▁동작	-10.4492
▁쪽으로	-10.4502
▁국정	-10.4504
▁빅	-10.4504
왔던	-10.4506
▁피의자	-10.4506
▁타격	-10.4507
x	-10.4512
▁신분	-10.4512
▁얻고	-10.4527
▁없도록	-10.4529
안정	-10.4529
▁제공하고	-10.4531
범위	-10.4532
▁이승	-10.4537
체제	-10.4537
▁탓에	-10.4538
▁행보	-10.4542
없	-10.4548
▁찾으	-10.4548
들어	-10.4548
▁재배	-10.4548
▁것보다	-10.4549
▁벌금	-10.4549
▁성폭행	-10.4564
디스플레이	-10.4564
▁기반으로	-10.4565
▁실시할	-10.4566
▁선정됐다	-10.4574
▁헌법	-10.4578
랍	-10.4579
▁어려울	-10.4579
사례	-10.458
▁곳이다	-10.4591
▁유발	-10.4592
▁이재명	-10.4594
∼1	-10.4595
it	-10.4602
▁자살	-10.4603
▁주기	-10.4603
▁산정	-10.4603
엔터테인먼트	-10.4609
▁입원	-10.4616
▁적절한	-10.4616
▁이어지는	-10.4617
▁고양이	-10.4619
▁위임	-10.462
▁지상	-10.4623
▁임기는	-10.4623
릉	-10.4627
▁극단	-10.4632
냥	-10.4635
▁몰라	-10.4635
▁늘었다	-10.4637
▁차지하는	-10.4638
▁진행하는	-10.4642
▁발사	-10.4642
▁빠진	-10.4648
▁서구	-10.4652
▁수급	-10.4653
▁진행될	-10.4653
▁폭로	-10.4668
▁걸릴	-10.4672
▁새해	-10.4676
▁고려하여	-10.4679
옹	-10.4684
▁가계	-10.4686
▁보증	-10.4687
님께서	-10.4688
▁스토리	-10.4694
클럽	-10.4697
▁압수수색	-10.4699
장애	-10.47
▁모르는	-10.4701
▁기각	-10.4706
▁잇따라	-10.4707
▁좋습니다	-10.4707
▁지역주민	-10.4709
▁준공	-10.4718
▁충분한	-10.4719
▁전기차	-10.472
▁파트너	-10.4722
▁벌어지	-10.4724
96	-10.4728
▁온도	-10.4728
▁열었다	-10.4731
▁싶었	-10.4735
▁받는다	-10.474
▁공동체	-10.4742
▁아기	-10.4746
공동	-10.4747
▁않아도	-10.4748
▁이외에	-10.4751
▁슈퍼	-10.4752
▁운영하고	-10.4753
여건	-10.4757
▁빗	-10.4759
넷	-10.476
릅니다	-10.476
▁끝내	-10.476
▁지체	-10.4772
▁비리	-10.4774
▁구체적으로	-10.4778
조건	-10.4789
▁판단했다	-10.4792
▁텐데	-10.4793
문학	-10.4794
▁물질	-10.4796
▁도쿄	-10.4798
▁매입	-10.4801
▁소장	-10.4802
59	-10.4802
▁박람회	-10.4806
규정	-10.4807
▁연합	-10.4809
연합	-10.4809
티브	-10.481
97	-10.481
▁우주	-10.4815
▁꼬	-10.4816
▁절감	-10.4816
▁반응을	-10.4818
정신	-10.482
▁삭제	-10.4821
▁각국	-10.4822
▁연예인	-10.4822
▁장치	-10.4824
▁멤버들	-10.4826
▁승객	-10.4827
푸드	-10.4827
▁박스	-10.4828
하였고	-10.4832
▁대책을	-10.4836
▁전담	-10.4837
▁맛이	-10.4841
▁복구	-10.4843
▁재판에	-10.4854
학원	-10.4856
규제	-10.4856
▁컨설팅	-10.4857
억달러	-10.4858
▁경기북부	-10.4859
▁합리적	-10.4861
▁연수	-10.4863
▁움직이	-10.4867
▁45	-10.4867
▁거래소	-10.4868
▁진행할	-10.4873
▁말하는	-10.488
▁않지만	-10.4888
▁문학	-10.4889
으로써	-10.4889
켓	-10.489
밸	-10.489
▁케이팝	-10.489
▁건강한	-10.489
▁표창	-10.4891
상당히	-10.4893
▁자국	-10.4894
▁상태에서	-10.4897
▁며칠	-10.4906
▁비판했다	-10.4909
담당관	-10.491
▁행사에는	-10.4911
룰	-10.4913
▁간사	-10.4913
▁죄	-10.4914
▁노래를	-10.4922
▁워싱턴	-10.4936
▁의사를	-10.4942
벼	-10.4944
▁재단	-10.4945
▁안타	-10.4947
▁이때	-10.4955
▁손실	-10.4959
임금	-10.4962
▁입구	-10.4963
▁여성들	-10.4964
▁과연	-10.4965
회담	-10.4966
곱	-10.4967
▁친구들과	-10.4968
▁투수	-10.4969
▁경주	-10.4971
▁나설	-10.4973
으신	-10.4973
CEO	-10.4975
▁감독의	-10.4975
▁공포	-10.498
셋	-10.4983
룩	-10.4983
▁협의회	-10.4983
▁분야에	-10.4987
▁영장	-10.4988
▁잊	-10.4992
하길	-10.4994
▁400	-10.4994
▁정의당	-10.4995
▁손해	-10.4995
▁가능해	-10.4999
▁기다리고	-10.5004
▁개최한다	-10.5005
멋	-10.5006
▁하노이	-10.5007
▁때부터	-10.5012
▁의문	-10.5013
▁바람이	-10.5015
▁지도자	-10.5019
▁종로구	-10.5033
▁돕는	-10.5033
▁소설	-10.5033
▁남녀	-10.5041
▁수준으로	-10.5043
▁베이징	-10.5046
▁댄스	-10.5054
▁지방선거	-10.5055
▁33	-10.5058
뿌	-10.5068
▁명시	-10.5068
▁네이버	-10.507
▁사항이	-10.5072
▁설득	-10.5073
▁가끔	-10.5078
▁추락	-10.5079
▁증가하고	-10.5081
체계를	-10.5085
▁개인정보	-10.5087
▁입지	-10.5089
▁단기	-10.509
▁용역	-10.5092
기념	-10.5098
▁강경	-10.5098
▁북측	-10.51
이라서	-10.5101
▁영화제	-10.5106
▁고향	-10.5107
re	-10.5109
45	-10.511
▁공약	-10.5111
▁주목받	-10.5114
▁막기	-10.5114
』	-10.5116
▁가맹점	-10.5116
▁전역	-10.5117
▁자유롭게	-10.5117
32	-10.5118
▁분들이	-10.5123
였습니다	-10.5126
▁유행	-10.5129
▁득점	-10.5134
▁사업비	-10.5134
▁지역경제	-10.5135
▁관측이	-10.5142
▁있었고	-10.5142
스키	-10.5145
▁중요성	-10.5146
▁국경	-10.5147
▁냈다	-10.5147
▁숙소	-10.5151
듬	-10.5155
▁휴대전화	-10.5155
▁다섯	-10.5156
▁비치	-10.5158
▁사람들에게	-10.5163
넌	-10.5163
▁산업혁명	-10.5163
▁꽤	-10.5164
▁추진한다	-10.5168
범죄	-10.5171
▁경기도지사가	-10.5177
▁사랑하는	-10.518
▁발주	-10.5183
▁총선	-10.5188
주간	-10.5188
▁않을까	-10.5188
56	-10.519
▁살인	-10.5191
▁값	-10.5192
▁비전	-10.5194
▁전화를	-10.5194
▁고객들	-10.5199
▁그럴	-10.5201
[	-10.5203
▁증가했다	-10.5211
눈	-10.5212
줘야	-10.5216
▁뚜렷	-10.5219
밍	-10.5219
94	-10.5225
▁대표이사	-10.5225
▁작성하여	-10.5226
]	-10.5227
▁운송	-10.5238
짓	-10.524
▁공시	-10.5244
논	-10.5245
호서식	-10.5247
▁것이라	-10.5247
▁맞게	-10.5251
▁목숨	-10.5251
천만	-10.5256
▁중학교	-10.5263
톡	-10.5266
▁이르는	-10.5268
순위	-10.5272
▁없으면	-10.5275
▁일원	-10.5275
▁나아	-10.5277
▁제공할	-10.528
▁앞으로도	-10.5285
드려요	-10.5287
▁‘20	-10.5287
▁매주	-10.5291
▁철거	-10.5292
▁손상	-10.5295
▁32	-10.5302
▁조심	-10.5303
▁비행	-10.5304
▁자연스럽게	-10.5307
▁야외	-10.5308
박물관	-10.5311
▁색깔	-10.5315
▁측면에서	-10.5319
▁맡아	-10.5323
서비스를	-10.5326
▁강서구	-10.5329
▁번째로	-10.533
65	-10.5333
▁명단	-10.5335
▁지사는	-10.5336
▁근처에	-10.5339
▁리그	-10.534
시키기	-10.5341
▁상당한	-10.5342
팬	-10.5344
대사관	-10.5345
▁헤어	-10.5345
▁동일한	-10.5347
하죠	-10.5347
▁케이크	-10.5347
▁아이템	-10.5348
▁떨어졌	-10.5356
▁특검	-10.537
▁떡	-10.5371
플라	-10.5375
▁독자	-10.5377
▁아무리	-10.5379
▁서초구	-10.538
▁고양시	-10.5381
▁기원	-10.5386
▁기록한	-10.5386
▁깊이	-10.5387
▁환경부	-10.5388
▁테마	-10.5391
▁높이고	-10.5391
▁물류	-10.5392
85	-10.5392
▁주말에	-10.5394
▁요청할	-10.5395
▁반응이	-10.5395
▁튀	-10.5422
▁특별히	-10.5423
▁사고로	-10.5423
st	-10.5426
▁적응	-10.5426
▁불어	-10.5426
▁본회의	-10.5429
스테이	-10.5429
▁선적	-10.543
▁상업	-10.5443
립니다	-10.545
더라	-10.5451
▁갈등이	-10.5453
미터	-10.5459
▁대표하는	-10.546
▁멋진	-10.5461
▁탓	-10.5467
▁임신	-10.5469
▁그중	-10.547
기본계획	-10.5472
결제	-10.5472
동물	-10.5473
공동체	-10.5483
▁휴대폰	-10.5485
▁고교	-10.5485
확인	-10.5486
▁다르다	-10.5486
숭	-10.5493
▁직원들이	-10.5493
▁재능	-10.5494
▁한층	-10.5497
▁충족	-10.5497
하시고	-10.55
▁구상	-10.5501
▁코치	-10.5506
▁마련됐다	-10.5507
▁기조	-10.5512
2,000	-10.5515
웹	-10.5518
▁토론회	-10.5518
▁아닐	-10.5519
▁진행되고	-10.5523
▁해명	-10.5525
▁능력을	-10.5529
환자	-10.5545
▁간편	-10.5548
휘	-10.555
▁즐거운	-10.555
▁연방	-10.5551
▁복원	-10.5567
▁능력이	-10.5569
▁재발	-10.557
▁내다봤다	-10.5575
릇	-10.5575
▁극장	-10.5577
▁무엇인지	-10.5577
57	-10.5581
▁골목	-10.5581
▁부천	-10.5585
▁트레	-10.5587
고등학교	-10.5587
곰	-10.5592
AR	-10.5592
34	-10.5594
▁예상되는	-10.5596
▁학교에서	-10.56
준다	-10.56
▁34	-10.5601
▁조합	-10.5604
▁존중	-10.5604
▁합류	-10.5613
▁보입니다	-10.5614
ic	-10.5615
▁모으고	-10.5617
▁공부를	-10.5621
▁성향	-10.5623
▁65	-10.5624
▁통증	-10.5625
▁저렴한	-10.5629
▁태권도	-10.5633
▁과일	-10.5634
▁단원	-10.5641
▁김태	-10.5641
▁어깨	-10.566
▁역사를	-10.5662
▁영향이	-10.5664
▁담겼다	-10.5666
▁출마	-10.5667
▁치매	-10.5668
▁조용	-10.567
▁뮤지컬	-10.5675
68	-10.5676
▁과장	-10.5677
분석	-10.5681
▁북미정상회담	-10.5683
▁대법관	-10.5683
▁본인이	-10.5692
▁너에게	-10.5695
▁게재	-10.5696
▁대여	-10.5697
▁돌아오	-10.5699
▁아프리카	-10.5702
▁종사자	-10.5702
▁건너	-10.5714
66	-10.5719
▁정치권	-10.5721
▁가리	-10.5724
▁성능	-10.5726
▁확충	-10.5729
▁입금	-10.573
▁답했다	-10.573
▁검출	-10.5731
▁주재	-10.5731
▁근처	-10.5731
▁시사	-10.5735
▁명령	-10.5738
▁무엇이	-10.5746
공급	-10.5754
▁포함하여	-10.5756
58	-10.5757
▁아침에	-10.5759
84	-10.5761
▁지난주	-10.5764
당국	-10.5765
▁박사	-10.5765
▁구청	-10.5767
▁승용차	-10.5767
▁공통	-10.5768
설명회	-10.577
▁위원으로	-10.5773
▁자신감	-10.5776
▁화학	-10.5783
샤	-10.5783
▁잘못된	-10.5787
▁도와주	-10.5788
▁계열사	-10.5794
캠퍼스	-10.58
▁주관하는	-10.5801
▁장점이	-10.5803
틸	-10.5809
쁘	-10.5819
▁파리	-10.5825
▁오랫동안	-10.5826
▁미중	-10.5827
▁조사하고	-10.5828
▁용도	-10.5832
셨다	-10.584
▁인터뷰에서	-10.5841
▁비싸	-10.5842
턱	-10.5843
▁상태로	-10.5843
▁제기됐다	-10.5847
▁금융당국	-10.5853
▁성별	-10.5853
부지사	-10.5856
▁시신	-10.5858
맑	-10.586
▁화려한	-10.586
겸	-10.5861
▁방해	-10.5862
▁콩	-10.5864
해진다	-10.5868
▁있었는데	-10.5869
▁자발적	-10.587
▁100%	-10.5872
▁격려	-10.588
박스	-10.5884
▁서민	-10.5884
▁침체	-10.5884
▁시민단체	-10.5888
▁투자자들	-10.5889
▁크고	-10.5891
▁최적	-10.5893
▁부작용	-10.5894
▁없기	-10.5895
요원	-10.5907
분께	-10.5908
야구	-10.5909
▁테이블	-10.5911
획	-10.5916
▁이내로	-10.5922
해지는	-10.5938
▁시행규칙	-10.5938
▁배려	-10.5939
▁치킨	-10.5939
▁상환	-10.594
▁면적	-10.5948
하셔야	-10.5951
▁KBS	-10.5953
협약	-10.5956
▁때문이에요	-10.5956
▁단순히	-10.5956
▁동아리	-10.5963
▁52	-10.5964
▁나오지	-10.5968
▁들려	-10.597
덩	-10.5979
▁최창식	-10.5979
▁백화점	-10.5979
▁세미나	-10.5979
▁이곳에서	-10.598
▁간부	-10.5983
▁다루	-10.5986
▁맛있는	-10.5987
▁세력	-10.5993
▁의존	-10.5993
▁가능할	-10.5996
복합	-10.6002
배우	-10.6006
▁연관	-10.6006
▁후속	-10.6008
학자	-10.6009
▁국가대표	-10.601
▁없는데	-10.601
▁지표	-10.6016
64	-10.6018
▁기온이	-10.602
발전소	-10.6021
▁심장	-10.6022
▁증상	-10.6026
▁통행	-10.6029
▁신분증	-10.603
▁물러	-10.6032
▁양식	-10.6032
▁조각	-10.6034
서류	-10.6039
▁그렇다면	-10.6039
▁택배	-10.604
▁출판	-10.6041
유통	-10.6042
▁열릴	-10.6045
▁크리스마스	-10.6048
▁김현	-10.605
▁지목	-10.605
투표	-10.605
▁마지막으로	-10.6057
▁일이다	-10.6059
▁객실	-10.6067
▁거두	-10.6079
연수	-10.6079
▁전문성	-10.6081
▁그거	-10.6082
▁신임	-10.6083
▁청약	-10.6085
▁매매	-10.6086
략	-10.6088
되었으며	-10.6092
▁필요할	-10.61
▁성실	-10.6107
▁냄새	-10.6109
▁역사적	-10.611
▁익숙	-10.6111
▁늘어날	-10.6111
▁교통사고	-10.6112
십니까	-10.6113
다운	-10.6114
▁소속사	-10.6115
▁본격화	-10.6118
▁항목	-10.612
▁최신	-10.6122
▁참여했다	-10.6123
▁많아서	-10.6124
▁풍경	-10.6126
테크	-10.6127
▁사찰	-10.6131
▁닭	-10.6133
▁만료	-10.614
▁덮	-10.6143
▁궁금증	-10.6143
▁한강	-10.6144
▁좋겠어요	-10.6144
▁내내	-10.6145
▁주시면	-10.615
퀴	-10.6152
▁방영	-10.6153
▁행위를	-10.6153
87	-10.6154
였지만	-10.6159
▁이해관계	-10.616
맘	-10.6161
▁벌인	-10.6165
▁준용한다	-10.617
▁두산	-10.617
▁이곳에	-10.617
▁시리즈	-10.6173
▁나타난	-10.6179
63	-10.6179
▁지원사업	-10.6183
촬	-10.6187
▁승부	-10.6188
▁충분	-10.6188
33	-10.6191
▁김포	-10.6193
▁학생들은	-10.6194
▁과정이	-10.6197
▁업체들	-10.6199
▁안정적인	-10.6201
▁집값	-10.6201
▁구성원	-10.6208
▁높이는	-10.6215
▁안전관리	-10.6216
토리	-10.6218
900	-10.6219
▁청소년들	-10.622
▁세월호	-10.6223
시쯤	-10.6224
▁방치	-10.6232
▁판정	-10.624
▁배정	-10.6243
▁만들어진	-10.6249
▁식물	-10.625
▁명칭	-10.6252
▁조회	-10.6252
▁유족	-10.6255
십니다	-10.6255
모델	-10.6256
▁부채	-10.6261
▁『	-10.6262
67	-10.6262
▁저번	-10.6263
▁발생해	-10.6266
▁경위	-10.627
▁주석	-10.6271
▁동참	-10.6273
비율	-10.6279
▁고용노동부	-10.6284
홀에서	-10.6287
▁선고받	-10.629
▁아베	-10.629
띠	-10.6293
▁개통	-10.6295
믹	-10.6302
취약계층	-10.6302
방향	-10.6306
▁한복	-10.6315
미술관	-10.6317
▁위촉한다	-10.6317
▁들어갔다	-10.6319
▁증상이	-10.6327
▁생태	-10.6329
▁분명히	-10.6331
▁거치	-10.6334
▁따르	-10.6344
부분	-10.6345
▁발령	-10.6349
▁꺾	-10.6349
▁계절	-10.6352
▁최초의	-10.6357
▁가져다	-10.636
▁주체	-10.6363
동맹	-10.6363
▁PC	-10.6364
▁보행	-10.6371
겹	-10.6372
▁재활용	-10.6377
퓨	-10.6382
통합	-10.639
▁않아서	-10.6392
▁김종	-10.6393
▁아마존	-10.6393
▁용기	-10.6396
▁미팅	-10.6403
▁천연	-10.6407
드리고	-10.6413
▁입장이다	-10.6415
▁걸린	-10.6416
▁찍은	-10.6417
▁저렴	-10.6418
▁만족도	-10.6418
비서관	-10.6419
▁목격	-10.6421
▁마련했다	-10.6423
▁줄어든	-10.6427
▁당직	-10.6431
썬	-10.6436
▁보유하고	-10.6436
▁없었던	-10.6437
▁정규직	-10.6441
콘텐츠	-10.6444
▁허리	-10.6446
▁기자들	-10.6446
▁힘들어	-10.6448
▁뭔가	-10.6449
▁사라지	-10.6449
▁분노	-10.645
▁동남아	-10.6452
▁좌석	-10.6455
기본법	-10.6464
▁페스티벌	-10.6466
▁갤럭시	-10.6472
▁음성	-10.6474
▁경기장	-10.6476
▁마세요	-10.6479
▁양측	-10.6482
MC	-10.6484
▁개최했다	-10.649
▁어떠한	-10.649
토록	-10.6491
▁드론	-10.6494
놓고	-10.6497
▁듯한	-10.6497
주차장	-10.6503
혜택	-10.6503
▁미칠	-10.6507
▁신용카드	-10.6509
▁시공	-10.6515
으니까	-10.6517
교섭	-10.652
▁전투	-10.6521
▁바이어	-10.6525
▁농산물	-10.6536
▁쇼핑몰	-10.6536
▁상당수	-10.6536
음식	-10.654
▁보여준다	-10.6546
▁개성	-10.655
▁광장	-10.6551
▁받아들이	-10.656
▁간사는	-10.6563
89	-10.6564
▁갖춰	-10.6564
▁유일한	-10.6571
▁탄력	-10.6573
▁건전	-10.6583
▁나눔	-10.6584
▁진주	-10.6596
▁마주	-10.6598
▁추모	-10.6598
77	-10.6598
54	-10.66
벨트	-10.6601
▁전액	-10.6604
▁손해배상	-10.6608
▁당연	-10.6615
▁정규	-10.6615
es	-10.6622
▁키워	-10.6623
사람	-10.6626
86	-10.6631
▁원칙으로	-10.6634
케어	-10.664
즘	-10.6643
던데	-10.6646
▁거죠	-10.6648
▁체납	-10.6648
▁부착	-10.6653
▁학술	-10.6654
▁음주운전	-10.6654
▁최우수	-10.6654
IT	-10.6655
▁조처	-10.6658
▁진보	-10.6658
▁중점	-10.6663
▁높게	-10.6672
▁지닌	-10.6678
▁확인했다	-10.668
▁발효	-10.6684
53	-10.6688
▁매달	-10.6694
▁돌입	-10.6695
▁최근에는	-10.6696
라이트	-10.6697
▁건데	-10.6697
▁염색	-10.6697
▁이뤄졌다	-10.67
같	-10.6702
▁지정된	-10.6705
▁친절	-10.6705
▁송금	-10.6707
▁부장판사	-10.6709
▁창작	-10.6711
▁인공	-10.6713
져서	-10.6717
▁빅데이터	-10.6719
▁대외	-10.6724
궐	-10.6728
▁자사	-10.673
▁항공기	-10.6731
▁스웨덴	-10.6737
▁고양	-10.6746
▁판문점	-10.6746
▁경찰청	-10.6753
▁확신	-10.6758
▁알겠습니다	-10.6759
▁논문	-10.676
▁내년에	-10.6764
▁리더	-10.6767
▁널리	-10.6775
▁발견된	-10.6777
▁일어난	-10.6784
땀	-10.6793
▁입시	-10.6796
▁트렌드	-10.6802
공학	-10.6812
▁대중교통	-10.6813
▁열기	-10.6815
▁다르게	-10.6819
▁단장	-10.682
▁치러	-10.6822
줘서	-10.6826
▁달아	-10.683
계열	-10.6839
▁영업이익	-10.6839
▁강점	-10.6847
▁크리스	-10.6848
칩	-10.6849
▁당분간	-10.6849
▁시상식	-10.685
▁보험료	-10.6853
▁매월	-10.6857
76	-10.6859
▁위촉직	-10.6863
▁소규모	-10.6866
▁관람객	-10.6869
녕	-10.6877
▁파업	-10.6879
▁요청했다	-10.6884
▁되는데	-10.6887
▁아예	-10.6888
▁실시하고	-10.689
개사	-10.6891
▁자원봉사	-10.6891
렸던	-10.6894
▁대한항공	-10.6894
▁퍼포먼스	-10.6896
▁젊은이들	-10.6899
▁부위	-10.69
▁안심	-10.69
무늬	-10.6902
▁네티즌	-10.6905
슛	-10.6905
▁배상	-10.6906
▁반박	-10.6908
▁경찰관	-10.6912
▁부스	-10.6914
AP	-10.6919
▁침대	-10.6921
▁세계적으로	-10.6923
맵	-10.6924
▁포스코	-10.6927
▁엔진	-10.6928
▁높았다	-10.693
▁조항	-10.6931
le	-10.6939
▁빌려	-10.6944
끼리	-10.6946
▁관여	-10.6948
▁그걸	-10.695
▁분들	-10.6958
▁자카르타	-10.6962
재활	-10.6968
▁격차	-10.6969
쏘	-10.6971
▁독특한	-10.6971
▁넘치는	-10.6975
OS	-10.698
▁비교해	-10.6982
▁치열한	-10.6982
▁어른	-10.6985
▁사유로	-10.6989
펼	-10.6989
친화	-10.699
▁업데이트	-10.699
퍼센트	-10.699
윗	-10.7
▁지원하기	-10.7005
AI	-10.7006
▁금메달	-10.7009
▁촉구	-10.7011
▁신중	-10.7013
▁무려	-10.7014
▁교육과정	-10.7021
잠	-10.7023
▁일어났	-10.7028
▁뒷받침	-10.7028
▁훌륭한	-10.7031
▁접속	-10.7037
▁통보하여야	-10.7038
플레이	-10.7038
▁의정부	-10.7045
▁일반인	-10.7047
▁곳곳에	-10.7053
▁적합	-10.7054
▁자영업자	-10.7057
버린	-10.7058
교육감	-10.706
유공자	-10.7063
▁실질적인	-10.7066
▁곧바로	-10.7067
▁이사회	-10.7068
▁전통시장	-10.7072
▁가기	-10.7074
▁음식점	-10.7074
렛	-10.7076
명령	-10.7081
▁도중	-10.7082
광장	-10.7083
▁대량	-10.7091
▁매수	-10.7095
협동조합	-10.7095
▁강아지	-10.7098
▁우유	-10.7101
▁조금만	-10.7102
▁연구개발	-10.7102
78	-10.7104
▁싶지	-10.711
▁받았습니다	-10.7112
▁지원대상	-10.7114
▁가질	-10.7118
▁배당	-10.7119
▁퇴근	-10.7121
pop	-10.7124
▁흡연	-10.7125
▁펴	-10.7129
▁국무총리	-10.7134
▁심지어	-10.7135
▁위축	-10.7136
총장	-10.7138
▁당연직	-10.7138
▁선생	-10.7139
밤	-10.7141
▁시작됐다	-10.7143
▁법원행정처	-10.7143
▁상무	-10.7145
▁드러내	-10.7145
▁모니터링	-10.7153
▁대구시	-10.7161
꺼	-10.7161
▁누적	-10.7165
▁신제품	-10.7166
▁획득	-10.7182
▁쉬운	-10.7185
▁많습니다	-10.7188
하였으며	-10.7188
▁성사	-10.7188
ing	-10.7194
▁탑재	-10.7202
▁감성	-10.7209
▁MBC	-10.7213
▁참가자	-10.7214
융	-10.7218
학회	-10.7228
▁모른다	-10.7231
농구	-10.7231
▁않겠다	-10.7231
유치원	-10.7232
▁진학	-10.7235
픈	-10.7237
▁예외	-10.7239
▁촉구했다	-10.7239
덴	-10.724
뱅크	-10.7242
▁담당하는	-10.7245
씨에게	-10.7249
▁요건	-10.725
▁붕괴	-10.725
▁입찰	-10.7251
▁소방당국	-10.7251
▁아니지만	-10.7255
▁인정되는	-10.7261
▁차질	-10.7262
▁벌이고	-10.7262
▁적절	-10.7263
▁창조	-10.727
드루킹	-10.727
▁되길	-10.7271
자마자	-10.7278
대학원	-10.7279
올림픽	-10.7281
▁어린이들	-10.7283
▁빠졌	-10.7285
▁불확실성	-10.7289
▁귀사	-10.7291
라이프	-10.7294
▁상승세	-10.7295
▁당연히	-10.7296
뚝	-10.7299
잎	-10.7299
▁점포	-10.7301
▁인천시	-10.7305
▁종종	-10.7306
▁발견됐다	-10.7311
▁언제나	-10.7313
▁치즈	-10.7314
▁어울리	-10.7319
▁취급	-10.7328
딘	-10.7328
천만원	-10.7329
▁쏠리고	-10.7348
▁흔적	-10.735
▁수행할	-10.7355
▁특화	-10.7355
▁체감	-10.7356
▁음주	-10.7356
▁행정안전부	-10.7358
▁비싼	-10.7363
▁알아보	-10.7364
▁레스토랑	-10.7368
▁광진구	-10.7368
▁차트	-10.7376
킴	-10.7378
▁미니	-10.7378
▁인형	-10.7385
▁멀리	-10.7386
냅	-10.7388
▁어려웠	-10.7388
▁재생	-10.739
▁해체	-10.7391
▁입국	-10.7397
▁엄청난	-10.7398
▁2006	-10.74
▁여겨	-10.74
69	-10.7401
▁경기도내	-10.7403
▁실질적	-10.7406
▁피곤	-10.7409
▁근육	-10.7413
400	-10.7417
▁뷰티	-10.7418
▁끝나고	-10.7418
MO	-10.7421
펠	-10.7427
▁문구	-10.743
▁둘째	-10.7439
▁가사	-10.7442
▁논리	-10.7443
▁성경	-10.745
수익	-10.7451
▁순서	-10.7452
▁조달	-10.7454
▁증언	-10.7454
보좌관	-10.7455
▁높이기	-10.7457
앞으로	-10.7459
운반	-10.746
▁차세대	-10.7471
▁끌었다	-10.7473
경쟁	-10.7474
▁살리	-10.7476
▁예배	-10.7481
부처	-10.7482
주시면	-10.7485
▁컬러	-10.7487
79	-10.7495
▁지켜보	-10.7497
▁생길	-10.7497
▁조금씩	-10.7505
리얼	-10.7506
위험	-10.7506
규칙	-10.7515
삭	-10.7516
▁뇌물	-10.7518
▁추적	-10.7528
▁따뜻	-10.753
▁120	-10.753
▁그날	-10.753
샘	-10.7537
몸	-10.7545
헤	-10.7545
엉	-10.7547
▁대다수	-10.7553
▁나타내	-10.7557
▁가공	-10.7566
▁조화	-10.7568
▁자회사	-10.7571
▁믿음	-10.7577
▁고장	-10.7578
▁수렴	-10.7587
▁국무장관	-10.7587
▁대장	-10.7593
시의회	-10.7595
▁밖으로	-10.7598
ha	-10.7604
▁주행	-10.7605
▁종전선언	-10.7608
▁야간	-10.7609
▁대피	-10.7612
▁이걸	-10.7614
▁흥행	-10.7615
▁제외하고는	-10.7619
▁마스크	-10.7619
▁성명	-10.7624
▁클라우드	-10.7628
▁선진국	-10.7628
▁방학	-10.7632
▁근로시간	-10.7635
▁감각	-10.7637
el	-10.764
▁최악	-10.7643
▁무죄	-10.7644
▁선배	-10.7647
▁유망	-10.7654
▁창립	-10.7657
▁재직	-10.7659
73	-10.7661
▁관악구	-10.7663
et	-10.7664
▁면역	-10.7665
▁적합한	-10.7669
투어	-10.7674
▁환율	-10.7676
▁미얀마	-10.7679
▁계속해서	-10.7679
▁관광객들	-10.7688
넥	-10.7689
US	-10.7689
▁가해자	-10.7689
큰	-10.7691
▁코너	-10.7691
▁미소	-10.7691
▁회수	-10.7694
▁편집	-10.7694
▁정보통신	-10.7695
▁사업이다	-10.7704
▁출국	-10.7704
밖	-10.7707
▁금연	-10.7709
샷	-10.7709
▁너무나	-10.7711
▁못한다	-10.7715
▁높여	-10.7719
▁끈다	-10.7721
▁성남	-10.7724
▁주최하고	-10.7727
▁곳곳에서	-10.7744
▁예산안	-10.7747
▁파괴	-10.7753
▁은퇴	-10.7754
공유	-10.7756
▁지도부	-10.776
태평양	-10.776
▁마찬가지로	-10.7765
낫	-10.7771
터미널	-10.7771
▁모았다	-10.7772
▁태양광	-10.7772
▁2022	-10.7777
▁챙겨	-10.7791
▁현지인들	-10.7797
▁보건복지부	-10.7801
▁급등	-10.7807
▁발생하지	-10.781
▁살펴	-10.7811
긍	-10.7812
▁갖추고	-10.7812
▁이뤄지지	-10.7819
되지만	-10.7821
▁취재	-10.7827
▁운영한다	-10.7832
▁저소득층	-10.7832
▁실업	-10.7832
▁노하우	-10.7832
▁마포구	-10.7833
▁쿠폰	-10.7834
▁테러	-10.7837
▁금융기관	-10.7841
렁	-10.7843
AS	-10.785
▁전후	-10.7852
굿	-10.7853
▁납품	-10.7853
▁몰아	-10.7861
74	-10.7863
었으며	-10.7866
▁초점	-10.7867
머리	-10.7872
쏠	-10.7874
▁‘2019	-10.7875
▁모범	-10.7877
▁남쪽	-10.7877
▁공연장	-10.7878
▁아까	-10.7882
▁다행	-10.7884
광역시	-10.7887
바이오	-10.7894
한국시간	-10.7895
빌딩	-10.7896
▁빠르	-10.7905
▁청년들	-10.7913
촉진	-10.7922
▁송파구	-10.7923
3,000	-10.7926
▁않았던	-10.7938
▁남겨	-10.794
구의회	-10.7942
▁사퇴	-10.7944
뒀	-10.7947
▁사립유치원	-10.7947
▁평창	-10.7952
▁느낀	-10.7957
▁일환으로	-10.7958
▁귀국	-10.7959
▁애초	-10.7962
델	-10.7969
졌지만	-10.7975
▁브렉시트	-10.7978
앓	-10.7978
▁법관	-10.7987
▁관찰	-10.7989
▁탄핵	-10.799
▁조현	-10.7993
취업	-10.7996
▁흐르	-10.7996
흐	-10.7999
▁끊임없	-10.7999
펌	-10.7999
▁동대문	-10.7999
▁쾌적	-10.8
▁떠난	-10.8008
조합	-10.8009
▁떠오르	-10.801
ES	-10.8014
임대주택	-10.8016
▁홈런	-10.8023
▁기온	-10.8024
맙	-10.8031
▁계시	-10.8036
▁2005	-10.8037
▁콜라	-10.804
▁확실히	-10.8042
▁관장	-10.8043
▁든다	-10.8054
▁포상	-10.8055
▁서버	-10.8055
▁국토	-10.8056
대응	-10.8057
▁살펴보면	-10.8065
곁	-10.8073
▁몇몇	-10.8073
▁사회적경제	-10.8079
▁수익률	-10.8088
▁119	-10.8104
▁체력	-10.8104
▁밀집	-10.8108
TS	-10.8108
▁있었어요	-10.8116
▁나한테	-10.8116
타워	-10.8122
▁대결	-10.8124
▁아름답	-10.8126
빵	-10.8129
▁가입자	-10.8133
▁정보화	-10.814
TO	-10.8145
▁북쪽	-10.8166
▁커질	-10.8169
▁변수	-10.8172
벤처기업	-10.8172
▁집계	-10.8173
겠네요	-10.8177
포트	-10.8177
으므로	-10.8179
▁남자친구	-10.819
▁연임	-10.8192
▁항공사	-10.8193
▁와인	-10.8197
▁농협	-10.8197
▁감축	-10.8198
▁도시재생	-10.8201
▁블루	-10.8201
▁디자이너	-10.8212
▁소프트웨어	-10.8212
▁농민	-10.8221
▁크지	-10.8221
책임자	-10.8221
▁열려	-10.8222
▁여자친구	-10.8222
ol	-10.8222
▁가능하며	-10.8225
▁받으면	-10.8233
뢰	-10.8233
▁카카오톡	-10.8233
▁불량	-10.8234
▁과도한	-10.8235
▁이집트	-10.8244
▁얼마에요	-10.8244
▁그랬	-10.8247
했으면	-10.8249
집행	-10.8252
▁판매량	-10.8252
▁좌우	-10.8254
얀	-10.8255
▁꼽힌다	-10.8255
▁런던	-10.8256
▁연설	-10.8259
뇌	-10.8261
댄	-10.8264
▁오류	-10.8269
잖아요	-10.8276
▁자율주행	-10.8276
ra	-10.8278
▁소환	-10.828
▁보면서	-10.8281
▁버전	-10.8282
▁임용	-10.8284
▁병역	-10.8287
▁사장님	-10.8293
▁부득이	-10.8298
▁관련해서	-10.8303
▁70%	-10.8307
▁수상자	-10.8308
▁석유	-10.8313
븐	-10.8319
▁소중한	-10.8321
홈	-10.8327
▁정상화	-10.8332
▁길어	-10.8341
▁자격증	-10.8352
▁비정규직	-10.8352
▁없애	-10.8353
▁한때	-10.836
핸	-10.8363
▁특유의	-10.8364
스럽게	-10.8365
▁넘어서	-10.8366
근로자	-10.8368
▁붙여	-10.837
▁차원의	-10.8371
▁사후	-10.8373
캔	-10.8374
▁스크린	-10.8374
▁가능해요	-10.8382
▁소유자	-10.8387
▁물어보	-10.8388
▁몰리	-10.8394
박람회	-10.8394
▁일으키	-10.8396
개발사업	-10.8405
탐	-10.8406
▁우즈베키스탄	-10.8407
▁지원금	-10.842
출납	-10.8421
▁또다시	-10.8429
▁일각에서	-10.8434
▁걸그룹	-10.8443
변경	-10.8447
권역	-10.8447
빌	-10.845
긋	-10.8451
0,000	-10.8451
▁즉각	-10.8455
▁죄송	-10.8459
▁주민등록	-10.8467
▁부각	-10.8469
▁산책	-10.847
컷	-10.8473
▁비영리	-10.8473
▁초래	-10.8473
렴	-10.8476
싼	-10.8478
▁아이폰	-10.8478
▁내외	-10.8479
▁윤리	-10.848
▁조율	-10.8481
▁부족하다	-10.8482
▁드러냈다	-10.8484
▁대답	-10.8485
▁강좌	-10.8486
지속가능	-10.8487
▁리스크	-10.849
눌	-10.8495
개월간	-10.8501
짚	-10.8506
▁섭취	-10.8506
▁들어갈	-10.8507
▁전화번호	-10.8509
킥	-10.8517
▁정확하게	-10.8528
스턴	-10.8535
▁80%	-10.8557
▁잠깐	-10.8562
놀	-10.8563
▁집안	-10.8565
▁시술	-10.8565
▁세입	-10.8567
앞	-10.8568
▁깜짝	-10.8572
만달러	-10.8573
▁기름	-10.8574
특위	-10.8575
▁효율성	-10.8576
▁작곡	-10.8591
▁안전성	-10.8595
월드컵	-10.8598
▁첫날	-10.8606
재난	-10.8608
▁도민들	-10.8608
▁세운	-10.8613
▁응시	-10.8637
▁성추행	-10.8639
▁부활	-10.8644
▁살펴보	-10.8649
▁SBS	-10.865
▁보냈다	-10.865
▁점유율	-10.8651
▁명품	-10.8656
▁신앙	-10.8657
▁고려하면	-10.8657
▁스케줄	-10.8662
▁육아	-10.8662
굽	-10.8673
▁펼쳐진다	-10.8676
▁지방세	-10.868
▁매니저	-10.8684
혈관	-10.8684
▁그나마	-10.8685
▁날부터	-10.869
끄러	-10.8694
▁뒤늦게	-10.8695
▁가능하도록	-10.8697
-0	-10.8699
▁독립운동	-10.8699
▁합병	-10.8703
▁40%	-10.8708
▁갖게	-10.8709
▁치열	-10.8715
▁급식	-10.8716
▁유효	-10.8717
▁취미	-10.8718
꼬	-10.8725
▁수원시	-10.8729
▁예수님	-10.873
93	-10.8731
▁상대방	-10.874
▁흉기	-10.8746
▁통신원	-10.8748
뚜	-10.8752
▁기술력	-10.8756
▁인쇄	-10.8763
▁내년부터	-10.877
▁과세	-10.8771
▁엄격	-10.8773
▁아르헨티나	-10.8775
▁전세계	-10.8775
▁얼마인가요	-10.8779
▁지침	-10.8779
故	-10.8786
▁설문조사	-10.8786
▁즐겨	-10.8786
▁나쁜	-10.8789
∼5	-10.8789
▁잊지	-10.8792
▁250	-10.8801
▁바꿀	-10.8802
▁끝까지	-10.8804
년째	-10.8805
▁지나치	-10.8805
▁지위	-10.8807
▁절실	-10.8808
TF	-10.8816
▁있거나	-10.8817
▁뒤집	-10.8818
▁먹거리	-10.8819
▁민주노총	-10.882
▁간단한	-10.8832
▁국무부	-10.8843
▁기무사	-10.8844
▁효율적	-10.8845
▁발간	-10.8853
ed	-10.8854
▁올바른	-10.8854
▁철회	-10.8855
▁시너지	-10.8855
▁조합원	-10.8868
▁선포	-10.8868
▁통계청	-10.8871
▁동장	-10.8871
▁여론조사	-10.8878
▁기금운용	-10.8878
▁왔는데	-10.8883
중소기업	-10.8889
▁다가오	-10.8892
▁드러난	-10.8892
▁선두	-10.8894
▁워크숍	-10.89
▁다행히	-10.8907
▁사업계획	-10.8918
▁연봉	-10.8918
▁끝나면	-10.8923
▁안녕하세요	-10.8923
▁초등학생	-10.8923
▁사망자	-10.8929
노동조합	-10.8932
▁신축	-10.8934
▁고마워	-10.8935
▁면담	-10.8936
▁유전자	-10.8936
▁특성상	-10.8941
▁보건소	-10.8948
▁감안하면	-10.8949
▁먹으면	-10.895
▁급속	-10.8956
▁추정된다	-10.8956
▁면허	-10.8958
▁착공	-10.8964
시킨다	-10.8967
▁꼼꼼	-10.897
▁인스타그램	-10.897
▁건강보험	-10.8977
▁실망	-10.8981
▁금융감독원	-10.8981
▁브리핑	-10.8981
▁아울러	-10.8981
▁발목	-10.8983
녹	-10.8983
▁좋겠습니다	-10.8985
▁일반적으로	-10.899
▁문장	-10.8992
▁플라스틱	-10.8993
워크	-10.8997
멍	-10.8998
▁파손	-10.9
소프트	-10.9006
▁들어온	-10.9018
미술	-10.9024
혐	-10.9024
▁집계됐다	-10.9024
▁높아진	-10.9025
▁오래된	-10.9027
섹	-10.9028
▁워낙	-10.9028
▁에어컨	-10.9029
▁방문객	-10.9032
▁집권	-10.9033
▁펼친	-10.9039
▁인건비	-10.904
▁견적	-10.9045
▁매출액	-10.9047
▁흡수	-10.9052
▁공직자	-10.9055
▁아쉬움	-10.9063
▁받아들여	-10.9063
▁상용화	-10.9064
▁먹었	-10.9073
▁자원봉사자	-10.908
▁섬유	-10.908
흉	-10.9081
▁차장	-10.9085
▁패키지	-10.9086
▁이명박	-10.9086
콩	-10.909
했었다	-10.9093
드림	-10.9093
뮤	-10.9093
▁합쳐	-10.9094
▁사이버	-10.9095
▁채워	-10.9104
▁행정처	-10.9108
▁거절	-10.9109
▁과반수	-10.911
▁강동구	-10.9111
천명	-10.9113
▁가르	-10.9119
▁학생들에게	-10.9121
▁잠시만	-10.9124
▁활력	-10.9125
▁발매	-10.9127
▁거친	-10.9128
▁동향	-10.913
▁페이지	-10.9132
엿	-10.9133
해준다	-10.9135
행정기관	-10.9136
▁노동자들	-10.9142
몫	-10.9145
▁얼마예요	-10.9148
▁추진하기	-10.9154
▁높였다	-10.9157
▁이스라엘	-10.9157
▁낮추	-10.9157
▁열람	-10.9167
▁철학	-10.9168
▁패널	-10.9172
뻔	-10.918
▁기쁨	-10.9183
증명서	-10.9184
▁지지율	-10.9196
▁포함되어	-10.9197
▁인류	-10.9198
▁철저한	-10.9204
is	-10.9206
셨나요	-10.9221
▁구체적	-10.9223
▁취재진	-10.9223
▁남긴	-10.9226
겠습니까	-10.9229
▁드라이	-10.9231
▁비록	-10.9231
아카데미	-10.924
▁조만간	-10.924
▁행사장	-10.9244
▁광화문	-10.9251
▁압력	-10.9255
▁이례적	-10.9257
▁미친	-10.9258
▁포함돼	-10.9259
▁철저히	-10.9263
▁쟁점	-10.9266
▁바뀐	-10.9276
▁CJ	-10.9279
▁회원들	-10.928
토론	-10.9283
됐는데	-10.9285
삽	-10.9299
▁붉은	-10.93
▁다채로	-10.9301
▁긴밀	-10.9303
보훈	-10.9304
▁붙어	-10.9307
▁개척	-10.931
▁어쩔	-10.9311
사이트	-10.9317
괴	-10.9319
▁미흡	-10.932
▁병행	-10.9343
▁현실화	-10.9344
스케	-10.9351
리조트	-10.9351
스쿨	-10.9355
▁운항	-10.9358
▁장학금	-10.936
드라마	-10.936
▁꺼내	-10.9362
▁누르	-10.9368
횡	-10.9371
샌	-10.9371
NA	-10.9372
▁미뤄	-10.9374
▁성범죄	-10.9377
▁봉사활동	-10.938
▁거짓말	-10.9385
모니터	-10.9385
▁근데	-10.9397
▁있을까	-10.9404
▁소음	-10.9405
▁치르	-10.9406
▁이슬람	-10.9408
▁유럽연합	-10.9409
▁뛰어나	-10.9412
▁3·1	-10.9415
▁인접	-10.9419
▁수익성	-10.9424
쩌	-10.9432
▁지원받	-10.9436
하시나요	-10.9439
뭉	-10.9444
▁변신	-10.9444
▁목요일	-10.9445
인천광역시	-10.9446
▁통지하여야	-10.9456
왔지만	-10.9457
작품	-10.9459
▁성남시	-10.9466
▁가깝	-10.947
▁접근성	-10.9472
▁기념식	-10.9474
▁금융권	-10.9475
▁응답자	-10.9478
▁시진핑	-10.948
▁비공개	-10.9481
않	-10.9484
▁사우디	-10.9493
닛	-10.9505
▁다이어트	-10.9505
▁배울	-10.9508
▁순천	-10.9524
▁민주주의	-10.9533
놨	-10.9541
z	-10.9541
뭘	-10.9542
▁필요해요	-10.9556
되나요	-10.9557
▁처방	-10.956
▁운영위원회	-10.9561
하네요	-10.9564
카페	-10.9566
▁접목	-10.9571
해주시면	-10.9586
툼	-10.9591
▁영광	-10.9591
▁벨기에	-10.9591
▁공모전	-10.9592
▁아무것	-10.9593
▁추정되는	-10.9593
▁동력	-10.9597
떨	-10.9597
▁가축	-10.9603
▁결혼식	-10.9603
▁기재부	-10.9612
▁왔어요	-10.9614
▁아르바이트	-10.9615
▁멘토	-10.9628
노동자	-10.9632
▁규명	-10.9635
▁분석된다	-10.964
MS	-10.964
▁의류	-10.9641
▁노력하겠다	-10.9645
▁실태조사	-10.9653
▁공시가격	-10.9653
il	-10.9655
특구	-10.9662
▁항소심	-10.9665
▁벌어진	-10.9666
▁비디오	-10.9677
옷	-10.9686
▁혜택이	-10.9688
▁5·18	-10.969
▁계엄	-10.9694
th	-10.9695
▁그러하지	-10.9697
▁즐겁게	-10.9702
▁남북정상회담	-10.9703
▁잡았다	-10.9708
▁멈추	-10.9715
▁유관기관	-10.9715
▁결코	-10.9715
▁인용해	-10.9716
납니다	-10.9722
▁학부모들	-10.9726
▁남양주	-10.9727
발표	-10.9735
낙	-10.9737
▁오랜만에	-10.974
아파트	-10.975
문재인	-10.9751
▁국제사회	-10.9758
▁안전사고	-10.9759
▁벌였다	-10.9768
하셔서	-10.9769
▁용산구	-10.9769
▁찾았다	-10.9773
▁석탄	-10.9774
▁언니	-10.9779
83	-10.9779
▁자세히	-10.9783
▁근본	-10.9787
▁클래식	-10.979
▁소셜	-10.9795
▁목록	-10.9796
▁환호	-10.98
▁늘려	-10.98
▁얼음	-10.9807
▁다하겠다	-10.9809
포인트	-10.9816
특별위원회	-10.982
륜	-10.9828
▁품절	-10.9837
▁현직	-10.984
▁지갑	-10.9846
▁커플	-10.9847
펀	-10.9853
▁좋겠어	-10.9857
▁좋아해요	-10.9861
▁양쪽	-10.9863
핫	-10.9866
▁계층	-10.9876
▁가이드	-10.9881
롬	-10.9904
미세먼지	-10.9905
▁밀려	-10.9906
▁일상생활	-10.9907
▁피아노	-10.9916
싫	-10.9919
흙	-10.9929
▁신속하게	-10.9929
▁이루어진	-10.993
ID	-10.9934
POP	-10.9942
▁열풍	-10.9948
▁케이블	-10.9955
▁관행	-10.9958
셨어요	-10.997
▁육군	-10.9973
▁공략	-10.9978
▁금품	-10.9986
ch	-10.9987
▁아픈	-10.9988
▁포털	-10.9999
▁2∼3	-11.0002
겉	-11.0006
▁노무현	-11.0006
▁목포	-11.0007
▁필요성이	-11.0015
봇	-11.0017
▁어르신	-11.0018
▁빨라	-11.0019
▁긴장감	-11.0019
▁포토	-11.003
▁1∼2	-11.0034
▁오늘날	-11.0035
▁보여줄	-11.0039
▁좋아합니다	-11.0042
▁반려동물	-11.0044
▁신세계	-11.0046
▁계단	-11.0046
▁아니에요	-11.0047
▁거대한	-11.0048
쌀	-11.005
▁탈퇴	-11.0061
▁패턴	-11.0061
▁극대화	-11.0071
▁가르치	-11.0079
닌	-11.0083
▁할아버지	-11.0083
터널	-11.0088
▁사법부	-11.0088
▁고위급	-11.0093
▁오프라인	-11.0096
▁간호사	-11.0098
꿀	-11.0117
▁BMW	-11.0122
쿼	-11.0122
▁만들었	-11.0126
▁억제	-11.0129
▁첫째	-11.0132
▁가까워	-11.0135
▁싱글	-11.0148
▁두드러	-11.0148
▁의료기관	-11.0153
▁환승	-11.0156
▁국정원	-11.016
▁체류	-11.0165
▁교수님	-11.0166
▁선보였다	-11.0174
▁재건축	-11.0184
▁무역협상	-11.0188
신속한	-11.0196
해주고	-11.0217
▁심사위원	-11.0226
▁비타민	-11.0227
▁높았	-11.0231
▁엇갈	-11.024
▁버튼	-11.0243
▁구조조정	-11.0244
▁커졌다	-11.0245
▁완공	-11.0247
▁간접	-11.0251
였어요	-11.0253
합창단	-11.0254
하니까	-11.026
▁태양	-11.0261
엑	-11.0262
힘	-11.0264
붐	-11.0266
켈	-11.0266
▁국가안보	-11.0272
▁판교	-11.0272
▁경기도의회	-11.0275
‘	-11.0277
∼6	-11.0282
▁투쟁	-11.0283
un	-11.0283
▁않았어요	-11.0284
▁보여준	-11.0285
셉	-11.0292
▁비서실장	-11.0293
▁가르쳐	-11.0294
▁국민청원	-11.0306
▁객관적	-11.0306
▁곤란	-11.0306
▁스탠	-11.0306
▁LA	-11.031
▁함유	-11.0313
▁커버	-11.0315
덧	-11.0319
캡	-11.0319
▁학업	-11.032
▁포함됐다	-11.0325
EC	-11.0331
돋	-11.0332
닮	-11.0332
▁공화당	-11.0333
▁궁금해	-11.0341
▁다짐	-11.0342
▁이르면	-11.0343
▁불가능하다	-11.0344
궤	-11.0346
야말로	-11.0346
수수료	-11.0348
되던	-11.0355
주시겠습니까	-11.0358
깎	-11.0385
쉼	-11.0399
젖	-11.0399
▁반납	-11.0406
왼	-11.0412
둑	-11.0412
▁열리고	-11.0414
▁국악	-11.0423
챙	-11.0424
▁인사들	-11.0424
▁패스트트랙	-11.0426
나란히	-11.0428
▁운명	-11.0437
해수욕장	-11.0439
▁시청률	-11.0444
▁2004	-11.0444
▁자리매김	-11.0452
▁됩니까	-11.0466
▁무역분쟁	-11.0466
▁부사장	-11.0474
모씨	-11.0481
닭	-11.0483
▁이동통신	-11.0485
▁고스란히	-11.0493
땐	-11.0493
▁리더십	-11.0494
▁업무협약	-11.0496
4000	-11.0497
▁주고받	-11.0498
ac	-11.0499
▁문화체육관광부	-11.0506
▁습관	-11.0529
쇼핑	-11.0532
되었던	-11.0532
▁소요되는	-11.0535
▁조사결과	-11.0536
▁포상금	-11.0538
봤는데	-11.054
▁여름철	-11.0544
▁남북관계	-11.0545
▁인테리어	-11.0547
▁토트넘	-11.0547
▁줄이기	-11.0548
▁존경	-11.055
버섯	-11.0555
▁영등포구	-11.056
▁양승태	-11.056
▁혁신성장	-11.0565
듭	-11.0569
최근	-11.0572
▁이바지	-11.0577
▁수험생	-11.0578
넘	-11.0579
▁참석자들	-11.0583
하듯	-11.0593
유럽	-11.0595
▁넥센	-11.0601
되게	-11.0609
▁옵션	-11.0615
▁사회적기업	-11.0617
▁기준금리	-11.062
▁호평	-11.0621
주시길	-11.0632
ur	-11.0643
▁야생	-11.0646
롯	-11.065
▁관계기관	-11.0652
닦	-11.0656
▁아메리카노	-11.0656
▁화요일	-11.066
킷	-11.0683
▁춘천	-11.0684
▁타이틀	-11.0685
▁90%	-11.069
▁남경필	-11.0697
▁힘입어	-11.0697
▁대략	-11.0708
▁임대료	-11.0712
▁탈락	-11.0713
▁자칫	-11.0728
초등학교	-11.0749
▁불안감	-11.0749
▁흰색	-11.0752
▁벤투	-11.0752
6000	-11.0756
▁정해진	-11.0758
▁구로구	-11.0762
붓	-11.0766
▁횡령	-11.0766
사령관	-11.0772
▁자꾸	-11.0781
▁센서	-11.0788
▁신흥국	-11.0794
▁돕기	-11.0795
▁어렵습니다	-11.0795
▁모양새	-11.0811
앨	-11.0822
▁인센티브	-11.0822
웰	-11.0822
▁라디오	-11.0822
▁조별리그	-11.0822
▁창의적	-11.0835
▁서대문구	-11.0836
▁피해자들	-11.0836
▁끊이지	-11.085
▁협박	-11.085
▁구멍	-11.0858
▁없었습니다	-11.0862
▁산업통상자원부	-11.0864
》	-11.0864
▁검은색	-11.0864
▁중앙정부	-11.0872
ay	-11.0873
▁골키퍼	-11.0878
둬	-11.0878
《	-11.0878
▁성매매	-11.0878
▁그리스도	-11.0878
▁보내주세요	-11.0879
▁삼성바이오	-11.0879
IB	-11.088
▁라이브	-11.0883
팽	-11.0906
▁각호의	-11.091
▁수영장	-11.0914
▁불거진	-11.092
숲	-11.092
되었어요	-11.0929
하므로	-11.0935
▁논쟁	-11.0949
팡	-11.0976
▁던지	-11.0978
▁예정이며	-11.098
▁압도적	-11.0985
했었	-11.0988
▁애플리케이션	-11.099
펙	-11.099
▁메르스	-11.0991
▁개막식	-11.0997
트랙	-11.0998
오늘	-11.1007
▁현대자동차	-11.1008
▁진심으로	-11.1019
▁김경수	-11.102
스러워	-11.1033
웃	-11.1049
▁급락	-11.1049
▁분야별	-11.105
▁패배	-11.1055
▁거둔	-11.106
소비자	-11.1063
▁불이익	-11.1065
뮤직	-11.1067
▁코스피	-11.107
▁근절	-11.1076
▁상하이	-11.108
▁무조건	-11.1087
셰	-11.109
▁성희롱	-11.109
데이터	-11.1094
▁데이트	-11.1099
▁회의록	-11.1102
▁업그레이드	-11.1119
뭇	-11.1119
▁영유아	-11.1119
뽐	-11.1133
▁돌아온	-11.1138
훔	-11.1205
앱	-11.1243
셜	-11.1272
솜	-11.1307
또	-11.1318
텀	-11.1351
댐	-11.1366
깨	-11.1404
갯	-11.1455
찮	-11.1455
샵	-11.1469
놔	-11.1469
찜	-11.1484
빅	-11.15
찔	-11.1514
뜩	-11.1589
첼	-11.1619
렘	-11.1634
눔	-11.1644
빨	-11.1685
꼴	-11.1695
씻	-11.1695
썩	-11.1879
캠	-11.1905
헐	-11.1973
젓	-11.1988
깐	-11.2018
젊	-11.2081
갓	-11.2083
흰	-11.2194
훼	-11.221
삐	-11.2242
벅	-11.2274
템	-11.2321
떠	-11.2432
쉴	-11.2453
넬	-11.2453
헨	-11.2535
깜	-11.2552
냉	-11.2565
쉐	-11.2585
쓸	-11.2633
못	-11.2644
쭉	-11.2685
됨	-11.2689
숨	-11.2752
싹	-11.2787
뭄	-11.2906
붕	-11.2916
햇	-11.2923
윙	-11.2941
꽉	-11.3027
윌	-11.3045
흠	-11.3132
숍	-11.3185
콕	-11.3185
멈	-11.3202
촘	-11.3238
뜻	-11.3269
엇	-11.3285
갱	-11.3327
갇	-11.3327
팜	-11.3345
폼	-11.3435
뮬	-11.3453
꿈	-11.3473
럿	-11.3508
끔	-11.3523
귤	-11.3673
콧	-11.3673
띤	-11.3729
+	-11.3748
뚱	-11.3766
꼽	-11.3776
낯	-11.3785
갤	-11.3785
쩍	-11.3785
‧	-11.3841
뱅	-11.3857
륨	-11.3917
앗	-11.3954
앵	-11.3955
쿨	-11.3981
듈	-11.4051
썰	-11.4089
뜯	-11.4206
쪼	-11.4206
퉁	-11.4206
홉	-11.4206
돔	-11.4226
딱	-11.4288
펫	-11.4304
깝	-11.4321
톰	-11.4324
껍	-11.4463
탱	-11.4481
밑	-11.4492
둠	-11.4524
푹	-11.4544
잘	-11.4617
뻗	-11.4625
낡	-11.4687
핏	-11.4687
쁜	-11.4816
슐	-11.4894
솟	-11.4934
뉘	-11.4936
뜰	-11.5084
숯	-11.5106
텃	-11.5106
딴	-11.5106
뜬	-11.5127
흩	-11.5148
넨	-11.5191
낮	-11.5198
잭	-11.5213
뒤	-11.522
돕	-11.5223
랫	-11.53
푼	-11.53
툴	-11.5322
싶	-11.5331
딸	-11.5331
뽀	-11.5344
퀄	-11.5366
펄	-11.5366
끝	-11.5399
찢	-11.5498
햄	-11.552
갖	-11.5536
꾀	-11.5588
퀸	-11.561
셈	-11.5613
$	-11.5655
뱃	-11.5655
큼	-11.579
톨	-11.5815
팟	-11.5815
샴	-11.5884
랙	-11.594
껴	-11.5976
뤄	-11.6005
늠	-11.6047
썸	-11.607
뀔	-11.6118
잇	-11.6125
씬	-11.6141
뭔	-11.6179
빡	-11.6189
슴	-11.6234
뻐	-11.6253
벳	-11.6333
켄	-11.6381
〉	-11.643
쭤	-11.643
팥	-11.643
°	-11.6455
싣	-11.6455
튀	-11.6471
〈	-11.6479
깁	-11.6528
잣	-11.6553
풋	-11.6578
%	-11.6673
겔	-11.6677
곧	-11.67
줌	-11.6702
헛	-11.6753
렵	-11.6793
볕	-11.6803
웬	-11.6829
빗	-11.683
“	-11.683
쌈	-11.6854
옴	-11.688
칫	-11.6925
펑	-11.6982
쑥	-11.7034
쓴	-11.7094
및	-11.7202
돗	-11.7217
렐	-11.7217
쑤	-11.7404
뷔	-11.7427
낱	-11.754
뱀	-11.754
팁	-11.754
챌	-11.7567
뵙	-11.7732
궈	-11.776
탬	-11.776
j	-11.7788
붉	-11.7814
삿	-11.7872
냄	-11.7901
많	-11.796
볶	-11.7982
꽁	-11.7986
쥬	-11.8014
늦	-11.8078
멧	-11.8101
벡	-11.813
뤼	-11.8159
딛	-11.8305
엎	-11.8305
덥	-11.8364
잤	-11.8394
엣	-11.8423
땅	-11.8465
밋	-11.8483
놈	-11.8483
왜	-11.8655
핍	-11.8695
랴	-11.8757
멀	-11.8782
찍	-11.89
똥	-11.8912
넛	-11.8975
쁨	-11.8999
솥	-11.9038
슘	-11.9038
썹	-11.9102
덮	-11.9104
킵	-11.9133
쫄	-11.9166
즙	-11.9262
낚	-11.9294
늄	-11.9393
덱	-11.9426
휠	-11.9426
짠	-11.9459
튬	-11.9459
볍	-11.9492
걀	-11.9659
끽	-11.9693
빔	-11.9693
씹	-11.9898
큽	-11.9898
툰	-11.9967
몹	-12.0072
흑	-12.0101
댁	-12.0107
똘	-12.0107
뎌	-12.0178
뺀	-12.0285
줍	-12.032
뜸	-12.0321
멕	-12.0394
팍	-12.043
칵	-12.0466
낌	-12.0503
둡	-12.0503
팸	-12.0503
씌	-12.0577
벙	-12.0614
쁠	-12.0651
콰	-12.0651
맷	-12.0801
뿔	-12.0801
룻	-12.0839
륵	-12.0839
캘	-12.0915
딥	-12.0915
빴	-12.0915
챗	-12.0953
꼼	-12.1031
땠	-12.1031
샹	-12.1031
딧	-12.1187
딤	-12.1226
쎄	-12.1226
콥	-12.1226
_	-12.1265
댔	-12.1305
뮌	-12.1305
쥔	-12.1385
긁	-12.1465
앰	-12.1628
낀	-12.1669
휩	-12.1711
옌	-12.1794
짱	-12.1836
캄	-12.192
쏜	-12.1962
웍	-12.1962
릅	-12.2003
봅	-12.2005
튿	-12.2005
탭	-12.2091
곶	-12.2134
귄	-12.2134
닙	-12.2134
얄	-12.2134
왓	-12.2177
굉	-12.222
짖	-12.2264
댓	-12.2308
듣	-12.2319
늙	-12.2396
퉈	-12.2396
퓰	-12.2441
힙	-12.2485
쿤	-12.2485
멤	-12.253
챈	-12.2575
옛	-12.2594
덜	-12.264
괜	-12.2666
젝	-12.2758
똑	-12.2896
즉	-12.3466
좀	-12.3517
떤	-12.3617
즌	-12.3666
탠	-12.3669
섯	-12.3678
걱	-12.3773
꼭	-12.4039
벗	-12.4477
끌	-12.4496
뛰	-12.4647
짬	-12.479
샐	-12.4846
씀	-12.4954
얘	-12.5015
뽕	-12.5251
읽	-12.5477
빼	-12.5478
훌	-12.5611
랬	-12.5653
퀘	-12.6574
첫	-12.6591
벚	-12.6709
헝	-12.7056
펴	-12.7157
『	-12.7382
젯	-12.749
낄	-12.7563
숫	-12.771
쿄	-12.7936
옆	-12.9005
됩	-12.9619
렷	-12.9805
믿	-13.0025
걷	-13.0123
끗	-13.0378
뭐	-13.0628
삶	-13.1051
"	-13.1239
픔	-13.1743
슷	-13.1858
뀌	-13.1858
몇	-13.2563
룹	-13.3584
륭	-13.3607
빚	-13.3907
<	-13.4202
뒷	-13.4813
큘	-13.5389
쩔	-13.5549
뀐	-13.5884
늬	-13.5947
셧	-13.7764
밝	-13.8595
쌓	-13.956
잊	-14.2479
굳	-14.2479
묶	-14.4336
낳	-14.4336
띄	-14.8913
눠	-15.0545
탓	-15.1897
꺾	-15.2806
뛴	-16.3677
섣	-16.3678
꿇	-16.3679
뱉	-16.368
숱	-16.3681
헷	-16.3682
꿰	-16.3683
뻤	-16.3684
굶	-16.3685
뺏	-16.3686
넸	-16.3687
팠	-16.3688
엌	-16.3689
쨌	-16.369
폈	-16.3691
씁	-16.3692
엮	-16.3693
홋	-16.3694
춥	-16.3695
늑	-16.3696
찼	-16.3697
쁩	-16.3698
덟	-16.3699
뿜	-16.37
얹	-16.3701
껑	-16.3702
눴	-16.3703
띈	-16.3704
꿨	-16.3705
굵	-16.3706
꽂	-16.3707
깥	-16.3708
얇	-16.3709
갚	-16.371
얽	-16.3711
촛	-16.3712
녔	-16.3713
옳	-16.3714
탔	-16.3715
딪	-16.3716
밌	-16.3717
뤘	-16.3718
끓	-16.3719
짙	-16.372
횟	-16.3721
쫓	-16.3722
릎	-16.3723
뚫	-16.3724
잦	-16.3725
넉	-16.3726
샀	-16.3727
췄	-16.3728
꼈	-16.3729
밟	-16.373
섞	-16.3731
썼	-16.3732
팎	-16.3733
컸	-16.3734
좁	-16.3735
꿔	-16.3736
닫	-16.3737
뽑	-16.3738
훨	-16.3739
잖	-16.374
맺	-16.3741
짧	-16.3742
묻	-16.3743
쏟	-16.3744
옮	-16.3745
켰	-16.3746
잃	-16.3747
앉	-16.3748
넓	-16.3749
녁	-16.375
겪	-16.3751
넣	-16.3752
랐	-16.3753
겼	-16.3754
섰	-16.3755
얻	-16.3756
맡	-16.3757
냈	-16.3758
떻	-16.3759
렇	-16.376
났	-16.3761
혔	-16.3762
꽤	-16.3763
높	-16.3763
