<unk>	0
<s>	0
</s>	0
.	-3.19663
을	-4.06338
의	-4.22802
,	-4.2448
를	-4.50482
가	-4.51049
이	-4.52911
에	-4.56462
는	-4.62268
▁	-4.65912
은	-4.89762
▁수	-5.15859
과	-5.32615
도	-5.37562
▁있다	-5.39351
고	-5.46282
로	-5.50436
일	-5.60951
에서	-5.63371
▁‘	-5.64965
와	-5.66502
)	-5.67008
으로	-5.70365
?	-5.70861
한	-5.71469
’	-5.7441
▁“	-5.76688
▁이	-5.77344
(	-5.77372
·	-5.79321
”	-5.86106
인	-5.89144
▁있는	-5.89947
▁등	-5.92125
다	-6.03144
년	-6.14631
▁1	-6.16036
▁한	-6.21113
▁한다	-6.21585
▁제	-6.2763
할	-6.29604
하는	-6.30185
▁그	-6.30259
지	-6.31178
하고	-6.317
만	-6.3353
▁2	-6.38385
▁및	-6.39526
▁것으로	-6.40697
월	-6.42008
해	-6.42987
▁3	-6.49663
▁대한	-6.55519
▁전	-6.5824
기	-6.68431
▁위해	-6.71253
▁더	-6.79664
▁것	-6.79823
시	-6.83227
▁5	-6.83974
▁4	-6.86191
▁중	-6.86452
▁경우	-6.8683
▁할	-6.87307
나	-6.87683
▁따라	-6.89753
들이	-6.9165
했다	-6.9291
대	-6.94087
서	-6.9452
▁지난	-6.97925
며	-7.00124
자	-7.00414
▁통해	-7.00886
▁한국	-7.00896
▁10	-7.00958
개	-7.01997
▁나는	-7.02545
하게	-7.03645
까지	-7.05033
▁함께	-7.05173
▁밝혔다	-7.07573
▁내	-7.07668
된	-7.08756
에는	-7.09303
▁때	-7.09858
▁있습니다	-7.10478
▁안	-7.11032
면	-7.1308
▁하는	-7.13204
▁이번	-7.13918
게	-7.19371
▁김	-7.19996
▁것이	-7.20344
▁6	-7.2152
▁많은	-7.22577
▁위한	-7.22671
1	-7.23025
▁다른	-7.25278
에게	-7.25644
▁두	-7.26081
2	-7.26137
▁가장	-7.26241
이다	-7.27306
▁저는	-7.28503
▁네	-7.28723
▁등을	-7.30119
명	-7.3028
▁말했다	-7.31678
라	-7.32095
▁했다	-7.32985
▁잘	-7.33528
▁것이다	-7.33701
▁7	-7.3393
사	-7.34141
주	-7.34801
입니다	-7.34936
▁후	-7.3621
하지	-7.37598
▁각	-7.37624
▁대해	-7.37838
▁것은	-7.3851
▁미국	-7.38523
이라고	-7.39076
▁같은	-7.39467
적	-7.40396
수	-7.41186
▁큰	-7.41526
▁것을	-7.41641
▁게	-7.41786
야	-7.43974
▁서울	-7.44523
▁8	-7.4505
▁우리	-7.45658
하기	-7.46076
▁다음	-7.46115
▁또는	-7.47585
제	-7.48794
성	-7.49608
▁시	-7.49618
▁가운데	-7.49649
▁필요한	-7.49755
차	-7.50509
진	-7.51109
▁때문에	-7.52254
▁하고	-7.52804
▁9	-7.53307
리	-7.53393
한다	-7.53399
▁있어	-7.53507
어	-7.53919
▁관련	-7.5437
▁많이	-7.54531
이나	-7.55162
▁그는	-7.56422
장	-7.57368
상	-7.5751
미	-7.57746
▁다	-7.58414
요	-7.58542
하여	-7.58565
▁있도록	-7.59048
원	-7.59111
동	-7.59434
적인	-7.59513
하며	-7.60785
히	-7.62708
에서는	-7.62807
▁등이	-7.63161
▁따른	-7.63505
-	-7.64244
▁특히	-7.64606
조	-7.64807
▁최근	-7.65275
▁현재	-7.65826
▁이날	-7.66175
▁다시	-7.66698
▁주	-7.67026
회	-7.67166
▁이후	-7.67317
▁이상	-7.68171
▁다양한	-7.68206
▁제가	-7.68273
▁지난해	-7.68637
▁뒤	-7.68894
▁해	-7.69086
▁경기도	-7.69262
▁지역	-7.69271
호	-7.69701
던	-7.69943
▁20	-7.69973
▁없는	-7.70811
▁될	-7.71573
스	-7.71598
▁국내	-7.71667
분	-7.71951
보다	-7.7218
선	-7.7298
▁중국	-7.73017
해야	-7.74161
▁모두	-7.7457
부	-7.74798
화	-7.74844
▁올해	-7.75544
▁내가	-7.76117
▁직접	-7.7641
▁12	-7.76678
▁11	-7.78656
비	-7.7901
부터	-7.79039
▁있다는	-7.79084
세	-7.79246
▁있어요	-7.79646
▁구청장은	-7.80049
아	-7.80355
라는	-7.80537
3	-7.81198
되는	-7.81222
라고	-7.81402
▁모든	-7.8148
▁30	-7.81607
될	-7.82761
▁위하여	-7.83531
▁지금	-7.83566
전	-7.84037
▁보고	-7.84231
구	-7.84624
여	-7.84935
정	-7.86196
""	-7.86439
▁총	-7.86718
▁좋은	-7.8756
형	-7.87648
하면서	-7.87867
▁원	-7.87992
용	-7.88736
명이	-7.89177
▁약	-7.89191
이하	-7.89328
▁A	-7.90462
▁따르면	-7.9061
▁어떤	-7.91463
▁지원	-7.92071
▁등의	-7.93213
▁해당	-7.93312
하면	-7.93589
▁아니라	-7.9367
면서	-7.93786
▁있을	-7.93812
▁데	-7.94388
신	-7.94464
▁미	-7.94782
▁없다	-7.9531
▁일	-7.95627
니	-7.9634
산	-7.96595
됐다	-7.9681
▁이를	-7.96848
."	-7.96955
」	-7.97107
▁말	-7.97504
소	-7.97524
▁「	-7.97594
▁우리는	-7.97711
▁어떻게	-7.97819
▁오후	-7.98126
▁경우에는	-7.99197
▁"	-7.99305
▁너무	-7.99402
억	-7.99524
▁오늘	-7.99543
▁좀	-8.00029
▁동안	-8.00046
▁시간	-8.00052
▁문	-8.00509
▁당시	-8.00662
▁이런	-8.00701
▁지	-8.00885
이라는	-8.00903
들은	-8.01023
▁이어	-8.0111
돼	-8.01114
중	-8.01241
▁건	-8.01267
▁때문이다	-8.01758
▁다만	-8.01823
▁관한	-8.02233
▁세계	-8.03197
▁된다	-8.0336
▁있다고	-8.03986
들의	-8.04035
▁높은	-8.04064
▁오	-8.04314
▁합니다	-8.04391
▁새로운	-8.04652
▁만큼	-8.04712
▁나	-8.05135
▁시장	-8.0541
천	-8.05586
당	-8.05961
식	-8.06262
▁않은	-8.06369
하여야	-8.06781
▁경찰	-8.06886
▁경기	-8.07075
▁일본	-8.08018
▁사업	-8.08163
적으로	-8.08606
▁운영	-8.08687
▁첫	-8.08866
▁간	-8.09316
이라	-8.09939
위	-8.10083
▁정	-8.101
합니다	-8.10261
우	-8.10456
▁당신은	-8.1049
▁거	-8.10852
▁비	-8.11293
에도	-8.11314
4	-8.11447
▁또	-8.11469
▁박	-8.11638
▁있나요	-8.11966
▁교육	-8.12159
▁고	-8.12219
했던	-8.12391
되고	-8.12919
법	-8.13219
▁사	-8.13309
▁볼	-8.13782
▁결과	-8.13815
▁등에	-8.13913
▁15	-8.14045
보	-8.14138
▁당신이	-8.14245
경	-8.14336
▁조사	-8.14421
▁사용	-8.14861
들을	-8.15075
드	-8.1508
▁않고	-8.15191
▁몇	-8.15395
▁있었다	-8.16287
▁관계자는	-8.16879
▁정도	-8.16882
'	-8.17235
▁트럼프	-8.17242
지만	-8.17434
▁된	-8.17607
▁신	-8.18779
오	-8.18824
▁대	-8.19036
▁있고	-8.19199
▁추가	-8.19251
▁영화	-8.19569
▁못	-8.1961
▁오는	-8.19805
▁난	-8.20023
치	-8.20769
실	-8.2081
▁하나	-8.20876
▁조	-8.20923
▁보인다	-8.21135
▁기업	-8.21325
▁줄	-8.21661
▁있으며	-8.21797
▁관리	-8.22014
▁없이	-8.22068
▁구	-8.2211
항에	-8.22149
▁열린	-8.22199
▁오전	-8.22376
▁북한	-8.2318
▁같이	-8.23242
▁세	-8.23568
관	-8.23933
영	-8.24009
▁주요	-8.24299
하	-8.24321
▁아	-8.24514
▁어느	-8.24662
▁대통령이	-8.24918
▁여러	-8.25077
습니다	-8.25307
마	-8.25541
▁기존	-8.25583
처럼	-8.25624
문	-8.25682
▁받은	-8.26173
▁설치	-8.26204
▁그리고	-8.26238
▁바로	-8.2643
▁도	-8.2678
▁19	-8.27029
▁번	-8.27232
▁달	-8.27853
▁일부	-8.28445
▁장	-8.28738
m	-8.29708
▁사람이	-8.29759
석	-8.29808
▁예정이다	-8.29907
▁저	-8.30074
되어	-8.30287
했습니다	-8.30386
▁유	-8.30491
▁설명했다	-8.30515
시간	-8.30959
하거나	-8.30983
▁차	-8.31333
▁바	-8.3172
▁100	-8.32365
군	-8.32754
▁사람	-8.33006
▁경제	-8.33117
▁투자	-8.33121
데	-8.33272
재	-8.33353
해서	-8.33711
5	-8.34052
▁가능성이	-8.34796
▁서	-8.35216
권	-8.35461
▁자	-8.36101
국	-8.36451
계	-8.37009
유	-8.37239
란	-8.37259
▁필요	-8.37419
▁확인	-8.37516
▁알	-8.37537
트	-8.37609
▁있지만	-8.37622
연	-8.37645
▁날	-8.37998
▁호의	-8.38392
▁정부가	-8.38432
▁정부	-8.38655
들	-8.3882
▁18	-8.38869
▁최대	-8.39067
▁진행	-8.3919
▁더욱	-8.39216
▁강	-8.39366
민	-8.39501
▁대상으로	-8.39623
▁전국	-8.39692
▁문제가	-8.39953
▁기	-8.40246
엔	-8.40302
▁받고	-8.40383
▁정말	-8.40438
단	-8.40777
▁이미	-8.40888
▁것입니다	-8.40992
▁대표	-8.41017
▁문화	-8.41854
질	-8.42099
▁매우	-8.42214
▁않는	-8.42271
조제	-8.42558
▁말한다	-8.42576
▁되는	-8.42777
억원	-8.42811
무	-8.42901
▁초	-8.43242
▁양	-8.43262
▁부산	-8.43432
▁학교	-8.43673
방	-8.43947
▁제품	-8.43973
▁해요	-8.4433
▁때에는	-8.44334
▁국가	-8.4437
내	-8.44469
금	-8.44674
강	-8.45044
▁도지사	-8.45119
▁시간이	-8.45504
▁먼저	-8.45572
하도록	-8.45652
했고	-8.45807
▁16	-8.46055
배	-8.46312
▁당신의	-8.46327
급	-8.46457
▁계속	-8.46569
는데	-8.46868
간	-8.46904
일까지	-8.47167
▁우리가	-8.47279
▁부	-8.47335
일부터	-8.47383
▁13	-8.47665
관리	-8.47774
▁14	-8.47884
모	-8.48148
▁선	-8.48429
▁아직	-8.48481
▁또한	-8.48634
▁기술	-8.48931
▁크게	-8.48957
되지	-8.49017
공	-8.49077
6	-8.49116
안	-8.49343
▁자신의	-8.49413
▁법	-8.49567
▁본	-8.49716
▁여성	-8.49797
이에요	-8.49932
▁올	-8.49989
▁조례	-8.50147
▁관심	-8.50303
▁됐다	-8.50581
▁판매	-8.50771
▁청와대	-8.51013
▁재	-8.51282
▁새	-8.51947
▁들어	-8.5198
거나	-8.5199
조에	-8.52026
7	-8.52525
건	-8.52981
개월	-8.5326
길	-8.5374
▁연	-8.53843
▁회사	-8.54191
▁온	-8.54552
▁그런	-8.54695
▁사항을	-8.54786
현	-8.55082
▁이용	-8.5527
▁주세요	-8.5532
▁전했다	-8.55432
▁등으로	-8.55453
▁관심이	-8.55488
▁있는데	-8.55893
▁반	-8.55928
만원	-8.56001
▁국회	-8.56348
▁동	-8.56424
▁17	-8.56469
▁배우	-8.56734
▁글로벌	-8.5674
물	-8.568
▁서울특별시	-8.56815
▁보면	-8.56977
▁아닌	-8.57162
▁북	-8.5774
▁집	-8.58063
▁개	-8.58186
박	-8.58267
▁가지고	-8.58724
▁가지	-8.58726
▁일이	-8.59143
종	-8.59152
포	-8.59411
파	-8.59734
▁노	-8.59904
청	-8.5993
▁갈	-8.60224
▁시설	-8.60466
▁예	-8.60522
▁그동안	-8.60545
했지만	-8.6056
▁추진	-8.60848
러	-8.60878
▁이에	-8.61164
▁K	-8.6129
▁모	-8.61598
▁역시	-8.61812
▁해외	-8.6187
▁무	-8.61893
▁해야	-8.62113
▁참여	-8.62159
▁25	-8.62296
교	-8.6241
▁명	-8.62448
온	-8.62485
번	-8.62642
▁하지만	-8.62902
▁국제	-8.63019
위원회	-8.63079
병	-8.63138
별	-8.63236
양	-8.63271
▁각종	-8.63299
▁사람들이	-8.63344
▁처음	-8.63434
▁문제	-8.63543
▁중인	-8.63683
▁분	-8.63874
항	-8.63892
▁연구	-8.63952
명의	-8.64003
▁50	-8.64058
▁남	-8.64102
▁환경	-8.64407
▁전체	-8.64548
▁상	-8.6469
▁앞서	-8.64746
▁하며	-8.6482
▁산	-8.65011
점	-8.65142
▁하	-8.65165
▁그럼	-8.65553
▁기간	-8.65637
▁나온다	-8.65679
▁24	-8.65742
▁개발	-8.65767
▁각각	-8.66046
하다	-8.6606
해요	-8.66085
▁마	-8.66179
▁과정에서	-8.66291
약	-8.66505
▁것도	-8.66587
▁혹시	-8.6659
▁우선	-8.66747
▁당	-8.66748
▁경기도가	-8.66776
▁물론	-8.66843
▁왜	-8.66853
▁일자리	-8.67106
▁나타났다	-8.67171
▁활동	-8.67202
▁음식	-8.67261
▁규모	-8.67322
▁최	-8.6737
이었다	-8.67446
인데	-8.67456
▁보	-8.67485
▁성	-8.67582
하였다	-8.67652
▁수도	-8.67674
▁실제	-8.6783
▁여기	-8.67916
▁됩니다	-8.67941
▁걸	-8.68283
▁전에	-8.6838
▁정책	-8.68389
▁받을	-8.68417
▁저희	-8.68592
▁신청	-8.68614
▁불	-8.68624
▁타	-8.68833
▁앞으로	-8.68966
르	-8.69086
타	-8.69121
▁하지	-8.69152
▁인기	-8.69199
▁지난달	-8.69232
▁계획	-8.69243
승	-8.69246
▁수사	-8.69434
운	-8.69458
▁물	-8.69668
▁발생	-8.69996
▁알고	-8.70364
▁자동차	-8.70381
▁이렇게	-8.70468
▁친구	-8.70673
▁거예요	-8.70765
에서도	-8.70832
▁개인	-8.70976
▁B	-8.71389
▁되고	-8.71457
▁만에	-8.71542
▁차량	-8.71645
G	-8.71677
▁그의	-8.71785
▁열	-8.71929
▁서비스	-8.7195
지역	-8.71962
▁도시	-8.72044
▁배	-8.72077
된다	-8.7211
▁있기	-8.72247
태	-8.72609
▁공동	-8.72624
명을	-8.72785
▁영향을	-8.73023
▁소	-8.7325
▁있게	-8.73335
▁생산	-8.73379
이란	-8.73418
▁군	-8.73864
▁대학	-8.73961
▁사회	-8.74095
했다고	-8.74212
였다	-8.74218
▁평가	-8.74245
▁수출	-8.74395
▁채	-8.74489
▁조금	-8.74514
▁가능한	-8.7458
▁피	-8.74582
카	-8.74903
▁일반	-8.75041
반	-8.75296
▁산업	-8.75323
했어요	-8.75329
▁인해	-8.75517
씨가	-8.75603
8	-8.7585
▁계획이다	-8.76258
▁않았다	-8.76285
심	-8.76328
▁만	-8.76469
9	-8.76484
▁하루	-8.76523
▁목적으로	-8.76547
▁중심으로	-8.76688
학	-8.76786
노	-8.76822
▁사고	-8.76835
▁그가	-8.77033
초	-8.77045
▁대부분	-8.77352
▁전문	-8.77355
▁한국의	-8.77362
▁받아	-8.77457
▁너	-8.77624
▁가격	-8.77682
▁21	-8.77783
▁속	-8.77911
층	-8.78202
▁강조했다	-8.78228
산업	-8.78242
▁않을	-8.78337
▁해당하는	-8.78444
랑	-8.7847
▁23	-8.78479
로부터	-8.78491
▁결정	-8.78513
▁않아	-8.78578
▁활성화	-8.78595
▁소속	-8.78637
▁방문	-8.78663
▁한다는	-8.78675
▁이제	-8.79002
▁단	-8.79024
▁얼마나	-8.79154
▁이러한	-8.79529
▁두고	-8.79611
▁업무	-8.79839
▁행사	-8.79849
▁대비	-8.79925
철	-8.79951
▁현지	-8.79961
▁사진	-8.80235
남	-8.80258
티	-8.80364
▁나왔다	-8.80414
▁기록	-8.8058
크	-8.8059
사업	-8.80628
교육	-8.80779
▁서로	-8.81389
▁만들어	-8.81405
▁중요한	-8.81574
▁도내	-8.81867
준	-8.819
디	-8.81981
도록	-8.82041
거	-8.82134
▁문재인	-8.82254
▁역할을	-8.82353
D	-8.82423
▁것이라는	-8.82485
▁22	-8.83007
▁발표	-8.83015
▁있어서	-8.83177
▁27	-8.83262
▁주문	-8.833
하던	-8.83325
▁현장	-8.83335
지는	-8.83379
▁어려운	-8.83425
장은	-8.83501
레	-8.83579
▁계약	-8.83656
년간	-8.83692
▁방	-8.83756
▁40	-8.83912
지원	-8.84001
▁알려졌다	-8.84003
자가	-8.84348
)’	-8.84748
▁준비	-8.8476
▁살	-8.84778
기를	-8.85178
역	-8.85289
▁대통령	-8.85301
▁최종	-8.85316
직	-8.85388
임	-8.85546
▁없어	-8.85602
▁남북	-8.85629
▁어	-8.86058
▁공연	-8.86235
▁대하여	-8.86409
▁정보	-8.86653
▁감사	-8.86764
▁별지	-8.87082
▁게임	-8.871
▁받는	-8.87128
▁시작	-8.87274
▁생활	-8.87278
▁같다	-8.87323
▁매년	-8.87347
▁제대로	-8.87379
▁공	-8.87542
▁외	-8.87613
▁하면	-8.87643
▁과거	-8.87988
▁사업을	-8.8802
네	-8.88046
▁28	-8.88305
▁모습을	-8.88305
▁회의	-8.88307
려	-8.88374
감	-8.88676
▁손	-8.88787
▁26	-8.88985
▁점을	-8.89006
▁피해	-8.89026
▁최고	-8.89164
▁독일	-8.89248
▁지급	-8.89325
프	-8.89335
▁되어	-8.89462
▁작업	-8.89592
▁대회	-8.89596
▁정도로	-8.89629
피	-8.89652
▁가는	-8.89785
▁처리	-8.89853
그	-8.89996
▁구매	-8.9011
▁갖고	-8.90265
살	-8.90406
바	-8.90489
▁개선	-8.90556
되면서	-8.9069
발	-8.90852
린	-8.91012
증	-8.91103
생	-8.91217
▁2016	-8.91238
▁러시아	-8.9125
▁삼	-8.91859
▁그룹	-8.92104
▁기준	-8.92175
▁이는	-8.92194
마다	-8.92254
토	-8.92554
시설	-8.92603
▁설명	-8.92696
▁일정	-8.92748
▁거쳐	-8.92789
▁내일	-8.92797
되면	-8.92958
▁인천	-8.93029
▁상황에서	-8.9321
▁발	-8.9327
▁주민	-8.93276
행	-8.93287
▁확대	-8.93327
▁같아요	-8.93398
▁바랍니다	-8.93428
▁평균	-8.93433
▁네가	-8.93598
▁임	-8.9366
▁내년	-8.93686
었다	-8.93714
두	-8.9374
문화	-8.93762
▁번째	-8.9379
어요	-8.93838
▁일을	-8.93878
▁변경	-8.93909
▁업체	-8.93952
하기로	-8.94067
▁인사	-8.94146
▁공개	-8.94277
▁영어	-8.94288
백	-8.94382
▁없습니다	-8.94436
▁핵심	-8.94467
▁고용	-8.94574
▁지정	-8.94613
희	-8.94738
즈	-8.94788
근	-8.94941
체	-8.95123
▁송	-8.95127
▁아파트	-8.95146
터	-8.95274
▁따로	-8.95316
창	-8.95355
▁성공	-8.95433
▁노력	-8.95487
▁우리나라	-8.95568
▁같아	-8.95761
▁브랜드	-8.96402
▁외국인	-8.96566
▁인터넷	-8.96603
▁학생	-8.9664
▁규제	-8.96661
▁성과	-8.96699
▁위	-8.96755
▁문제를	-8.96757
▁협력	-8.96826
▁집중	-8.97029
년부터	-8.97048
▁하는데	-8.97088
▁보호	-8.97142
▁불법	-8.97176
▁달리	-8.97184
▁단체	-8.97235
▁가진	-8.97311
▁것이라고	-8.97342
▁관계	-8.97375
▁중구	-8.9743
▁신고	-8.97562
불	-8.97654
▁베트남	-8.97824
▁안전	-8.97884
▁거야	-8.98061
▁대통령은	-8.98151
▁등록	-8.98195
▁있던	-8.98201
▁제작	-8.98389
▁위원	-8.98524
▁자신이	-8.98973
씨	-8.99263
▁보내	-8.99422
씨는	-8.99577
▁결제	-8.99622
▁발전	-8.99629
▁작은	-8.99681
▁남자	-8.9974
▁2018	-8.99755
▁목소리	-8.99793
▁대화	-8.99796
A	-9.00051
▁점	-9.0024
되었다	-9.00495
▁분석	-9.00608
▁관련해	-9.00632
▁받았다	-9.00783
▁비해	-9.00992
▁많다	-9.01083
▁의견을	-9.01092
▁심	-9.01121
▁가족	-9.01367
기도	-9.01465
▁주변	-9.015
기업	-9.01876
▁이전	-9.01976
으며	-9.02036
▁파	-9.02056
류	-9.02058
▁영	-9.02071
▁만나	-9.02099
▁대형	-9.02186
센터	-9.02241
순	-9.02555
▁만든	-9.02663
▁거래	-9.02723
에선	-9.02768
통	-9.02796
▁국민	-9.02867
▁여행	-9.02926
▁심사	-9.02936
▁변화	-9.03049
▁사실	-9.03078
▁대해서는	-9.0315
▁이상의	-9.03215
▁생각	-9.03306
▁전문가	-9.03306
▁이동	-9.03312
▁주택	-9.03347
▁논의	-9.03409
▁사실을	-9.03446
단체	-9.03476
루	-9.03513
▁이야기	-9.03568
▁부동산	-9.03611
▁부분	-9.03851
▁규정에	-9.03867
▁정부의	-9.04026
▁대신	-9.04028
한다는	-9.04057
환	-9.04109
▁안에	-9.04119
▁내용을	-9.04254
▁못한	-9.0427
▁전망이다	-9.04368
▁광주	-9.04377
▁시즌	-9.04405
광	-9.0444
▁건물	-9.04521
▁29	-9.04656
▁필요하다고	-9.04991
▁쉽게	-9.05056
▁꼭	-9.05145
▁백	-9.05181
▁적극	-9.05275
▁경험	-9.05316
들과	-9.0532
▁도입	-9.05372
▁31	-9.05571
등	-9.05627
▁매	-9.05713
▁시행	-9.05828
▁비핵화	-9.0585
▁모습이	-9.05987
▁상품	-9.06106
▁온라인	-9.06118
▁비롯해	-9.0613
▁홍보	-9.06276
여명이	-9.06351
▁자체	-9.06368
▁사회적	-9.06419
▁행정	-9.06457
▁(	-9.06537
림	-9.06638
▁가수	-9.06839
▁한번	-9.06862
▁2017	-9.06942
판	-9.07031
▁향후	-9.07139
코	-9.07157
▁리	-9.07358
▁음악	-9.07369
▁결과를	-9.07383
▁미세먼지	-9.07405
▁공급	-9.07478
복	-9.07518
▁경기도는	-9.07536
집	-9.07625
저	-9.07695
▁건설	-9.07772
▁수립	-9.07779
조의	-9.07979
▁사건	-9.08029
▁특별	-9.08445
▁발생한	-9.08551
▁제공	-9.08558
▁눈	-9.08607
▁버스	-9.08728
월부터	-9.08754
▁중소기업	-9.08824
▁자유한국당	-9.08905
▁보도했다	-9.09068
▁지원을	-9.09151
▁법률	-9.09152
▁성장	-9.0921
▁정보를	-9.09217
▁마지막	-9.09223
나요	-9.0932
▁적이	-9.0935
▁경	-9.09411
▁기관	-9.09427
▁중에서	-9.09513
▁공식	-9.09664
▁여자	-9.09669
▁스스로	-9.09746
▁공공	-9.09945
구청장	-9.09985
▁도는	-9.10013
▁도움이	-9.1002
▁앞두고	-9.10027
▁신규	-9.10084
색	-9.10165
▁카드	-9.1019
▁해서	-9.10274
▁경영	-9.10279
▁제품을	-9.10301
▁찾아	-9.10364
항의	-9.10378
▁2015	-9.10446
▁명이	-9.10564
하는데	-9.10597
▁그것	-9.10608
▁이유로	-9.10626
설	-9.10643
▁장애인	-9.10767
업	-9.10886
▁돼	-9.10965
▁에너지	-9.11037
▁활동을	-9.11086
들에게	-9.11143
▁혐의로	-9.11158
▁체험	-9.11178
다고	-9.11186
▁청년	-9.11186
▁대통령의	-9.11267
▁구성	-9.11392
▁수업	-9.11475
▁항상	-9.11559
▁나라	-9.11599
▁윤	-9.11629
▁전통	-9.11753
▁선정	-9.11772
▁그녀는	-9.11778
▁어제	-9.11955
▁검토	-9.1207
현지시간	-9.12082
▁프로그램	-9.12137
▁공무원	-9.12277
장이	-9.12281
▁기본	-9.12332
져	-9.12548
▁현	-9.12654
▁논란이	-9.12733
▁조정	-9.12748
▁검찰	-9.12843
열	-9.12886
▁구청장이	-9.12911
▁여	-9.12921
▁전시	-9.12944
▁구조	-9.12959
▁예산	-9.13011
▁의원	-9.13023
▁그래서	-9.13109
봉	-9.13121
▁황	-9.13152
학교	-9.13193
▁수입	-9.13237
▁조성	-9.13282
▁드라마	-9.13396
이며	-9.1356
▁건강	-9.13569
▁검사	-9.13587
10	-9.13592
▁대상	-9.13596
▁동시에	-9.13624
▁관광	-9.13639
▁정치	-9.13668
▁여전히	-9.13692
▁한다고	-9.13747
▁통한	-9.13754
더	-9.13758
예	-9.1377
▁취업	-9.13813
▁취소	-9.13852
▁그렇게	-9.13934
▁유지	-9.13958
▁거의	-9.13973
성이	-9.13992
▁되나요	-9.14026
▁민간	-9.14076
대로	-9.14403
▁위해서는	-9.1442
하자	-9.14519
▁가능하다	-9.14543
▁직원	-9.14591
▁나섰다	-9.14597
했다는	-9.14652
래	-9.14827
▁기대	-9.14871
▁우	-9.14971
매	-9.15164
),	-9.15207
▁인상	-9.15272
▁않다	-9.15338
▁제도	-9.15715
▁실제로	-9.15824
▁위반	-9.15854
▁스	-9.16058
위를	-9.16071
▁필요하다	-9.16177
▁밤	-9.16246
절	-9.16333
▁있는지	-9.1641
▁서비스를	-9.16417
▁의원이	-9.1645
▁당신	-9.16702
▁보다	-9.16819
▁영국	-9.16884
▁금융	-9.16901
km	-9.17033
▁제주	-9.17048
▁방송	-9.1722
▁진	-9.17274
▁위원장은	-9.17294
▁공사	-9.17438
으면	-9.1745
▁회장	-9.17465
▁비롯한	-9.17527
▁심의	-9.17578
▁인근	-9.17623
▁것에	-9.17638
▁원하는	-9.17665
▁디자인	-9.17701
▁화	-9.17723
▁요청	-9.17764
▁대구	-9.17959
▁한류	-9.18103
▁맞아	-9.18137
▁규정	-9.18189
김	-9.1832
▁싶습니다	-9.18336
▁나의	-9.18493
▁의원은	-9.18563
▁인한	-9.18563
▁콘텐츠	-9.18582
▁곳이	-9.18705
▁선수	-9.18774
▁보는	-9.18886
▁없어요	-9.18894
▁청소년	-9.189
S	-9.18905
▁아시아	-9.18906
▁해결	-9.18938
▁호	-9.19015
▁미국의	-9.19016
▁통합	-9.19018
▁광고	-9.19114
개의	-9.19131
▁혁신	-9.19232
사가	-9.19265
▁결국	-9.19292
▁참석한	-9.19376
▁이들	-9.19406
▁이것은	-9.19581
▁설립	-9.19629
▁예약	-9.19676
규	-9.19704
▁해도	-9.19729
▁타고	-9.19735
▁경쟁	-9.1974
▁유럽	-9.19778
네요	-9.19977
속	-9.20056
▁기업이	-9.20109
▁사람들	-9.20216
▁사람은	-9.20253
▁금	-9.20469
▁지원할	-9.20481
▁들	-9.20565
각	-9.20578
▁예산의	-9.2059
▁편	-9.20641
▁의한	-9.20654
▁지방	-9.20678
▁연기	-9.20703
▁선발	-9.20714
난	-9.20751
후	-9.20839
▁스마트폰	-9.20867
▁삼성전자	-9.20903
▁열리는	-9.20925
장을	-9.21113
으로부터	-9.21118
▁빨리	-9.2112
▁우려	-9.21156
▁선택	-9.21363
▁C	-9.21528
▁같습니다	-9.21532
▁점검	-9.21533
▁넘는	-9.21638
▁자연	-9.21652
론	-9.21675
▁내용	-9.21735
▁자주	-9.21775
▁저녁	-9.21821
▁특별한	-9.21911
력	-9.22006
긴	-9.22125
▁애	-9.22201
▁인구	-9.22202
▁화재	-9.22322
▁영업	-9.22422
▁할인	-9.22437
외	-9.22475
▁전화	-9.22703
▁얘기	-9.22715
▁지적했다	-9.22901
▁아주	-9.2292
주의	-9.22966
▁의미	-9.22972
▁집에	-9.22986
▁분야	-9.23024
▁합의	-9.23193
기술	-9.23193
▁60	-9.23199
▁앞	-9.23258
▁말을	-9.23341
▁감독	-9.23413
▁선생님	-9.23422
▁강화	-9.23453
▁머리	-9.2356
B	-9.23588
▁주는	-9.23589
▁미래	-9.23611
>	-9.23765
▁주로	-9.23851
경제	-9.23913
▁반대	-9.24065
표	-9.24154
▁하기	-9.24178
▁이유는	-9.24225
▁마을	-9.24259
목	-9.24261
▁제재	-9.24284
달	-9.24304
했으며	-9.2432
▁내용이	-9.24603
▁채용	-9.24634
▁변	-9.24645
▁축제	-9.24667
▁적	-9.24714
▁팀	-9.24741
본	-9.24766
▁한반도	-9.24775
▁이들이	-9.24776
▁언제	-9.24782
▁사진을	-9.24924
▁수밖에	-9.24947
▁미리	-9.24967
▁나온	-9.24989
이라며	-9.25012
▁범위에서	-9.25119
▁김정은	-9.25122
▁도널드	-9.25162
평	-9.25292
▁가격이	-9.25636
▁인도	-9.25645
▁작성	-9.25675
▁크다	-9.25713
줄	-9.2572
▁위원장이	-9.25773
▁건가요	-9.25879
▁자기	-9.2588
정보	-9.25896
▁협상	-9.25904
▁창업	-9.25978
환경	-9.26
▁없다는	-9.26014
채	-9.26064
▁<	-9.26101
▁학생들이	-9.26157
▁200	-9.26222
▁없을	-9.26289
▁명의	-9.26311
▁상황이	-9.26425
▁좋아	-9.26505
▁아래	-9.26611
C	-9.26611
▁않습니다	-9.26617
▁운동	-9.26676
날	-9.26757
▁조선	-9.26759
▁주장	-9.26785
▁자신	-9.26795
▁밖에	-9.26878
▁촬영	-9.26915
▁조직	-9.26974
인지	-9.27071
▁프랑스	-9.27101
t	-9.27184
▁대출	-9.27186
버	-9.27268
▁자리	-9.27449
▁협의	-9.27468
▁아니	-9.27506
▁우려가	-9.27748
▁중에	-9.27807
▁팔	-9.27808
▁중앙	-9.27841
했는데	-9.27859
▁시험	-9.27873
▁때는	-9.27971
▁이번에	-9.28178
▁주장했다	-9.28314
키	-9.2833
▁공유	-9.28339
▁사전	-9.28347
기관	-9.28374
추	-9.28375
▁관련된	-9.28528
했을	-9.28627
▁입장을	-9.28645
별로	-9.28659
브	-9.28811
량	-9.28853
▁좋아하는	-9.28872
하지만	-9.28952
▁있으면	-9.29
▁요즘	-9.2901
▁도움	-9.29113
▁돈을	-9.29124
▁돼요	-9.29262
▁요구	-9.29272
▁내부	-9.29405
▁공장	-9.29523
▁점에서	-9.29527
지도	-9.29557
▁예술	-9.29672
되며	-9.2986
▁증가	-9.29923
▁사이	-9.29923
덕	-9.30127
▁조례는	-9.3015
▁이하	-9.30193
입	-9.30228
▁실	-9.30386
시장	-9.30397
송	-9.30472
▁피부	-9.30522
▁되면	-9.30552
▁불구하고	-9.30573
▁원인	-9.30603
처	-9.30604
▁처음으로	-9.30623
▁새로	-9.3094
▁한국어	-9.30972
▁활용	-9.31195
▁대한민국	-9.31278
음	-9.31454
▁교통	-9.31742
료	-9.31761
▁하나에	-9.31801
▁않도록	-9.31914
▁지도	-9.31926
울	-9.31932
▁도로	-9.31938
▁한국에서	-9.31999
기가	-9.32096
▁사실이	-9.32198
▁적용	-9.32276
▁경찰이	-9.32405
하기도	-9.32457
▁예상된다	-9.325
▁최저임금	-9.3251
이고	-9.32619
▁있을까요	-9.32676
북	-9.32795
▁우수	-9.32839
▁근무	-9.32856
▁효과가	-9.32899
▁구축	-9.32902
▁결혼	-9.33001
▁너는	-9.33031
▁천	-9.33044
▁학습	-9.33179
▁의사	-9.33335
▁아니다	-9.33384
곡	-9.33452
▁그대로	-9.33481
▁전망	-9.33487
▁포함한	-9.33569
범	-9.33688
로서	-9.33771
▁제출	-9.33797
변	-9.33824
▁권	-9.33935
▁보수	-9.33979
∼	-9.34025
▁개최	-9.34097
▁특정	-9.34149
▁싶은	-9.34202
▁단지	-9.34241
▁부과	-9.34247
▁육성	-9.34547
경기	-9.34554
▁싶어	-9.34588
▁어려움	-9.34598
▁것과	-9.34771
▁호텔	-9.34792
▁상승	-9.34851
▁방안을	-9.3502
▁못하고	-9.35027
▁2014	-9.35089
출	-9.35127
▁입	-9.35133
▁나서	-9.35143
암	-9.35226
▁안내	-9.35234
▁그것은	-9.35259
▁예상	-9.35321
▁병원	-9.35355
한다고	-9.35383
▁추천	-9.35394
▁홍	-9.35426
▁목표	-9.3544
▁만드는	-9.35525
▁않는다	-9.35536
이지만	-9.35579
인가요	-9.35625
▁기회를	-9.3563
성을	-9.35678
▁어린이	-9.35703
▁의해	-9.35729
▁사는	-9.35744
서를	-9.3593
▁우리의	-9.35982
M	-9.36222
▁지적이	-9.36339
년에	-9.36392
▁상대로	-9.36409
▁중이다	-9.36418
▁종합	-9.36509
▁교체	-9.36513
▁없었다	-9.36551
▁아무	-9.36668
▁교수	-9.36736
▁S	-9.36798
▁절차	-9.36902
▁선거	-9.3691
▁나와	-9.36977
▁2019	-9.37028
▁상태	-9.37035
▁시절	-9.37086
▁별	-9.37098
▁높다	-9.3715
▁책	-9.37317
▁현대	-9.37512
▁언론	-9.37516
▁자료	-9.3756
▁비판	-9.37609
▁되지	-9.3764
▁예방	-9.37647
▁대표가	-9.37739
▁아이	-9.37751
▁싶어요	-9.37778
▁맞는	-9.37824
▁강원도	-9.37869
▁여기에	-9.37908
▁영상	-9.37934
▁발표한	-9.37941
▁훈련	-9.38047
▁상황을	-9.38071
락	-9.38096
▁시민	-9.38232
▁덧붙였다	-9.38252
자는	-9.38315
▁그들은	-9.38318
’(	-9.3835
든	-9.3847
▁접수	-9.38525
▁모여	-9.38596
▁요	-9.38621
▁남성	-9.3867
▁만들	-9.38809
▁연장	-9.38942
▁되	-9.38949
▁정확한	-9.38969
▁제일	-9.39015
▁비용	-9.39019
▁장관	-9.39043
탄	-9.39093
립	-9.39123
▁얼마	-9.39249
망	-9.3926
▁이야기를	-9.39285
▁참	-9.39483
▁그냥	-9.39537
▁출신	-9.39573
▁참가	-9.39628
▁카	-9.39657
▁놓고	-9.3969
업체	-9.39743
e	-9.39764
▁전환	-9.39802
▁출시	-9.39845
결	-9.39859
▁진출	-9.39898
▁한국에	-9.39967
▁재정	-9.40032
세요	-9.40129
▁위해서	-9.40207
▁달러	-9.40223
▁담당	-9.40374
▁공격	-9.40382
▁보니	-9.40397
령	-9.40426
▁점이	-9.40437
▁커피	-9.40457
▁확산	-9.40501
▁중단	-9.40549
▁팬들	-9.40578
▁위치한	-9.40611
▁반도체	-9.40624
▁제한	-9.4066
▁소재	-9.40666
▁공부	-9.4078
▁감독이	-9.40819
▁은행	-9.40867
▁대규모	-9.40916
▁있었던	-9.40982
▁보이는	-9.41017
▁플랫폼	-9.41052
▁복지	-9.41065
▁유명	-9.41092
▁업무를	-9.41185
▁나오는	-9.41506
K	-9.41535
20	-9.41604
▁길	-9.41633
▁인식	-9.41663
▁택시	-9.41691
▁질	-9.41712
하고자	-9.41758
▁완화	-9.41819
▁낮은	-9.41851
▁운영하는	-9.41854
▁그러면	-9.41865
▁소비	-9.41878
▁배송	-9.41917
▁사실상	-9.41925
애	-9.4202
한국	-9.42154
▁더불어민주당	-9.42203
▁감소	-9.42243
▁소개	-9.42251
▁500	-9.42362
▁지역의	-9.42367
▁지금까지	-9.42421
▁힘을	-9.42439
▁전달	-9.42513
▁연속	-9.42543
▁당신에게	-9.42717
▁사용할	-9.42725
▁법인	-9.42774
▁수행	-9.42781
▁대표는	-9.42804
안전	-9.42867
▁사항은	-9.42894
▁것이에요	-9.43016
▁정부는	-9.43036
이자	-9.43055
▁조치를	-9.43178
▁오래	-9.43229
▁보여	-9.43341
▁정상	-9.43349
▁연결	-9.43483
▁민	-9.43529
주년	-9.43551
▁오히려	-9.43565
말	-9.4358
▁허	-9.43603
▁삼성	-9.43607
▁순	-9.43636
▁식사	-9.43756
▁가구	-9.43829
▁설계	-9.44071
▁찾는	-9.44077
됩니다	-9.44085
F	-9.4416
하려는	-9.44171
▁포	-9.44235
▁동의	-9.44235
▁작품	-9.44282
분기	-9.44401
▁자금	-9.44425
▁고객	-9.4453
▁위원은	-9.44541
▁강한	-9.44625
▁나에게	-9.44685
▁역	-9.44793
▁관계자	-9.44819
▁인간	-9.44845
▁뿐	-9.44908
▁제안	-9.44936
지를	-9.44941
팀	-9.44954
▁장소	-9.45
▁월	-9.45126
▁수도권	-9.45159
▁회복	-9.45171
대학교	-9.45293
원이	-9.45374
▁부담	-9.45379
왕	-9.45395
▁지속	-9.45402
&	-9.45562
▁되었다	-9.45585
▁외부	-9.45781
병원	-9.45792
▁최선	-9.45821
▁교류	-9.45834
▁보통	-9.45858
▁설	-9.45879
▁M	-9.45902
▁왔다	-9.45986
▁치료	-9.45988
▁무슨	-9.46039
까	-9.4606
▁실시	-9.46089
▁받지	-9.46113
▁잘못	-9.4622
워	-9.46256
▁홍콩	-9.46262
하세요	-9.4628
▁경찰에	-9.46321
▁겁니다	-9.46337
▁유통	-9.46426
죠	-9.46542
▁정상회담	-9.46586
▁앞에서	-9.46638
개발	-9.4666
▁했습니다	-9.4682
▁운영에	-9.46888
▁아침	-9.46944
작	-9.4696
▁전혀	-9.47011
기간	-9.47061
▁참여하는	-9.47075
서비스	-9.47104
대상	-9.47179
▁소비자	-9.47179
▁피해자	-9.4718
▁차례	-9.47192
▁검찰은	-9.47246
▁방식으로	-9.47257
▁사장	-9.47359
s	-9.47412
▁방침이다	-9.47414
▁앞에	-9.47425
▁문제는	-9.47488
▁긴급	-9.47519
▁상대	-9.47611
▁최초로	-9.47642
도시	-9.47731
▁나도	-9.47738
▁매일	-9.4785
▁상담	-9.47938
▁전기	-9.47957
조사	-9.4804
곳	-9.48187
편	-9.48236
졌다	-9.48298
숙	-9.48448
▁후에	-9.48493
▁확보	-9.48559
▁병	-9.48717
▁이해	-9.48723
▁사용하는	-9.48757
▁쉽지	-9.48829
▁걱정	-9.48876
▁시스템	-9.48942
▁맛	-9.48992
되기	-9.49002
▁기획	-9.49055
▁감	-9.49091
▁상황	-9.49127
▁보였다	-9.49174
▁규모의	-9.49187
▁가입	-9.49191
▁치	-9.49213
▁범죄	-9.49221
▁넘어	-9.49232
▁전부	-9.49265
▁열심히	-9.49421
으로서	-9.49652
▁젊은	-9.49674
▁추	-9.49697
▁가서	-9.49782
▁술	-9.49909
▁300	-9.50034
▁담긴	-9.50093
년까지	-9.50105
▁생각이	-9.50172
▁TV	-9.50175
▁교회	-9.50228
함을	-9.50231
▁피해를	-9.5024
풍	-9.50271
/	-9.50296
▁사람을	-9.50394
▁하여야	-9.50409
▁눈에	-9.50445
▁기회가	-9.50498
▁바란다	-9.50508
▁여부를	-9.50547
윤	-9.50558
▁위원회의	-9.50604
▁민주당	-9.50611
▁북한이	-9.50657
정책	-9.50666
▁의료	-9.50743
▁반드시	-9.50755
▁스포츠	-9.50757
너	-9.50896
투	-9.50935
▁2013	-9.50944
▁G	-9.50945
▁하락	-9.50967
▁있지	-9.50998
▁바탕으로	-9.51018
운영	-9.51061
▁노동	-9.51089
▁축구	-9.51108
▁변호사	-9.51163
▁것처럼	-9.51288
▁포함	-9.51296
▁경남	-9.513
▁대통령과	-9.51304
▁곧	-9.51343
▁적극적으로	-9.5139
하겠습니다	-9.51399
▁없다고	-9.51421
▁빠르게	-9.51463
▁눈길	-9.51467
▁경북	-9.51555
협의회	-9.51556
뿐	-9.51571
▁마련	-9.51573
▁없고	-9.51585
30	-9.51625
▁코	-9.51694
▁가능합니다	-9.51738
▁준	-9.51788
▁정하는	-9.51838
▁주제로	-9.51846
▁마음을	-9.51908
▁지속적으로	-9.51915
▁못하는	-9.52061
대가	-9.52142
삼	-9.52148
▁하나요	-9.52157
볼	-9.52179
▁블록체인	-9.52206
▁했어요	-9.52241
▁사무	-9.52338
▁포장	-9.52471
▁목	-9.52504
퍼	-9.52627
P	-9.52695
▁노인	-9.52714
o	-9.52862
▁둘	-9.52863
보다는	-9.52903
▁성적	-9.5291
▁대응	-9.5304
▁맞춰	-9.53133
▁자리를	-9.53147
▁보도	-9.53425
▁낸	-9.53533
권을	-9.53545
▁측은	-9.53569
▁자료를	-9.53586
대학	-9.53603
▁연락	-9.5372
L	-9.53751
▁직무	-9.5387
하려고	-9.53894
▁가정	-9.53898
▁경험이	-9.53917
▁곳	-9.54007
다면	-9.54043
▁70	-9.54049
씩	-9.54092
▁사이에	-9.54151
링	-9.54181
▁수가	-9.54185
주는	-9.54196
▁말고	-9.54288
▁갈등	-9.54327
조원	-9.54341
▁계산	-9.54346
▁의장	-9.54368
스트	-9.54377
대표	-9.54379
▁만약	-9.54493
▁셈이	-9.54603
사회	-9.54604
▁사용자	-9.54613
품	-9.54675
▁고민	-9.54778
▁인	-9.54809
▁시장이	-9.54833
▁허가	-9.54834
▁연간	-9.54887
액	-9.54945
▁역사	-9.54971
훈	-9.54996
▁먹고	-9.5501
평가	-9.55065
▁아동	-9.55066
▁프로그램을	-9.55149
▁본다	-9.55212
▁모델	-9.55293
▁위탁	-9.55342
▁대전	-9.55375
▁때까지	-9.55522
▁전날	-9.5553
▁이들은	-9.55556
▁장비	-9.55663
▁오늘은	-9.55677
▁선물	-9.55693
▁씨	-9.55798
찬	-9.56027
▁그러나	-9.56133
▁평화	-9.56153
▁그들	-9.56316
▁토	-9.56356
공원	-9.564
였던	-9.56416
회의	-9.56554
학년	-9.56557
▁경쟁력	-9.56577
공사	-9.56615
▁최고의	-9.56662
▁배달	-9.56709
▁데이터	-9.56931
협회	-9.56942
▁기준으로	-9.5699
▁제출하여야	-9.5703
▁이내에	-9.57118
▁판단	-9.57153
▁요리	-9.57178
▁청	-9.57326
▁이상이	-9.57378
예요	-9.57391
▁조치	-9.57413
▁않으면	-9.57422
▁보장	-9.57427
▁위원회	-9.57492
▁자녀	-9.57532
▁중국의	-9.57663
향	-9.57705
▁사랑	-9.57868
릴	-9.57869
▁안에서	-9.57909
명으로	-9.57917
투자	-9.57974
▁차이가	-9.58034
▁하다	-9.58042
▁지역에	-9.58297
▁저희가	-9.58308
▁위치	-9.58313
언	-9.58324
▁건축	-9.58348
▁위에	-9.58389
▁이것	-9.58396
▁라	-9.585
▁컴퓨터	-9.58531
뿐만	-9.58617
▁금리	-9.58797
▁빠른	-9.588
▁2012	-9.58847
려고	-9.58924
월에	-9.58946
▁대해서	-9.59063
▁협조	-9.59092
▁여름	-9.59174
▁거리	-9.5925
▁추가로	-9.59267
▁즐길	-9.59268
▁개정	-9.59285
▁밝힌	-9.59423
▁지적	-9.59429
▁대만	-9.59436
▁시도	-9.5946
▁도전	-9.59466
▁이란	-9.5947
▁소리	-9.59547
하겠다는	-9.59704
▁당신을	-9.59712
▁시작했다	-9.59787
▁일단	-9.59845
시부터	-9.59861
지구	-9.59872
▁혼자	-9.59896
▁전문가들	-9.59914
했으나	-9.59919
▁보안	-9.59928
▁속에서	-9.59944
▁모바일	-9.5995
▁엄마	-9.59957
은행	-9.60036
▁여기서	-9.60154
▁국	-9.60215
거리	-9.60244
▁끝난	-9.60254
▁지원하는	-9.60307
▁승리	-9.60391
▁노래	-9.60439
사를	-9.60505
▁못했다	-9.60568
담	-9.60688
▁제공하는	-9.60724
▁사람들은	-9.60772
▁부족	-9.60796
▁미국이	-9.60846
마을	-9.60873
▁유치원	-9.609
▁화제	-9.60971
▁표현	-9.60973
▁의지	-9.6099
▁물건	-9.61126
▁운전	-9.61176
▁있다면	-9.61289
▁겸	-9.6134
▁나를	-9.61356
함에	-9.61477
니까	-9.61512
▁방문해	-9.61546
▁원내대표	-9.61567
▁직업	-9.61641
▁디지털	-9.61732
11	-9.61765
골	-9.61822
▁크기	-9.61888
총	-9.61889
▁의견	-9.61922
▁임명	-9.62094
▁SNS	-9.62116
▁사고가	-9.62153
▁북한의	-9.62206
▁유치	-9.62242
▁이름을	-9.62268
▁D	-9.62282
▁가야	-9.62289
▁최대한	-9.62298
▁그녀	-9.62329
수가	-9.62339
▁훨씬	-9.62355
▁아버지	-9.62416
▁임금	-9.62456
▁독립	-9.62456
▁통과	-9.62493
▁전해졌다	-9.62544
▁지지	-9.6263
▁암	-9.62654
시에	-9.62691
계획	-9.6272
▁북미	-9.62858
▁노조	-9.63053
▁충분히	-9.63123
▁지금은	-9.6314
▁참여한	-9.63213
▁창출	-9.63231
자를	-9.63239
▁뭐	-9.6324
▁잠	-9.63266
▁이와	-9.63322
▁완료	-9.63385
▁표	-9.635
▁확정	-9.63557
▁고려	-9.63736
▁비가	-9.63757
업무	-9.63759
▁매장	-9.63819
▁업계	-9.63873
▁인도네시아	-9.63886
▁많아	-9.63888
▁이행	-9.63916
▁교수는	-9.63953
▁순간	-9.64034
▁낮	-9.64093
▁늘	-9.64144
▁자유	-9.64196
축	-9.64315
▁싱가포르	-9.64379
▁통	-9.64397
▁가까운	-9.64442
▁회장이	-9.64487
▁국방부	-9.64552
▁배출	-9.64604
▁등은	-9.64608
분의	-9.64631
▁SK	-9.64762
▁기업의	-9.6477
▁많았다	-9.64794
▁발굴	-9.64815
T	-9.64818
이번	-9.64834
필	-9.6484
책	-9.64875
▁발견	-9.64884
▁다소	-9.64996
▁들고	-9.65029
▁이용할	-9.65029
▁보이고	-9.65072
▁입장	-9.65085
있는	-9.65092
▁길이	-9.65111
▁행사를	-9.65281
▁돈	-9.65323
갈	-9.65345
▁외국	-9.65357
▁만들기	-9.65399
▁의하여	-9.65412
▁열고	-9.65439
▁될까요	-9.65459
▁시작한	-9.65468
▁과정을	-9.65542
▁딸	-9.65586
▁귀	-9.65603
라도	-9.65606
독	-9.65606
▁LG	-9.65611
▁위기	-9.65687
▁혐의를	-9.65705
▁계기	-9.65793
▁아름다운	-9.65794
▁세대	-9.65798
▁나올	-9.65849
▁용	-9.65888
함	-9.65894
▁호주	-9.65915
▁교환	-9.6596
탈	-9.65978
▁이용해	-9.66021
▁위촉	-9.66026
▁물품	-9.6604
▁주민들	-9.66069
▁인기가	-9.66088
▁통일	-9.66119
▁시장에서	-9.66254
▁교육을	-9.66334
▁석	-9.66358
▁정비	-9.66369
▁했지만	-9.66378
▁있습니까	-9.66405
▁하여	-9.66484
▁프로젝트	-9.66503
▁총리	-9.66529
▁수정	-9.66529
▁판	-9.66558
▁돌	-9.66616
▁의미가	-9.66699
주택	-9.66748
▁통신	-9.66772
▁나머지	-9.66776
활동	-9.66777
▁질문	-9.66829
▁결과가	-9.66883
▁P	-9.66889
▁속에	-9.6691
테	-9.66948
▁기대된다	-9.66952
▁수요	-9.67
씨의	-9.67099
▁벌	-9.67114
막	-9.67178
▁비슷한	-9.67186
▁소득	-9.67235
▁때마다	-9.67242
▁관세	-9.67259
▁서울시	-9.67278
▁스타	-9.67342
▁예정	-9.67408
▁어디	-9.67438
▁책임	-9.67531
었습니다	-9.67543
▁실적	-9.67545
▁마무리	-9.6756
▁꾸준히	-9.67571
옥	-9.67595
운동	-9.67798
▁날씨	-9.67876
생활	-9.67929
▁환자	-9.67939
▁소통	-9.67971
▁극	-9.67991
년대	-9.68096
▁미국과	-9.68107
▁개혁	-9.68169
▁답변	-9.6818
▁부분이	-9.68193
▁폭행	-9.6823
▁생각합니다	-9.68253
▁제품은	-9.6826
▁않아요	-9.68278
런	-9.68356
▁참석	-9.68375
7%	-9.68402
▁사건이	-9.68519
▁열어	-9.6857
▁사망	-9.68582
▁대기	-9.68696
▁참석했다	-9.68782
▁장기	-9.68792
충	-9.68792
▁기억	-9.68814
교회	-9.68854
▁하겠습니다	-9.6886
▁속도	-9.68944
상을	-9.69021
▁먹을	-9.69133
▁한국당	-9.69189
▁발급	-9.69197
시키는	-9.69224
▁징계	-9.69251
▁공모	-9.69397
▁중심	-9.69442
▁뉴욕	-9.69527
▁있었습니다	-9.69648
▁가고	-9.69712
겠습니다	-9.69713
▁분석이	-9.6977
▁남아	-9.69786
▁장관이	-9.69878
홍	-9.69897
▁부탁드립니다	-9.69912
▁표시	-9.6994
▁주말	-9.69999
스타	-9.70017
▁먹는	-9.70026
메	-9.70028
▁몸	-9.70057
▁검찰이	-9.70075
▁잔	-9.70114
▁확장	-9.70121
▁매출	-9.70315
▁신경	-9.70323
▁평가를	-9.70329
▁이달	-9.70397
▁종	-9.70451
▁전자	-9.70546
▁기금	-9.70578
▁유명한	-9.70597
▁나선	-9.706
▁캐나다	-9.70628
▁의혹	-9.70663
금융	-9.70748
8%	-9.70781
시까지	-9.70783
처리	-9.70806
회사	-9.70823
▁왕	-9.70833
▁마음이	-9.70835
▁제품이	-9.70923
라며	-9.70967
염	-9.71011
▁가능성	-9.71021
▁듯	-9.71037
▁부서	-9.71042
▁신뢰	-9.71056
▁보기	-9.71119
▁핵	-9.71126
▁상황이다	-9.71151
▁부위원장	-9.7126
자의	-9.71284
▁계획을	-9.71301
▁규정함을	-9.71327
▁시행령	-9.71378
▁체결	-9.71404
기에	-9.7141
▁사과	-9.71417
▁나오고	-9.71421
함으로써	-9.71493
▁기술을	-9.71625
그룹	-9.71662
시켜	-9.71679
▁효과를	-9.71697
▁말이	-9.71735
▁전남	-9.71749
▁무역	-9.71758
▁무료	-9.71762
▁등에서	-9.71861
▁직	-9.71879
▁이건	-9.71881
임을	-9.71917
▁친	-9.71951
▁행사가	-9.72012
▁강남	-9.72077
▁부문	-9.72081
▁확인할	-9.72132
y	-9.72222
손	-9.72248
▁참석해	-9.72338
50	-9.72369
칠	-9.72379
만명	-9.72415
▁반면	-9.72429
▁때문입니다	-9.72431
▁마케팅	-9.72496
주세요	-9.72536
하겠다	-9.72547
▁현금	-9.72627
기준	-9.72673
▁교	-9.72697
▁내에서	-9.7271
▁여야	-9.72728
▁들어가	-9.72736
▁청구	-9.72747
▁집에서	-9.72923
▁제조	-9.72927
▁위원장	-9.72963
▁압박	-9.72989
▁광	-9.72999
▁죽	-9.73079
▁정책을	-9.73185
▁키	-9.73214
세대	-9.73221
▁보상	-9.73283
▁진행된	-9.73293
▁동영상	-9.73294
▁대법원	-9.73299
▁아니냐	-9.73317
▁쓰	-9.73326
▁가능	-9.73424
▁보관	-9.73459
▁아이들	-9.73473
▁즉시	-9.73475
▁팬	-9.73497
▁책을	-9.73535
겠다	-9.73545
에게는	-9.73564
가요	-9.73583
됐고	-9.736
▁주차	-9.7363
▁기능	-9.73658
▁망	-9.7372
▁폐지	-9.73726
▁좋다	-9.73743
▁기대하고	-9.73754
▁답	-9.73858
▁기초	-9.73872
▁강남구	-9.73961
▁근거	-9.7402
▁금지	-9.74079
▁후보	-9.741
▁전략	-9.74109
▁자체가	-9.7412
▁별표	-9.74166
▁있어야	-9.74186
▁인증	-9.74188
들도	-9.74246
▁구청장에게	-9.74258
▁열린다	-9.74286
▁했던	-9.74304
▁밥	-9.74305
▁막	-9.7434
▁멤버	-9.74366
▁수수료	-9.74373
▁이용자	-9.74386
▁의견이	-9.74396
▁센터	-9.74404
▁처벌	-9.74465
자로	-9.7448
▁갑자기	-9.74578
월까지	-9.74599
▁행복	-9.74612
▁형성	-9.74622
억원을	-9.7464
해주세요	-9.74669
▁주고	-9.74681
▁멕시코	-9.74747
12	-9.74756
▁수요가	-9.74777
년이	-9.74893
▁허용	-9.74909
▁생각한다	-9.74961
a	-9.75086
▁교육감	-9.75102
▁부인	-9.75141
츠	-9.75234
▁회원	-9.75301
하신	-9.75339
▁무엇보다	-9.75428
▁사업에	-9.75455
▁이유	-9.75546
비를	-9.75581
▁현실	-9.75595
▁했는데	-9.75608
▁방안	-9.75718
기로	-9.75747
▁지자체	-9.75864
▁사업이	-9.75916
▁의혹을	-9.75926
▁걸쳐	-9.75946
▁운행	-9.75946
▁남은	-9.75955
▁전용	-9.75982
▁상대적으로	-9.76063
▁입고	-9.76074
▁대책	-9.7608
▁사건을	-9.76116
개국	-9.76145
▁징수	-9.7622
▁회담	-9.76225
▁기반	-9.76234
▁진입	-9.76268
▁사항	-9.7628
▁작가	-9.76375
▁응	-9.7642
▁위험	-9.76426
션	-9.76431
점을	-9.76535
▁집행	-9.76577
▁구성된	-9.76586
▁상당	-9.76586
이었던	-9.76589
4%	-9.76611
▁제주도	-9.76625
▁가능한가요	-9.76634
▁고객님	-9.76689
▁비행기	-9.76791
▁처음이다	-9.76793
▁바른미래당	-9.76794
▁메뉴	-9.76804
▁지역에서	-9.76859
▁장은	-9.76941
W	-9.76991
▁감사합니다	-9.77011
▁삶의	-9.77056
▁관하여	-9.77151
▁발생하는	-9.7717
▁꽃	-9.77176
▁공공기관	-9.77187
15	-9.77209
▁맞	-9.77217
▁기계	-9.77243
▁스마트	-9.77388
자들이	-9.77433
▁혐의	-9.7745
▁공간	-9.7746
▁참여해	-9.77471
패	-9.77486
▁범위	-9.77491
자에게	-9.77495
▁현장에서	-9.77542
라면	-9.77543
▁적은	-9.77714
▁민원	-9.77814
▁재난	-9.77823
▁레	-9.77881
▁인정	-9.77887
▁직후	-9.77917
▁통화	-9.77937
▁종료	-9.78006
새	-9.78007
▁구속	-9.78062
호에	-9.78079
촌	-9.78089
▁전력	-9.78092
▁공개된	-9.78122
▁가치	-9.78147
▁후반	-9.78171
▁듣고	-9.78178
▁희망	-9.78255
▁한국인	-9.78331
▁커지고	-9.78444
▁길을	-9.78491
만큼	-9.78518
▁내에	-9.78556
▁시장에	-9.78614
극	-9.78709
▁곳에	-9.78784
사진	-9.78825
택	-9.78826
▁씨가	-9.78851
▁대로	-9.78896
▁이들의	-9.78944
▁승인	-9.78955
▁초기	-9.78972
▁따른다	-9.79008
돌	-9.79035
▁양국	-9.79117
▁우승	-9.79124
▁동물	-9.79133
▁사상	-9.79139
▁납부	-9.79159
▁옷	-9.79161
▁기대한다	-9.79162
농	-9.79183
행정	-9.79226
▁입주	-9.79245
▁운용	-9.79277
▁존재	-9.79317
▁앨범	-9.79329
▁부족한	-9.79381
▁정리	-9.79462
서울특별시	-9.79594
가지	-9.79614
단지	-9.79702
▁일부를	-9.79728
▁지하철	-9.79747
▁수준	-9.7975
균	-9.79797
▁인력	-9.79808
▁드러났다	-9.79869
황	-9.79982
▁손을	-9.80121
학과	-9.80123
▁대체	-9.80135
▁평양	-9.8019
▁살고	-9.80221
i	-9.80317
달러	-9.80317
방송	-9.80357
▁하면서	-9.8041
▁인수	-9.80428
▁수용	-9.80462
▁농업	-9.80607
▁그들이	-9.80624
▁협약	-9.8065
▁평	-9.80698
▁알게	-9.80731
▁구체적인	-9.80779
▁홈페이지	-9.80784
▁진행된다	-9.80797
▁높이	-9.80853
▁주가	-9.80913
▁가방	-9.80965
▁저에게	-9.80995
▁암호화폐	-9.81028
효	-9.81028
▁출연	-9.8107
▁요금	-9.81087
▁자전거	-9.81176
▁기타	-9.81202
▁악화	-9.81228
▁기록했다	-9.81229
▁식품	-9.81284
▁출장	-9.81295
해온	-9.81299
▁오랜	-9.81309
▁메일	-9.81319
▁완전히	-9.81339
▁사례	-9.81362
▁소송	-9.81367
▁뉴스	-9.81388
14	-9.81402
▁모두가	-9.81444
▁새롭게	-9.81447
시면	-9.81496
▁관	-9.81516
제를	-9.81561
국가	-9.81588
했기	-9.81594
성과	-9.8163
▁건립	-9.81648
▁김씨	-9.81668
▁투표	-9.81681
▁발생했다	-9.81799
▁피해가	-9.8183
▁일찍	-9.81833
▁이어질	-9.81915
N	-9.81919
▁모집	-9.81926
▁디	-9.81931
▁힘든	-9.81937
▁종목	-9.81979
▁카페	-9.82005
▁자산	-9.82011
▁서류	-9.8203
▁의심	-9.8206
▁논란	-9.82063
▁보험	-9.8209
▁도서관	-9.82094
▁시작된	-9.82111
▁갖춘	-9.82216
▁수상	-9.82239
▁야	-9.82276
▁긴	-9.8237
▁수사를	-9.82405
알	-9.82434
세기	-9.82445
▁포인트	-9.82473
▁이벤트	-9.82577
빈	-9.82688
▁환불	-9.82689
▁그때	-9.82753
▁수많은	-9.82975
▁받아야	-9.83001
▁2010	-9.83001
▁뜻을	-9.83076
▁캐릭터	-9.83078
▁좋지	-9.83084
감독	-9.83109
▁일제	-9.83131
13	-9.83342
▁2000	-9.83355
▁연출	-9.83439
▁스페인	-9.83449
▁도착	-9.83491
▁구분	-9.83526
▁지구	-9.8356
▁담은	-9.83581
▁대표적인	-9.83583
분쯤	-9.83621
▁화장품	-9.83634
겠다는	-9.83641
▁품질	-9.83681
▁인권	-9.83701
R	-9.83741
▁80	-9.83761
이기	-9.83822
되	-9.83824
▁만한	-9.83834
▁확인됐다	-9.83842
▁삶을	-9.83849
▁철도	-9.83887
시스템	-9.8392
정부	-9.83985
▁분위기	-9.83991
▁브라질	-9.84021
▁자문	-9.84029
▁정한	-9.84046
님	-9.84048
▁2011	-9.84079
▁롯데	-9.84119
▁전면	-9.84158
위에	-9.84168
▁공연을	-9.8417
▁노동자	-9.842
▁겨울	-9.84243
Pop	-9.84272
▁예측	-9.84278
▁점점	-9.8431
▁개편	-9.84343
제도	-9.84464
▁둔	-9.8453
▁비용을	-9.84587
▁발행	-9.84593
▁태국	-9.84618
▁R	-9.84684
▁불러	-9.84712
▁쓴	-9.84861
▁향해	-9.84917
▁기능을	-9.84962
니다	-9.84968
▁있을지	-9.84971
▁누가	-9.85016
▁우수한	-9.85037
▁오픈	-9.85075
▁T	-9.85136
▁이유가	-9.85142
▁누구나	-9.85156
았다	-9.85181
커	-9.85185
▁가면	-9.85225
▁토지	-9.85256
▁부품	-9.85314
▁추진하는	-9.85327
욱	-9.85344
▁원활	-9.85377
▁지급할	-9.85389
▁이거	-9.854
▁어린이집	-9.85441
연구	-9.8546
▁가게	-9.85506
친	-9.85525
▁성인	-9.85574
▁F	-9.85625
▁그린	-9.85627
▁생	-9.8563
▁알려진	-9.8566
▁어렵다	-9.85686
▁터키	-9.85687
▁후원	-9.85745
력이	-9.85779
▁가까이	-9.85834
▁아내	-9.85843
:	-9.85876
▁수술	-9.85914
g	-9.85935
왔다	-9.85984
▁전쟁	-9.86028
▁시군	-9.86101
▁조건	-9.86113
▁국내외	-9.86146
▁과학	-9.86212
▁책임을	-9.86312
력을	-9.86321
▁한편	-9.86353
▁관련한	-9.86378
되었습니다	-9.86473
▁생각을	-9.86475
▁설정	-9.86489
9%	-9.8649
걸	-9.86532
분야	-9.86567
▁참여할	-9.86575
위원	-9.86593
▁인터뷰	-9.86598
건설	-9.8662
격	-9.86654
▁당장	-9.86663
▁특징이다	-9.86666
돈	-9.8668
▁집단	-9.867
▁그래도	-9.86701
하겠다고	-9.86731
▁대변인	-9.86751
시킬	-9.86868
▁미디어	-9.8705
들에	-9.87059
▁만난	-9.87071
▁배치	-9.87168
▁전북	-9.87193
▁주민들이	-9.87246
하시면	-9.87246
▁중요하다	-9.87251
▁최소	-9.87265
▁실현	-9.87281
▁주거	-9.87322
▁국회의원	-9.87426
▁중국이	-9.87434
▁인프라	-9.87447
▁끝에	-9.87469
▁기부	-9.8747
▁주장이	-9.87483
▁수원	-9.87519
▁점이다	-9.87532
▁있	-9.87545
▁중요	-9.87585
▁필요하다는	-9.87594
▁초청	-9.87662
▁아니면	-9.87698
▁언어	-9.87783
완	-9.87792
▁한국과	-9.87851
▁숨	-9.87977
었던	-9.87986
대를	-9.88062
▁확인해	-9.88109
협력	-9.88121
제품	-9.88124
▁전까지	-9.88221
▁문의	-9.88231
▁시대	-9.88242
▁투	-9.88253
악	-9.88263
쯤	-9.8834
▁대기업	-9.8834
▁재판	-9.88357
▁따	-9.88379
▁제외한	-9.88381
▁판결	-9.88388
▁발표했다	-9.88396
X	-9.88417
▁가능성을	-9.88455
▁만날	-9.88486
▁보급	-9.88497
술	-9.88551
▁친환경	-9.88649
▁와서	-9.88898
▁의혹이	-9.88933
▁취지	-9.88934
▁싶은데	-9.88962
만원을	-9.88964
▁노력하여야	-9.88999
▁원래	-9.89015
▁청소	-9.89019
▁장관은	-9.89079
서는	-9.89107
▁강원	-9.89117
▁경기도와	-9.89151
▁선수들이	-9.89151
▁샘플	-9.89181
▁유엔	-9.89183
▁혹은	-9.89196
▁부담이	-9.89201
▁원장	-9.89219
▁깊은	-9.89231
▁그런데	-9.89248
합	-9.89293
해도	-9.89312
▁그림	-9.89355
▁미술	-9.89395
▁교사	-9.89523
▁만들고	-9.89528
자금	-9.89542
경기도	-9.89557
▁공항	-9.89558
▁살아	-9.89625
▁일상	-9.89642
▁지시	-9.89669
▁글	-9.89715
▁열렸다	-9.89818
▁상황에	-9.89842
하되	-9.89848
▁신문	-9.89849
족	-9.89859
▁나선다	-9.89879
▁상반기	-9.89887
지고	-9.89894
▁H	-9.89934
▁월드컵	-9.89954
▁환	-9.89959
까요	-9.90001
3%	-9.90046
▁방법을	-9.90082
▁분양	-9.90082
▁그간	-9.90141
보험	-9.90194
▁제시	-9.90242
▁주의	-9.90416
▁이름	-9.90474
▁평소	-9.90565
에요	-9.90605
▁고등학교	-9.90657
▁수집	-9.90666
▁지하	-9.9067
▁되었습니다	-9.90791
▁말씀	-9.90792
대회	-9.90813
▁국립	-9.90816
6%	-9.90825
곤	-9.90845
▁알려져	-9.90879
▁좋을	-9.90892
▁발생할	-9.90922
▁외에	-9.90928
▁콘서트	-9.90936
▁면	-9.90948
▁정한다	-9.90956
▁분야에서	-9.90981
▁창	-9.90982
▁강력한	-9.91017
▁같은데	-9.91022
▁공원	-9.91055
▁식	-9.91082
▁다수	-9.9112
▁보유한	-9.91125
▁인천광역시	-9.91128
▁상호	-9.9116
▁내려	-9.91163
▁여행을	-9.91205
▁응원	-9.91301
▁마치	-9.91302
기는	-9.91351
혜	-9.91368
▁알려	-9.91448
▁파일	-9.91449
▁반복	-9.91461
글	-9.91472
▁겪고	-9.91487
▁김문수	-9.91487
한테	-9.91514
▁나갈	-9.91548
▁구입	-9.91566
▁선수들	-9.91713
하였습니다	-9.91737
▁불이	-9.91768
렌	-9.91793
버스	-9.91818
▁따뜻한	-9.91837
▁적극적인	-9.91843
가구	-9.91926
▁0	-9.91974
▁등과	-9.92107
구조	-9.9211
▁행사는	-9.92115
▁클럽	-9.92171
▁주식	-9.92233
▁육	-9.92236
▁것인지	-9.92261
▁활약	-9.9229
▁포함된	-9.92314
▁담	-9.92317
▁측정	-9.92355
익	-9.92443
▁태풍	-9.92473
율	-9.92529
▁풀	-9.92585
육	-9.92631
▁기자회견	-9.92633
▁버	-9.92641
▁먹	-9.92671
▁변화가	-9.92671
▁꿈	-9.92709
▁기회	-9.92725
▁패션	-9.92741
▁포함해	-9.92805
▁직장	-9.92826
▁‘2018	-9.92854
▁선언	-9.92907
구역	-9.92957
▁시작으로	-9.92979
없이	-9.92982
▁출발	-9.92999
▁자원	-9.93012
록	-9.93022
▁반환	-9.93024
▁오른	-9.93072
▁네트워크	-9.93079
▁특수	-9.93089
▁기념	-9.93119
▁비중이	-9.93121
하려면	-9.9314
▁페이스북	-9.93149
▁단계	-9.9315
▁진술	-9.93151
▁이곳	-9.93158
관광	-9.93174
▁본인	-9.93238
▁연계	-9.93286
▁울산	-9.93293
▁느낄	-9.93363
▁통계	-9.93368
예술	-9.93407
▁보낸	-9.93429
19	-9.93442
▁못해	-9.93446
▁넘	-9.93459
▁새벽	-9.93518
▁의결	-9.9353
2%	-9.93602
단계	-9.93628
▁연구원	-9.93629
▁개의	-9.93641
▁가득	-9.9366
▁일대	-9.937
▁작년	-9.93707
40	-9.93752
▁보완	-9.93775
▁단속	-9.93796
▁밀	-9.9384
▁통제	-9.93861
▁폼페이오	-9.93896
밖에	-9.93899
▁역량	-9.93949
▁절대	-9.9395
▁부모	-9.93957
▁뜨거운	-9.94069
▁아이들이	-9.94071
▁법안	-9.94074
▁사전에	-9.9408
▁면접	-9.94117
▁정치적	-9.94141
▁국토교통부	-9.94158
스러운	-9.94213
관련	-9.94265
▁심의를	-9.94265
▁경제적	-9.94291
▁완성	-9.94292
낸	-9.94334
▁쓸	-9.9434
▁번역	-9.94373
▁해제	-9.94425
▁재판부	-9.9445
▁보존	-9.94452
읍	-9.94499
16	-9.94528
렸다	-9.94632
받은	-9.94669
갑	-9.94742
▁교육부	-9.94766
▁비상	-9.94836
▁개별	-9.94838
▁나무	-9.94853
연구원	-9.94982
▁시기	-9.94997
▁가을	-9.95029
▁양성	-9.95053
▁섬	-9.95065
▁신설	-9.95115
▁기업들	-9.95132
▁주차장	-9.95136
▁시각	-9.95196
▁어린	-9.9523
명과	-9.95236
▁시간에	-9.9524
▁절	-9.95241
▁심각한	-9.95242
▁출석	-9.95292
▁복	-9.953
▁2009	-9.95314
▁주목된다	-9.9534
▁봄	-9.95349
밀	-9.9535
▁사랑을	-9.95359
▁있음을	-9.95417
조차	-9.9551
▁절반	-9.95533
▁높아	-9.95553
H	-9.9559
▁항공	-9.95622
▁프로	-9.95626
▁반영	-9.95635
▁안정	-9.9571
공무원	-9.9571
팅	-9.95787
▁패	-9.95825
▁누구	-9.95986
▁합	-9.95992
▁위로	-9.96033
▁검증	-9.9604
▁잡	-9.96053
▁채널	-9.96094
▁지나	-9.96114
▁난민	-9.96171
▁활용해	-9.96175
▁글을	-9.96215
▁정착	-9.96246
▁E	-9.96248
▁인정하는	-9.96256
한다면	-9.96272
▁대해서도	-9.96298
▁증거	-9.96339
▁장면	-9.96349
▁보조	-9.96352
▁전공	-9.96383
▁무대	-9.96396
이랑	-9.96417
▁끝	-9.96551
일간	-9.96555
▁뜻	-9.96573
같은	-9.96628
▁얼굴	-9.96663
▁문제로	-9.96733
▁곡	-9.96747
▁발송	-9.968
▁당일	-9.96807
▁실험	-9.96816
▁진짜	-9.96837
▁빈	-9.96902
▁방법	-9.96914
▁아이디어	-9.9692
▁문건	-9.96967
▁여부	-9.97032
U	-9.97044
▁음료	-9.97049
▁시민들이	-9.97106
▁35	-9.97121
▁싶다	-9.97152
▁도심	-9.97167
l	-9.97263
하실	-9.97272
▁관람	-9.97352
▁지역사회	-9.97395
▁기도	-9.9741
▁카메라	-9.97424
▁주소	-9.97429
▁마음	-9.97457
「	-9.9747
쳐	-9.9749
▁선임	-9.97502
일에는	-9.97549
개소	-9.97566
▁운영을	-9.9759
▁향상	-9.97625
축제	-9.9767
▁고객이	-9.97728
▁부상	-9.97744
존	-9.97789
▁출전	-9.97802
▁가동	-9.97816
▁없어서	-9.97822
▁감독은	-9.9784
▁투입	-9.97864
▁행동	-9.97873
신청	-9.97914
▁공정	-9.97925
됐지만	-9.97997
▁시장의	-9.98031
▁맞춤형	-9.98053
▁이사	-9.98097
▁늘고	-9.98102
▁당부했다	-9.98109
적이고	-9.98113
기구	-9.98135
됐던	-9.98148
▁곳은	-9.98227
이라도	-9.98229
▁스타트업	-9.98346
▁입학	-9.98353
p	-9.98371
지방	-9.98394
▁쓰는	-9.98402
▁분석했다	-9.9842
▁이사장	-9.98481
▁우리에게	-9.98506
비가	-9.98527
▁부정적	-9.98537
▁대북	-9.9854
▁향	-9.98552
▁쪽	-9.98597
▁커	-9.98626
▁해석	-9.98655
▁실패	-9.98709
▁상장	-9.98761
▁문화를	-9.98765
거래	-9.98795
움	-9.98831
도로	-9.98842
복지	-9.98903
▁근로자	-9.98916
▁무엇을	-9.98927
▁하게	-9.98936
▁공연이	-9.98967
▁일은	-9.98997
▁후보자	-9.99022
▁확인하고	-9.99112
▁실천	-9.99113
발전	-9.9917
▁재개	-9.99175
▁골	-9.99287
▁들었다	-9.9931
▁사업은	-9.99327
▁실무	-9.99351
▁넣어	-9.99377
▁범행	-9.99382
▁고려해	-9.99434
▁사례가	-9.9944
섭	-9.9947
▁폐	-9.99511
▁차원에서	-9.99521
▁그것이	-9.99526
▁바람	-9.99547
▁철	-9.9958
▁올라	-9.99596
▁나가	-9.99639
베	-9.99647
착	-9.99677
▁통보	-9.99729
위원장	-9.99747
▁안건	-9.99777
여개	-9.99814
▁미만	-9.99902
mm	-9.99908
이면	-9.99981
▁부부	-10.0004
▁계기로	-10.0004
▁기업들이	-10.0005
▁사유	-10.0013
▁방법으로	-10.0022
▁현황	-10.0023
▁개방	-10.0027
▁팀이	-10.0028
▁올랐다	-10.0033
▁수능	-10.0033
▁있으니	-10.0037
▁시청	-10.0043
▁상품을	-10.0048
▁처	-10.005
▁힘	-10.0051
▁비즈니스	-10.0063
▁누	-10.0065
▁가치를	-10.0066
하려	-10.0066
▁편성	-10.0067
▁AI	-10.0068
으나	-10.0073
u	-10.0073
▁연주	-10.0077
▁효율적인	-10.0091
▁나이	-10.0093
항제	-10.0094
년에는	-10.0096
▁옆에	-10.0103
▁악	-10.0103
▁못할	-10.0106
▁분리	-10.0107
▁약속	-10.011
▁회계	-10.0111
▁간의	-10.0111
▁매각	-10.0112
▁격	-10.0112
▁곳에서	-10.0114
▁예정입니다	-10.0115
▁조기	-10.0118
▁굉장히	-10.0124
사는	-10.0125
▁이어지고	-10.0128
▁메시지를	-10.0135
▁선수가	-10.0137
▁진단	-10.0139
▁개설	-10.0139
▁탈	-10.0142
▁문서	-10.0143
척	-10.0143
혁	-10.0144
▁대표팀	-10.0146
▁자는	-10.016
▁차단	-10.0163
헌	-10.0173
▁처분	-10.018
▁메시지	-10.018
▁실행	-10.0187
▁완전	-10.0193
▁건축물	-10.0199
▁떠나	-10.0201
▁써	-10.0202
▁말레이시아	-10.0202
▁세부	-10.0203
▁이번이	-10.0203
시험	-10.021
▁선고	-10.0211
▁방지	-10.0211
▁혜택을	-10.0216
▁잡고	-10.0216
▁초등학교	-10.0228
▁과정	-10.023
▁실시한	-10.0231
▁파악	-10.0235
▁2020	-10.0238
▁접	-10.024
▁곳으로	-10.0244
▁자리에	-10.0244
▁개입	-10.0245
▁2008	-10.0246
▁테스트	-10.0248
사의	-10.0251
▁올해는	-10.0253
▁위협	-10.0254
▁사업자	-10.0259
▁여의도	-10.0268
체계	-10.0271
▁있으나	-10.0272
▁당초	-10.0277
됨에	-10.0278
▁경기를	-10.0283
▁영상을	-10.0285
▁훼손	-10.0295
식을	-10.0301
▁요소	-10.0301
행위	-10.031
▁단축	-10.0315
▁대폭	-10.0316
올	-10.0316
▁행	-10.0316
▁점도	-10.0319
▁상영	-10.032
▁그만큼	-10.0328
▁1000	-10.0329
▁거주	-10.0333
▁유출	-10.0333
▁거에요	-10.034
▁초과	-10.0342
▁소방	-10.0348
▁그건	-10.0359
녀	-10.0361
▁급	-10.0363
협	-10.0364
개를	-10.0366
▁형태	-10.0368
▁방법이	-10.0369
슨	-10.037
▁태	-10.037
▁비밀	-10.0372
▁지출	-10.0372
▁임원	-10.0373
체험	-10.0374
▁정원	-10.0376
호선	-10.0376
벌	-10.0379
▁지식	-10.0383
▁봐	-10.0384
▁부여	-10.0387
▁축하	-10.0393
▁언급	-10.0393
▁의회	-10.0402
▁유튜브	-10.0403
▁증시	-10.0405
▁비중	-10.0408
▁역대	-10.041
▁시선	-10.0411
▁취임	-10.0415
량이	-10.0418
▁끌고	-10.0424
판매	-10.0427
!	-10.0428
▁생각해	-10.0428
17	-10.0431
▁전시회	-10.0436
하다는	-10.0439
▁촉진	-10.0445
▁더불어	-10.0454
▁혼	-10.0457
V	-10.0458
▁벌써	-10.0463
여명의	-10.0465
▁쌀	-10.047
▁생각하는	-10.0471
▁150	-10.0483
▁시위	-10.0487
▁이름이	-10.0494
팔	-10.0496
▁눈이	-10.0501
▁장애	-10.0502
▁경기가	-10.0508
때	-10.0515
름	-10.0518
▁담겨	-10.0518
▁치료를	-10.0518
지가	-10.052
▁이끄는	-10.0524
▁뿐만	-10.0525
▁제외	-10.053
▁전부터	-10.0531
취	-10.0534
▁꿈을	-10.0537
▁보이지	-10.0537
▁수학	-10.0544
▁제기	-10.0547
▁나중에	-10.0551
쿠	-10.0553
국제	-10.0554
▁외교	-10.0555
▁통해서	-10.0556
▁내고	-10.0561
▁졸업	-10.0562
▁정기	-10.0568
▁힘이	-10.0571
▁미치는	-10.0573
▁저의	-10.0574
▁사태	-10.0586
보호	-10.0586
▁공개했다	-10.0588
▁올려	-10.0592
▁학생이	-10.0594
우리	-10.0594
▁예비	-10.0599
슬	-10.0601
▁비용이	-10.0601
r	-10.0603
▁않게	-10.0603
▁찬성	-10.0608
▁조작	-10.0609
▁느낌	-10.0612
▁요구하는	-10.0616
검사	-10.0616
▁둔화	-10.0618
▁국내에서	-10.0621
▁입을	-10.0622
이어서	-10.0622
▁초대	-10.0623
▁10%	-10.0625
소득	-10.0636
▁학교에	-10.0637
▁기상청	-10.0643
▁올린	-10.0657
▁풍	-10.0659
▁군사	-10.0659
▁여권	-10.0659
▁식당	-10.0661
▁자세	-10.0664
전문	-10.0666
련	-10.0672
▁회	-10.0672
기금	-10.0672
▁임기	-10.0676
▁루	-10.0676
원은	-10.0685
▁투어	-10.0686
▁하나로	-10.0688
▁특성	-10.0688
▁그게	-10.0699
▁영수증	-10.0701
상담	-10.0703
시킨	-10.0706
▁노선	-10.0707
화를	-10.0713
▁아이돌	-10.0718
▁통하여	-10.0722
▁접근	-10.0723
▁잠시	-10.0723
카드	-10.0724
▁전개	-10.0726
▁자격	-10.0732
▁세트	-10.0734
▁복귀	-10.0735
▁부탁	-10.0736
TV	-10.0738
▁충격	-10.0739
▁사이에서	-10.0742
▁이유를	-10.0757
▁임시	-10.0759
▁입은	-10.0763
▁품목	-10.0764
▁매체	-10.0765
▁규칙	-10.0771
▁사유가	-10.0771
▁감정	-10.0774
18	-10.078
▁어머니	-10.0782
▁힘들	-10.0783
▁무료로	-10.0785
▁로봇	-10.0786
▁찾고	-10.0791
▁전망된다	-10.0794
▁계정	-10.0796
▁차별	-10.0797
▁사용료	-10.0797
▁추석	-10.0798
n	-10.0803
▁그녀가	-10.0807
리는	-10.0807
▁위원회는	-10.0809
▁떨어진	-10.0812
▁이제는	-10.0817
회장	-10.0817
쇼	-10.0822
호서식에	-10.0822
▁박물관	-10.0824
▁찾은	-10.0825
▁점차	-10.0826
▁높아지고	-10.0827
▁설치된	-10.0827
다른	-10.0829
명은	-10.0833
▁형	-10.0834
▁진행되는	-10.0838
률	-10.0838
케	-10.0841
▁모아	-10.0845
▁토대로	-10.0845
호서식의	-10.0847
▁수리	-10.0851
▁과제	-10.0852
▁당신과	-10.0854
▁학생들	-10.0857
▁진료	-10.0857
되도록	-10.0858
여성	-10.086
▁활용한	-10.0864
▁이어졌다	-10.0871
▁하였다	-10.0873
▁이전에	-10.0875
▁소상공인	-10.0876
▁백악관	-10.0877
▁취	-10.0878
몰	-10.0888
▁서류를	-10.0891
▁어디에	-10.0891
▁결론	-10.0893
▁보유	-10.0905
연구소	-10.0906
▁아마	-10.0909
청소년	-10.091
▁앱	-10.0911
▁축소	-10.0913
▁전망이	-10.0915
▁설명이	-10.0915
▁여러분	-10.0916
▁정부와	-10.0917
사업을	-10.0919
▁여성이	-10.092
(1	-10.092
께	-10.0926
▁충남	-10.0929
춘	-10.0934
▁지속적인	-10.0941
▁임대	-10.0942
▁IT	-10.0945
▁측	-10.0948
▁몽골	-10.0948
▁상처	-10.095
▁20%	-10.0952
▁이메일	-10.0957
▁최초	-10.0959
▁아들	-10.0963
▁부회장	-10.0964
▁향한	-10.0965
▁검색	-10.0968
▁'	-10.097
시켰다	-10.0971
▁발언	-10.0972
▁관내	-10.0977
▁없	-10.0979
▁가치가	-10.0979
리그	-10.0979
▁잡아	-10.0981
▁학부모	-10.0982
▁구글	-10.0984
▁자신들	-10.0984
▁쇼핑	-10.0988
▁배경	-10.0989
▁이게	-10.0996
▁앞둔	-10.0999
▁위원장의	-10.1001
▁성폭력	-10.1002
▁해소	-10.1003
▁메	-10.1005
▁덜	-10.1007
0	-10.1012
▁자리에서	-10.1013
차례	-10.1015
▁풀이된다	-10.1018
▁숨진	-10.1018
▁팬들이	-10.1018
▁점은	-10.1018
▁바꿔	-10.102
▁승	-10.1022
▁찾을	-10.1025
500	-10.1027
▁나아가	-10.1028
▁대학생	-10.1034
▁대상자	-10.1036
▁늘어난	-10.104
조정	-10.104
▁사람에게	-10.1047
er	-10.1047
▁적지	-10.1048
▁이용하는	-10.105
국장	-10.105
▁지원에	-10.1051
▁폭력	-10.106
▁하되	-10.1064
▁1,000	-10.107
자원	-10.1078
진흥	-10.1078
▁보여주는	-10.108
▁화장실	-10.108
▁알려주세요	-10.1083
나무	-10.1084
▁드릴게요	-10.1087
▁이탈리아	-10.1087
▁종류	-10.1088
▁별로	-10.109
▁노사	-10.1096
▁마음에	-10.1104
▁옷을	-10.1105
대책	-10.1106
▁지연	-10.1109
▁구단	-10.1112
▁관광객	-10.1116
이기도	-10.1118
▁본격적	-10.1119
▁예산을	-10.1122
▁심리	-10.1122
▁제거	-10.1126
▁올림픽	-10.1129
▁국회에서	-10.113
▁이른바	-10.1134
시민	-10.1134
▁뇌	-10.1137
▁함	-10.1142
▁충북	-10.1156
▁출산	-10.1157
▁증가한	-10.1164
▁의미를	-10.1167
▁직원이	-10.1168
▁김치	-10.1169
▁불리는	-10.1169
▁전년	-10.1179
공장	-10.1185
▁울	-10.1191
▁제출한	-10.1194
▁집회	-10.1194
▁사업장	-10.1198
▁경비	-10.1205
cm	-10.1208
▁후보가	-10.121
▁승인을	-10.121
▁관련하여	-10.1213
▁현상	-10.1213
▁밖의	-10.1214
▁강사	-10.1216
▁바다	-10.1216
▁시민들	-10.1216
d	-10.1219
관계	-10.1222
수사	-10.1231
▁옮겨	-10.1231
▁세계적인	-10.1232
▁티	-10.1238
▁있었지만	-10.1239
경영	-10.1243
께서	-10.1245
O	-10.1246
▁안전한	-10.1247
▁달하는	-10.1249
겠다고	-10.1252
▁고기	-10.1252
▁공정위	-10.1253
▁낼	-10.1255
▁봉	-10.1258
▁경계	-10.1258
려면	-10.1259
▁받게	-10.1262
폭	-10.1265
▁직원들	-10.1266
▁실내	-10.1267
▁골프	-10.1269
▁펀드	-10.1271
▁의원의	-10.1272
었어요	-10.1275
▁이용한	-10.1277
▁문제에	-10.1282
려는	-10.1285
▁받	-10.1292
▁산하	-10.1294
▁외에도	-10.1294
마저	-10.1295
▁관할	-10.1296
▁비교	-10.13
▁벗어나	-10.1303
▁법령	-10.1304
여명	-10.1304
제가	-10.1309
▁노원구	-10.1312
▁이것이	-10.1315
▁국토부	-10.1324
▁목표로	-10.1324
▁생일	-10.1325
▁마약	-10.1328
수를	-10.1331
0%	-10.1331
▁근	-10.1331
▁대거	-10.1336
더라도	-10.1336
수록	-10.1336
▁다리	-10.1339
▁남편	-10.1341
사항	-10.1345
▁대선	-10.1345
▁중간	-10.1347
▁교수가	-10.1347
상품	-10.1348
▁연극	-10.1349
▁생태계	-10.1353
압	-10.1354
▁둘러싼	-10.1356
▁소식을	-10.1356
▁50%	-10.1358
▁필요합니다	-10.136
▁사기	-10.1361
▁일본의	-10.1366
▁쓰고	-10.1374
싱	-10.1375
되자	-10.1379
누	-10.138
▁돌아가	-10.138
▁명절	-10.138
▁거듭	-10.1381
자료	-10.1382
▁지방자치단체	-10.1383
▁90	-10.1393
▁관계를	-10.1394
▁전반	-10.1396
하시는	-10.1407
▁만들었다	-10.1411
단이	-10.1412
▁풍부한	-10.1416
▁비율이	-10.1421
▁소식이	-10.1422
▁없지만	-10.1423
▁베	-10.1423
밥	-10.1424
▁법적	-10.1427
▁가족이	-10.1429
▁생각해요	-10.1433
80	-10.1436
▁체제	-10.1436
▁따라서	-10.144
▁뒤에	-10.1442
▁반응	-10.1445
▁돈이	-10.1447
▁수준의	-10.1452
▁업종	-10.1452
▁저도	-10.1455
24	-10.1457
듯	-10.1469
▁본격	-10.1471
▁찾기	-10.1475
▁영향으로	-10.1475
▁넘게	-10.1478
▁강하게	-10.148
장과	-10.148
▁알아	-10.148
▁편지	-10.1482
▁색	-10.1484
▁제조업	-10.1487
▁이웃	-10.1488
▁마감	-10.1488
▁사이즈	-10.149
▁권력	-10.1492
해주는	-10.1494
▁커뮤니티	-10.1495
▁폭	-10.1497
▁실시한다	-10.1497
▁현재까지	-10.1504
▁부정	-10.1504
시키고	-10.151
른	-10.1511
▁질문에	-10.1511
▁행복한	-10.1512
▁부진	-10.1513
▁금감원	-10.1513
▁효과	-10.1517
▁도민	-10.1524
▁부담을	-10.1533
▁진행됐다	-10.1533
▁서명	-10.1538
▁각자	-10.1539
▁이유다	-10.1539
▁아니요	-10.1542
인들이	-10.1543
▁긍정적인	-10.1552
▁의도	-10.156
▁분위기를	-10.1566
▁순위	-10.1568
▁인하	-10.1572
▁형태로	-10.1574
▁지불	-10.1576
▁가졌다	-10.1579
▁죄송합니다	-10.158
▁시책	-10.1581
▁측이	-10.1583
▁뿌리	-10.1584
▁데뷔	-10.1587
▁날이	-10.1591
▁회장은	-10.1595
▁공동으로	-10.1601
▁이같이	-10.1602
▁모임	-10.1604
▁인공지능	-10.1606
사와	-10.1606
▁독	-10.1607
▁탄	-10.1608
돼야	-10.161
등급	-10.1613
▁작품을	-10.1613
▁경고	-10.1627
▁차관	-10.1637
▁기술이	-10.1639
25	-10.1643
▁연휴	-10.1643
▁이뤄질	-10.1645
▁프로그램이	-10.1646
례	-10.165
▁남성이	-10.1651
▁뛰어난	-10.1652
▁외교부	-10.1653
▁수당	-10.1655
▁고급	-10.1656
심사	-10.1657
▁이미지	-10.1662
페	-10.1665
▁정당	-10.1667
k	-10.1673
▁달성	-10.1676
▁좋아요	-10.1677
▁징역	-10.168
층에	-10.1686
▁시스템을	-10.1688
주가	-10.1698
톤	-10.1701
▁의무	-10.1708
▁클	-10.1709
▁하반기	-10.1713
▁구현	-10.1713
▁폭발	-10.1724
▁시장을	-10.1725
해왔다	-10.1727
▁기사	-10.1736
60	-10.174
▁합동	-10.1742
▁이중	-10.1743
▁폐기	-10.1746
됐으며	-10.1749
▁선정된	-10.1755
금을	-10.1756
씨를	-10.1757
▁투자자	-10.1757
1%	-10.1764
혀	-10.1771
▁면제	-10.1777
▁한국은	-10.1781
▁봤다	-10.1781
통신	-10.1783
▁흐름	-10.1783
▁지원한다	-10.1785
▁아시안게임	-10.1788
▁모양	-10.1791
▁추진하고	-10.18
▁학생들의	-10.1801
▁질병	-10.1802
게요	-10.1803
kg	-10.1805
▁둔다	-10.181
▁마치고	-10.181
함이	-10.1817
▁방북	-10.1819
▁계	-10.1819
▁가량	-10.182
▁법무부	-10.1823
▁범	-10.1824
▁필리핀	-10.1829
▁않았습니다	-10.1832
▁연습	-10.1835
장에서	-10.1853
▁선박	-10.1853
▁구민	-10.1855
▁가격은	-10.1857
▁경기에서	-10.1859
▁신발	-10.1861
▁아직도	-10.1862
▁많고	-10.1862
측	-10.1868
▁드리겠습니다	-10.1871
▁지명	-10.1872
▁다음달	-10.1873
▁구간	-10.1879
▁달라	-10.188
블	-10.188
일에	-10.1881
훈련	-10.1882
▁진실	-10.1884
▁여론	-10.1886
▁필	-10.1888
▁현상이	-10.1891
▁개발한	-10.1892
▁인물	-10.1892
▁낙	-10.1893
사건	-10.1894
▁휴식	-10.1902
▁했다고	-10.1906
▁파견	-10.1911
▁마친	-10.1912
했는지	-10.1918
었고	-10.1925
▁기획재정부	-10.1928
▁참고	-10.1932
서울	-10.1933
▁고발	-10.1934
▁문화예술	-10.1936
▁부처	-10.1943
▁내린	-10.1944
등록	-10.1946
갈수록	-10.1946
▁재산	-10.1947
▁목적	-10.1947
▁칠	-10.1948
▁라인	-10.1955
▁호응	-10.1957
폐	-10.1957
법인	-10.1957
▁능력	-10.1959
점이	-10.1961
전자	-10.1962
▁결정을	-10.1964
▁장치	-10.1968
▁맥주	-10.1972
건의	-10.1974
▁인원	-10.1979
21	-10.1994
▁떨어져	-10.1994
▁숙	-10.1995
사고	-10.2001
견	-10.2005
▁정확히	-10.2013
▁옥	-10.2015
▁덕분에	-10.2017
▁하늘	-10.2019
▁KT	-10.202
▁CCTV	-10.202
▁도와	-10.2021
▁강연	-10.2025
▁종교	-10.2028
▁해양	-10.2038
▁사업의	-10.2039
▁추진할	-10.204
만이	-10.2041
▁결과에	-10.2042
▁데다	-10.2049
▁장식	-10.2052
▁발전을	-10.2055
▁운영할	-10.2056
▁농가	-10.2057
▁검찰에	-10.2057
세를	-10.2059
▁효율적으로	-10.2074
▁이틀	-10.2075
▁아닙니다	-10.2076
하다고	-10.2078
▁일주일	-10.2082
▁평가했다	-10.2084
혁신	-10.2087
▁들어간	-10.209
▁지사	-10.2091
▁않았지만	-10.2092
▁올렸다	-10.2093
▁기간이	-10.2097
▁소화	-10.2097
▁존	-10.2104
▁끼	-10.2106
감을	-10.2106
▁아는	-10.2106
장으로	-10.2107
▁아이가	-10.2109
▁전망했다	-10.2112
▁안보	-10.2114
▁장르	-10.2117
▁가스	-10.2118
▁침해	-10.2124
▁야구	-10.2124
▁진행하고	-10.2125
▁채택	-10.2126
▁방문한	-10.2131
지에	-10.2133
▁제정	-10.2136
▁본격적으로	-10.2138
▁맡은	-10.214
▁시내	-10.2141
▁대하여는	-10.2148
▁바에	-10.215
문을	-10.2153
개혁	-10.2157
사랑	-10.2158
▁바이오	-10.2158
▁않기	-10.2159
▁없나요	-10.2163
▁특	-10.2168
스포츠	-10.2169
▁법원	-10.217
▁때도	-10.2175
▁옆	-10.2175
▁내렸다	-10.2175
▁분위기가	-10.2186
문제	-10.2191
▁저장	-10.2192
▁현대차	-10.2192
▁노후	-10.2197
보고	-10.2198
▁과목	-10.2201
▁행위	-10.2209
▁특징	-10.2209
▁만족	-10.2211
플	-10.2213
▁동기	-10.2215
스가	-10.2215
▁특허	-10.222
▁거주하는	-10.2223
▁토론	-10.2225
▁불과	-10.2227
▁상태다	-10.2233
▁차지했다	-10.2235
▁의식	-10.2236
▁신체	-10.2236
▁수익	-10.224
▁종이	-10.224
율이	-10.2244
▁운전자	-10.2246
▁30%	-10.2246
▁이목	-10.2247
중국	-10.2248
▁영어를	-10.2251
▁불안	-10.2258
▁J	-10.2259
감사	-10.2261
▁폐기물	-10.2264
▁강제	-10.2268
▁옛	-10.2269
▁주기	-10.2275
▁토요일	-10.2276
▁민족	-10.2278
차량	-10.2281
▁페	-10.2282
▁동네	-10.2283
▁접촉	-10.2285
▁질환	-10.2287
▁비리	-10.2293
호의	-10.2295
▁2007	-10.2298
▁왜냐하면	-10.2299
▁별도의	-10.23
▁분야의	-10.2301
▁것이란	-10.2303
▁경기도의	-10.2304
▁핸드폰	-10.2306
▁활용할	-10.2309
▁제공하고	-10.2317
▁점심	-10.2321
▁짧은	-10.2321
▁약간	-10.2321
▁제공한다	-10.2326
비용	-10.2329
▁무리	-10.233
팀이	-10.2331
▁완	-10.2332
▁인재	-10.2333
귀	-10.2334
▁방향으로	-10.234
▁금액	-10.234
▁사이트	-10.234
▁영향	-10.2342
표를	-10.2342
▁주도	-10.2342
▁화웨이	-10.2344
▁비교적	-10.2344
▁아기	-10.2344
▁편의	-10.2347
안을	-10.2354
▁간사	-10.236
▁말하는	-10.2364
▁공무원이	-10.2368
작업	-10.2368
▁국민연금	-10.237
▁총장	-10.2372
전에	-10.2375
▁받기	-10.2377
al	-10.2377
▁시범	-10.2379
▁진행하는	-10.238
▁지역은	-10.2383
지원센터	-10.2385
▁충돌	-10.2386
ᆞ	-10.2387
▁죄송하지만	-10.2387
것	-10.2396
▁농	-10.2401
▁고려하여	-10.2402
▁일자리를	-10.2405
▁틀	-10.2405
▁행사에	-10.2408
▁쪽으로	-10.2408
자와	-10.2408
▁별도로	-10.241
▁열차	-10.241
▁강조	-10.241
▁표준	-10.2411
▁입원	-10.2412
낼	-10.2414
▁여성의	-10.2414
」(	-10.2415
▁조사됐다	-10.2415
▁배터리	-10.2424
▁기소	-10.2429
▁미군	-10.2429
▁프리미엄	-10.243
▁것보다	-10.2435
▁실시할	-10.2436
년도	-10.244
위가	-10.2441
혈	-10.2446
게임	-10.2452
c	-10.2454
▁탓에	-10.2455
▁맛이	-10.2461
▁학원	-10.2463
▁관계가	-10.2465
▁시간은	-10.2474
▁거부	-10.2477
▁선정됐다	-10.2481
▁기반으로	-10.2485
원을	-10.2487
▁거기	-10.2488
▁소장	-10.249
E	-10.2491
▁새해	-10.2491
침	-10.2493
▁산정	-10.2493
계약	-10.2493
▁서구	-10.2496
업계	-10.2498
틀	-10.2498
▁기분이	-10.2498
▁없도록	-10.2499
▁얻고	-10.2505
▁마이크	-10.2508
▁지원이	-10.2508
조례	-10.2514
▁온도	-10.2515
▁자동	-10.2516
▁출범	-10.2517
▁차지하는	-10.2517
▁곳이다	-10.2517
▁공동체	-10.252
▁항	-10.2529
▁유리	-10.2531
▁결	-10.2539
▁운영하고	-10.2542
▁나눠	-10.2544
탕	-10.2545
코리아	-10.2548
있다	-10.255
▁고양이	-10.2552
▁어려울	-10.2557
▁이어지는	-10.256
▁적절한	-10.2562
▁이재명	-10.2563
▁시점	-10.2565
▁말해	-10.2573
▁회사가	-10.2575
▁임기는	-10.2581
군요	-10.2583
▁필수	-10.2588
▁협업	-10.2598
▁주제	-10.2603
▁본사	-10.2605
경찰서	-10.2606
▁숲	-10.2611
▁우주	-10.2612
▁판단했다	-10.2613
앤	-10.2613
▁첨부	-10.2614
군이	-10.2614
▁늘었다	-10.2616
장치	-10.2618
되거나	-10.2621
국민	-10.2625
▁건강한	-10.2628
활동을	-10.2629
▁단순	-10.2629
▁총괄	-10.2634
▁빠진	-10.2639
공연	-10.2643
▁유일	-10.2644
본부	-10.2647
▁대상이	-10.2647
▁대중	-10.2648
재단	-10.265
▁빛	-10.2651
▁자국	-10.2653
▁바람이	-10.2661
▁충분한	-10.2663
▁관측	-10.2666
▁진행할	-10.2675
세계	-10.2679
▁열었다	-10.2682
▁상태에서	-10.2683
▁목사	-10.2684
미국	-10.2684
▁잇따라	-10.2685
▁터	-10.2685
▁대책을	-10.2686
▁좋습니다	-10.2686
▁받는다	-10.2686
▁물을	-10.269
▁전기차	-10.2692
▁차이	-10.2692
▁않아도	-10.2692
▁되기	-10.2693
▁입법	-10.2696
▁현장에	-10.2699
▁칼	-10.2703
▁출입	-10.2705
▁재료	-10.2723
▁공개한	-10.2724
하였고	-10.2724
하라고	-10.2726
예산	-10.2729
▁국민의	-10.2736
▁운동을	-10.2737
가족	-10.2739
▁사항이	-10.2743
잡	-10.2743
▁진행될	-10.2744
▁명예	-10.2744
흥	-10.2747
▁비율	-10.2748
▁구체적으로	-10.2749
▁스타일	-10.2749
▁입증	-10.2749
▁수비	-10.275
▁공간을	-10.2755
▁개최한다	-10.2756
70	-10.2759
▁코스	-10.2761
▁매입	-10.2764
▁이내	-10.2765
▁절감	-10.2775
▁복구	-10.2776
▁분야에	-10.2783
▁실수	-10.2788
▁나타나	-10.2791
▁삭제	-10.2799
▁한식	-10.28
빙	-10.2801
▁원을	-10.2804
▁사업비	-10.2804
▁재판에	-10.2804
▁반응을	-10.2805
규모	-10.2806
▁추세	-10.282
▁담배	-10.2821
▁체	-10.2823
▁착용	-10.2824
으니	-10.2825
▁노래를	-10.2826
▁증가했다	-10.2826
in	-10.283
▁증명	-10.2831
원으로	-10.2833
▁세금	-10.2834
▁비판했다	-10.2834
▁거래소	-10.2838
▁유해	-10.2839
▁그리	-10.2841
▁조절	-10.2844
▁기대감	-10.2845
▁않지만	-10.2847
▁음	-10.2848
▁각국	-10.2849
잔	-10.2855
▁예능	-10.2861
▁문학	-10.2862
▁막기	-10.2864
▁400	-10.2867
으면서	-10.2867
▁케이팝	-10.2868
▁출근	-10.287
▁공포	-10.2871
▁감독의	-10.2872
가격	-10.2874
아이	-10.2875
▁보조금	-10.2875
▁수준으로	-10.2877
▁권리	-10.288
전을	-10.2881
▁친구들과	-10.2883
▁며칠	-10.2884
▁일하는	-10.2888
▁비전	-10.2888
해질	-10.2891
▁이때	-10.2893
▁나설	-10.2894
▁증가하고	-10.2897
관이	-10.2898
▁부실	-10.2904
▁의사를	-10.2912
▁기다리고	-10.2916
▁과연	-10.2917
▁신고를	-10.2918
▁기자	-10.2919
▁때부터	-10.293
▁분들이	-10.2936
▁한국이	-10.2939
▁행사에는	-10.2943
▁있었고	-10.2952
▁추진한다	-10.2953
▁단독	-10.2954
▁모르는	-10.2955
원의	-10.2958
▁하자	-10.296
▁한화	-10.296
▁리그	-10.2965
▁손흥민	-10.2973
▁자극	-10.2974
▁반발	-10.2976
▁모습	-10.298
▁발주	-10.2985
▁정의당	-10.2985
▁관측이	-10.2985
▁걸어	-10.2987
▁한국을	-10.2989
▁세상	-10.299
▁강의	-10.2995
감이	-10.2995
I	-10.2996
하면서도	-10.2999
참	-10.3002
▁트	-10.3004
▁기록한	-10.3012
▁보낼	-10.3017
▁사랑하는	-10.3028
▁동료	-10.3031
개사	-10.3034
이라면	-10.3034
▁광주시	-10.3038
▁폭염	-10.3039
과장	-10.304
물을	-10.3043
률이	-10.3045
▁네이버	-10.3047
▁정권	-10.3049
▁댄스	-10.3053
▁가끔	-10.3055
▁구상	-10.3056
겠지만	-10.3061
▁전화를	-10.3063
부가	-10.3066
▁쓰레기	-10.3069
하길	-10.307
▁개봉	-10.307
▁준수	-10.3074
▁김영	-10.3074
▁45	-10.3076
▁감시	-10.3078
▁법정	-10.3079
▁북측	-10.3081
▁고소	-10.309
▁용역	-10.3091
▁경위	-10.3093
』	-10.3094
▁자유롭게	-10.3094
▁제공할	-10.3096
▁중국에서	-10.3096
▁피의자	-10.31
▁숙소	-10.31
▁당사자	-10.31
▁지역경제	-10.3101
▁준다	-10.3104
▁사람들에게	-10.3104
▁많	-10.3108
100	-10.3109
과학	-10.3114
룸	-10.3115
▁경기도지사가	-10.3115
▁복합	-10.3117
개선	-10.3124
도지사	-10.3125
▁냈다	-10.3125
▁단위	-10.3127
조직	-10.3128
▁여유	-10.3128
▁불만	-10.3129
행사	-10.313
▁역사적	-10.313
▁고정	-10.3133
▁휴대전화	-10.3133
▁다섯	-10.3134
▁수사에	-10.3137
▁뒷	-10.3138
▁꽤	-10.3141
▁산업혁명	-10.3142
▁매주	-10.3145
▁생긴	-10.3149
▁선적	-10.3149
▁채권	-10.3151
▁맞게	-10.3153
▁지사는	-10.3154
▁대법원장	-10.3155
▁기준을	-10.3157
▁제품에	-10.3158
천만	-10.3159
▁무역전쟁	-10.316
(3	-10.3161
▁놀이	-10.3162
개가	-10.3162
식품	-10.3166
▁해주세요	-10.3173
십	-10.3174
▁나오	-10.3177
벽	-10.3177
▁늦	-10.3177
칭	-10.3178
지로	-10.318
[	-10.3181
▁33	-10.3184
번째	-10.3186
▁신호	-10.3189
공간	-10.3189
▁시설물	-10.3193
주기	-10.3194
▁종로구	-10.3195
탑	-10.3198
▁대표하는	-10.3201
▁이끌어	-10.3201
▁합격	-10.3203
]	-10.3205
▁없으면	-10.3208
▁대표이사	-10.3208
영화	-10.3217
▁정지	-10.3219
▁강력	-10.3219
▁측면에서	-10.3224
시대	-10.3225
▁목숨	-10.3229
▁요청할	-10.3229
▁이르는	-10.3232
▁봉사	-10.3234
▁하는지	-10.3239
27	-10.3239
진이	-10.324
▁앞으로도	-10.3241
궁	-10.3241
▁운송	-10.3242
교통	-10.3244
호서식	-10.3249
▁관객들	-10.325
▁남녀	-10.3251
▁사진이	-10.3251
▁철거	-10.3252
▁중학교	-10.3254
▁활발	-10.3254
시설을	-10.3256
▁상당한	-10.3258
상의	-10.3258
▁번째로	-10.326
▁조명	-10.3263
▁문화재	-10.3265
▁경기도지사	-10.3266
▁묵	-10.3266
▁산불	-10.3267
▁사고로	-10.3268
되어야	-10.3271
도서관	-10.3271
▁예를	-10.3273
▁그렇지	-10.3275
▁사용한	-10.328
▁서비스가	-10.3281
▁자연스럽게	-10.3285
▁동일한	-10.3287
상당히	-10.3288
▁매출이	-10.3292
부문	-10.3294
▁수십	-10.3294
레이	-10.3295
▁찬	-10.3296
▁기능이	-10.3296
▁학교에서	-10.3299
▁맡아	-10.3301
▁수석	-10.3303
자동차	-10.3307
▁적립	-10.3309
▁갈등이	-10.3314
▁아무리	-10.3315
▁대부분이	-10.3316
▁줄어들	-10.3325
▁의뢰	-10.3329
▁공동주택	-10.3331
▁직원들이	-10.3331
▁아이템	-10.3332
▁성격	-10.3332
▁높이고	-10.3332
▁조례에	-10.3335
▁한글	-10.3339
▁상위	-10.3341
▁케이크	-10.3343
▁L	-10.3344
▁코치	-10.3345
▁파티	-10.3348
▁감염	-10.3348
▁한층	-10.3348
▁첨단	-10.3349
▁십	-10.335
▁당국	-10.3351
▁너희	-10.3352
▁통상	-10.3352
졌습니다	-10.3353
딩	-10.3354
▁박근혜	-10.3356
▁겪는	-10.3357
▁깊이	-10.3357
▁독서	-10.3365
▁32	-10.3367
▁영화제	-10.3369
▁중국과	-10.3373
▁개막	-10.338
▁음악을	-10.338
▁특별히	-10.3382
계획을	-10.3383
회가	-10.3384
신고	-10.3389
▁소유	-10.3397
▁고양시	-10.3397
▁적응	-10.3399
엘	-10.34
▁손님	-10.34
먹	-10.3401
▁빼	-10.3402
▁이야기가	-10.3402
▁작동	-10.3407
▁반응이	-10.3408
장에	-10.3411
▁날짜	-10.3411
▁시정	-10.3413
▁드	-10.3414
머	-10.3422
억달러	-10.3424
▁했고	-10.3429
▁경우에	-10.3433
▁복원	-10.3433
▁정상회담을	-10.3434
▁상상	-10.3437
▁추정	-10.3438
규제	-10.3439
었는데	-10.3439
-1	-10.344
▁보입니다	-10.344
▁멋진	-10.3441
▁마련됐다	-10.3441
▁관객	-10.3448
▁방식	-10.345
월에는	-10.3451
▁주관	-10.3451
▁쇼	-10.3452
▁세상을	-10.3453
▁방해	-10.3455
▁유형	-10.3457
▁벽	-10.3457
▁과일	-10.3458
▁홈	-10.346
▁된다는	-10.3462
▁폐쇄	-10.3463
▁휴대폰	-10.3467
▁환경부	-10.3467
▁능력이	-10.3467
▁진행되고	-10.3467
▁작	-10.3468
실적	-10.3468
검	-10.3472
▁역사를	-10.3475
▁본인이	-10.3478
▁간담회	-10.3481
되었고	-10.3482
호가	-10.3483
▁V	-10.3485
▁선출	-10.3489
▁시청자들	-10.3491
▁공부를	-10.3493
▁노력이	-10.3496
으	-10.3497
▁직전	-10.3497
▁체육	-10.3499
▁학	-10.3499
▁능력을	-10.3512
▁수치	-10.3518
▁얻을	-10.352
▁강릉	-10.3521
▁N	-10.3525
▁대처	-10.3528
▁즐거운	-10.3529
▁환영	-10.3529
해졌다	-10.3531
▁명령	-10.3533
▁하겠다	-10.3534
▁아침에	-10.3535
상태	-10.3535
▁나오지	-10.3539
치료	-10.354
▁장점이	-10.3543
▁영향이	-10.3544
▁대여	-10.3544
▁없기	-10.3545
집니다	-10.3547
▁담아	-10.3548
▁불편	-10.3553
▁내다봤다	-10.3553
▁무엇인지	-10.3553
하나요	-10.3554
장애인	-10.3554
▁영양	-10.3555
▁U	-10.3557
▁저렴한	-10.3561
▁급격	-10.3562
▁비행	-10.357
▁인생	-10.357
방법	-10.3577
▁서울대	-10.3577
됐다고	-10.3578
▁입금	-10.3579
▁조사하고	-10.3584
▁연말	-10.3589
선을	-10.3589
▁예상되는	-10.359
▁화면	-10.3591
해진	-10.3592
▁모으고	-10.3595
화가	-10.3601
▁관해	-10.3603
▁출마	-10.3604
▁생명	-10.3607
▁들어서	-10.3607
▁차량이	-10.3609
▁중심의	-10.3614
▁과정이	-10.3615
▁정신	-10.3615
▁눈물	-10.3617
▁태권도	-10.362
▁기독교	-10.3621
▁부지	-10.3626
허가	-10.3627
▁입력	-10.3629
혼	-10.3631
▁내용은	-10.3631
했어	-10.3634
▁답했다	-10.3635
▁미국에서	-10.3636
▁함께하는	-10.3636
▁어깨	-10.3637
▁너에게	-10.3638
리가	-10.3638
▁65	-10.3639
▁좋겠다	-10.3641
▁테니	-10.3643
▁담겼다	-10.3644
▁씨는	-10.3645
(5	-10.3649
▁융자	-10.3649
▁위험이	-10.3652
▁현행	-10.3653
▁빠져	-10.3656
▁위원으로	-10.3656
▁주력	-10.3657
▁애플	-10.3659
▁미래를	-10.3662
노동	-10.3666
▁뮤지컬	-10.3667
인력	-10.3667
위는	-10.3668
▁경우는	-10.3669
해지고	-10.3673
▁상태로	-10.3673
회를	-10.3676
▁축	-10.3677
시간이	-10.368
▁천안	-10.3685
▁말한	-10.3685
생산	-10.3686
치는	-10.3693
▁저기	-10.3695
▁감면	-10.3696
▁확충	-10.3703
분이	-10.3703
▁등장	-10.3703
▁주에	-10.3704
선수	-10.3706
▁주관하는	-10.3707
▁무기	-10.3709
▁어려워	-10.3713
▁떠	-10.3713
▁일이다	-10.3715
▁맛있는	-10.3716
장비	-10.372
▁오면	-10.3724
▁진행한다	-10.3726
▁정의	-10.3729
▁지분	-10.3733
▁충전	-10.3734
▁선호	-10.3739
▁장점	-10.3741
▁딱	-10.3745
▁즉	-10.3746
▁이곳에	-10.3747
▁조사한	-10.3748
▁않다는	-10.3749
▁잘못된	-10.3751
부서	-10.3751
▁전담	-10.3753
▁이래	-10.3761
▁북부	-10.3763
하니	-10.3767
▁크고	-10.3768
학원	-10.3769
▁이곳에서	-10.3769
▁아니고	-10.377
▁W	-10.3772
▁불어	-10.3773
라인	-10.3774
28	-10.3778
▁지휘	-10.3779
▁정책이	-10.3785
▁미중	-10.3786
▁공간이	-10.379
▁수탁자	-10.3798
▁제기됐다	-10.3798
▁인터뷰에서	-10.3798
▁계열사	-10.3802
▁부분은	-10.3802
▁오랫동안	-10.3804
▁형사	-10.3809
▁있었는데	-10.381
▁편의점	-10.3811
▁땅	-10.3822
▁차량을	-10.3823
평화	-10.3834
▁증상	-10.3836
대의	-10.3837
▁녹색	-10.3839
▁들여	-10.3842
▁이내로	-10.3842
▁도쿄	-10.3846
▁100%	-10.3846
▁담당자	-10.3847
▁관리를	-10.3849
▁화려한	-10.3852
▁늦게	-10.3854
▁그를	-10.3854
식이	-10.3861
▁분이	-10.3862
J	-10.3863
▁배려	-10.3865
고용	-10.3865
▁비판이	-10.3867
▁인사를	-10.3868
람	-10.3868
▁아이를	-10.3871
▁공약	-10.3877
26	-10.388
▁문제점	-10.3881
▁작성하여	-10.3881
최	-10.3885
홀	-10.3885
▁회사에	-10.3888
▁분류	-10.389
▁어려움이	-10.3892
거든요	-10.3895
▁주시면	-10.3895
▁참여했다	-10.3897
▁캐	-10.3909
▁자율	-10.3912
▁사람들을	-10.3913
▁가능할	-10.3914
▁방탄소년단	-10.3915
▁방향을	-10.3919
▁손해	-10.392
▁총리가	-10.3924
▁때문이에요	-10.3925
▁시행규칙	-10.3925
▁소속사	-10.3925
짜리	-10.3927
▁방침	-10.3928
▁단순히	-10.3928
힌	-10.3933
▁형식	-10.3934
▁심화	-10.3935
▁중소	-10.3937
▁치킨	-10.3939
▁긴장	-10.394
정신	-10.394
세가	-10.394
진다	-10.3943
▁여건	-10.3946
▁내내	-10.3949
▁KBS	-10.395
▁기온이	-10.3952
h	-10.3952
▁최창식	-10.3957
▁신임	-10.3957
프로	-10.3964
▁일정이	-10.3968
▁근처에	-10.3968
전략	-10.3968
▁농촌	-10.3969
▁백화점	-10.397
▁세미나	-10.3972
▁바라	-10.3973
▁동아리	-10.3974
▁박람회	-10.3976
▁취득	-10.3982
▁빵	-10.3993
▁조각	-10.3994
▁마련했다	-10.3997
▁화가	-10.3997
▁마지막으로	-10.4003
▁열릴	-10.4004
▁필요할	-10.4007
▁신분증	-10.401
▁개최했다	-10.4016
▁활동이	-10.4016
▁몸을	-10.4018
습	-10.4019
▁그렇다면	-10.402
사무	-10.4023
▁성폭행	-10.4024
능력	-10.4025
▁부분에	-10.4025
▁들어가는	-10.4026
▁크리스마스	-10.403
폰	-10.4031
▁정식	-10.4032
▁찍어	-10.4032
▁평가가	-10.4033
▁없는데	-10.4033
▁기재	-10.4035
금리	-10.4038
▁계획이	-10.404
▁그거	-10.4042
어야	-10.4046
▁객실	-10.4047
전에서	-10.405
대는	-10.405
▁최신	-10.4053
▁같	-10.4054
▁시리즈	-10.4057
▁구속영장	-10.4059
▁드릴까요	-10.406
▁많아서	-10.4061
▁기다려	-10.4062
▁그럴	-10.4064
▁지역을	-10.4064
▁행위를	-10.4066
▁공을	-10.4066
▁분석한	-10.4069
▁유입	-10.4073
되었으며	-10.4073
▁하나님	-10.4074
슈	-10.4078
▁주체	-10.4078
▁국무위원장이	-10.408
에너지	-10.4081
▁설비	-10.4082
▁고통	-10.4082
▁발생해	-10.4086
자산	-10.4086
▁냄새	-10.4087
▁한계	-10.4087
▁늘어날	-10.4088
▁환자가	-10.4088
▁희생	-10.4091
▁교통사고	-10.4092
빛	-10.4092
▁사찰	-10.4092
▁만들어진	-10.4094
▁34	-10.4101
▁역할	-10.4103
▁진화	-10.4108
▁활동에	-10.4111
▁좋겠어요	-10.4117
▁항목	-10.4119
▁내년에	-10.412
웅	-10.4122
들로	-10.4123
▁캠프	-10.4124
▁학생들은	-10.4126
▁심장	-10.4129
▁승용차	-10.413
쉬	-10.4133
▁높이는	-10.4133
▁사항에	-10.4136
▁경력	-10.4137
지지	-10.4141
▁주변에	-10.4141
먼	-10.4144
▁발달	-10.4145
▁만나는	-10.4148
▁파리	-10.4148
▁이번에는	-10.4149
▁준용한다	-10.4149
▁떡	-10.4153
하라	-10.4154
킹	-10.4156
▁과정에	-10.4158
▁일요일	-10.4158
▁걸릴	-10.416
▁득점	-10.416
▁영역	-10.4162
▁청원	-10.4169
지수	-10.4171
▁안정적인	-10.4172
▁포함하여	-10.4172
▁여당	-10.4174
경찰	-10.4176
5%	-10.4176
▁밝혀	-10.4178
▁""	-10.4178
▁자본	-10.4184
창업	-10.4185
▁유도	-10.4186
▁52	-10.419
학생	-10.4193
▁지원사업	-10.4194
▁판정	-10.4201
▁판사	-10.4201
▁바닥	-10.4203
위로	-10.4206
시쯤	-10.4208
▁찍은	-10.4209
▁세월호	-10.4213
▁자리가	-10.4215
전이	-10.4217
▁명칭	-10.422
▁보육	-10.422
▁『	-10.422
▁투수	-10.4221
▁하거나	-10.4225
▁읽	-10.4226
장애	-10.4226
▁많지	-10.4229
▁기존에	-10.4232
▁구청	-10.4233
▁호와	-10.4234
▁진행한	-10.4235
입니까	-10.4236
원입니다	-10.4236
▁권고	-10.4238
▁개통	-10.4239
값	-10.4241
▁수준이	-10.4241
장의	-10.4243
원장	-10.4244
공항	-10.4245
▁아베	-10.4249
▁되며	-10.4257
까지는	-10.426
▁증상이	-10.4262
▁류	-10.4262
▁보고서	-10.4264
▁앉아	-10.4264
용품	-10.4267
셔	-10.4272
▁않는다는	-10.4273
▁위촉한다	-10.4274
▁마련된	-10.4275
▁한복	-10.4276
년으로	-10.4279
▁세계에서	-10.428
▁마리	-10.4281
▁서초구	-10.4285
▁확인한	-10.4288
▁영장	-10.4291
▁주인	-10.4291
▁연수	-10.4295
▁대행	-10.4296
▁부산시	-10.4297
냐	-10.4298
▁분명히	-10.4302
▁맞지	-10.4303
분석	-10.4303
▁초반	-10.4303
▁재배	-10.4308
▁들어갔다	-10.4311
▁안전관리	-10.4312
▁계절	-10.4318
▁주최	-10.4321
▁진로	-10.4324
▁분노	-10.4325
▁어디서	-10.4325
▁근로	-10.4332
▁아빠	-10.4333
▁쉬	-10.4333
▁것이라	-10.4335
▁왼쪽	-10.4337
▁최초의	-10.4342
▁소관	-10.4343
▁호에	-10.4344
▁배제	-10.4346
▁이뤄진	-10.435
▁성별	-10.4353
▁하이	-10.4353
▁실시간	-10.4358
▁제목	-10.4362
▁만족도	-10.437
▁않아서	-10.4371
▁너를	-10.4372
▁입장이다	-10.4373
내용	-10.4375
▁페스티벌	-10.4377
▁현장을	-10.4379
▁맥	-10.4381
▁보유하고	-10.4381
▁38	-10.4382
▁지점	-10.4383
▁준비를	-10.4386
▁사건의	-10.4386
꽃	-10.4388
사항을	-10.439
▁없었던	-10.4398
▁노출	-10.4398
▁유행	-10.44
겨	-10.44
질환	-10.44
▁듯한	-10.4401
▁개성	-10.4408
▁데이터를	-10.441
건이	-10.4414
▁지진	-10.4419
▁시에	-10.442
▁고위	-10.4424
▁증	-10.4427
▁입시	-10.4428
▁여기는	-10.4429
▁주인공	-10.4431
에만	-10.4435
▁색상	-10.4436
▁마세요	-10.4437
▁교부	-10.4441
▁농산물	-10.4444
객	-10.4446
▁산림	-10.4451
▁포럼	-10.4451
납	-10.4453
▁아프리카	-10.4454
▁식물	-10.4455
▁이슈	-10.4455
▁플레이	-10.4459
or	-10.4461
체제	-10.4461
토록	-10.4461
▁게임을	-10.4462
▁드론	-10.4463
▁갤럭시	-10.4463
▁양측	-10.4471
▁강도	-10.4473
과정	-10.4473
▁어떠한	-10.4474
▁미칠	-10.4475
▁입지	-10.4479
▁영화가	-10.4479
▁위임	-10.4484
▁건의	-10.4484
▁신용카드	-10.4487
▁야당	-10.4492
▁구청장의	-10.4492
▁올라가	-10.4493
▁적어	-10.4493
▁덕	-10.4494
▁상생	-10.4497
▁PC	-10.4497
▁회의에	-10.4501
건강	-10.4504
▁유일한	-10.4504
▁금액을	-10.4504
▁캠페인	-10.4506
액이	-10.4514
었지만	-10.4516
▁보여준다	-10.4516
▁탄생	-10.4519
곳이	-10.4519
~	-10.4519
▁드립니다	-10.4523
▁쇼핑몰	-10.4528
b	-10.4532
▁간사는	-10.4532
▁동일	-10.4535
▁강서구	-10.4537
▁추모	-10.4537
▁물류	-10.4539
▁구청장	-10.454
▁컸다	-10.4541
▁타격	-10.4542
▁홀	-10.4543
▁기준에	-10.4547
▁맨	-10.4547
▁발사	-10.4555
억원이	-10.4558
▁손상	-10.4559
▁경쟁이	-10.4562
▁코리아	-10.4562
▁임신	-10.4564
▁지정된	-10.4566
▁그래	-10.4568
▁정체	-10.4569
▁베이징	-10.4572
▁미사일	-10.4572
▁블랙	-10.4574
▁원칙으로	-10.4574
▁경우도	-10.4575
▁검사를	-10.4575
▁단원	-10.4576
▁연락을	-10.458
▁실적이	-10.458
되기도	-10.4581
▁과장	-10.4583
고등학교	-10.4588
an	-10.4589
▁떨어지는	-10.459
여서	-10.459
▁압수수색	-10.4593
▁꼽	-10.4593
여행	-10.4595
▁야외	-10.4597
▁엄	-10.4598
▁발견된	-10.4599
▁항공기	-10.4602
▁헤	-10.4602
▁조처	-10.4604
▁정보가	-10.4606
▁나눔	-10.4612
▁거죠	-10.4614
▁제시한	-10.4614
▁동원	-10.4614
▁협의회	-10.4618
▁무대에	-10.4618
▁고향	-10.4619
▁위원이	-10.4623
▁물질	-10.4625
드리	-10.4626
죄	-10.4629
▁이익	-10.4631
▁탑승	-10.4635
법을	-10.4638
▁음주운전	-10.4638
▁개인정보	-10.4639
▁요청했다	-10.4639
▁전파	-10.4639
▁허위	-10.4639
▁송금	-10.4645
90	-10.4645
▁농도	-10.4647
첩	-10.4647
시티	-10.4648
▁높게	-10.465
▁한강	-10.4652
▁지닌	-10.4652
사업자	-10.4655
▁이뤄졌다	-10.4662
▁자가	-10.4662
힐	-10.4666
▁주목	-10.4666
▁놀	-10.4674
▁청주	-10.4681
▁생각하고	-10.4688
▁최근에는	-10.469
w	-10.4694
데요	-10.4694
▁발언을	-10.4697
▁측면	-10.47
▁남부	-10.4702
조건	-10.4702
▁빅데이터	-10.4706
▁고양	-10.4709
▁부장판사	-10.4709
득	-10.4711
▁보이	-10.4715
▁창작	-10.4716
▁실시하고	-10.472
▁드러나	-10.472
▁스웨덴	-10.4721
▁주민의	-10.4722
▁굴	-10.4723
▁논문	-10.4727
▁알겠습니다	-10.4729
▁기업에	-10.4729
▁집으로	-10.473
▁오른쪽	-10.4732
▁아마존	-10.4733
▁물이	-10.4735
받아	-10.4736
▁이민	-10.4737
▁지켜	-10.4738
▁얻어	-10.4739
▁생태	-10.474
▁친구들	-10.4747
▁동생	-10.4747
▁주목을	-10.475
맨	-10.4751
▁등급	-10.4755
교사	-10.4755
▁널리	-10.4756
턴	-10.476
▁나가는	-10.4761
▁분명	-10.4763
▁매월	-10.4766
▁체포	-10.4769
권이	-10.4769
이야	-10.4769
▁침대	-10.4773
▁임직원	-10.4773
▁내리	-10.4777
▁다르게	-10.4784
드는	-10.4785
▁방향	-10.4786
▁트렌드	-10.4786
▁대학교	-10.4786
공단	-10.4791
▁리더	-10.4795
▁단어	-10.4796
▁구역	-10.4799
▁요인	-10.4806
짜	-10.4806
▁아예	-10.4809
▁문화가	-10.4813
▁내놓은	-10.4813
▁사용해	-10.4823
분께	-10.4824
섬	-10.4824
▁염	-10.4825
주고	-10.4825
▁당분간	-10.4828
▁세계적으로	-10.4828
▁찾아가	-10.4828
▁위촉직	-10.483
종합	-10.483
▁비치	-10.4836
▁택배	-10.4838
▁방안이	-10.4838
▁소규모	-10.4838
▁기기	-10.4843
조치	-10.4843
▁이주	-10.4844
▁맡고	-10.4846
▁된다고	-10.4846
▁대중교통	-10.4846
▁주실	-10.4849
▁누군가	-10.485
▁승부	-10.4852
▁용인	-10.4853
▁행보	-10.4854
Y	-10.4859
▁했다는	-10.4859
▁하노이	-10.4867
▁대한항공	-10.4868
35	-10.4869
▁귀사	-10.4872
▁휴가	-10.4872
▁휘	-10.4872
▁이상으로	-10.4872
(2	-10.4873
▁창원	-10.4874
▁배정	-10.4874
였습니다	-10.4876
▁발휘	-10.4876
▁크	-10.4877
▁하던	-10.4879
▁급여	-10.4881
씨와	-10.4882
▁시는	-10.4882
▁높았다	-10.4884
▁국민이	-10.489
▁그에게	-10.489
콘	-10.4892
▁무려	-10.4892
▁재단	-10.4895
▁번호	-10.4895
▁상승세	-10.4902
▁즐기는	-10.4903
스는	-10.4904
▁누적	-10.4908
▁이사회	-10.4908
명에	-10.491
▁국경	-10.4911
▁곳을	-10.4911
노조	-10.4913
▁않을까	-10.4916
▁차가	-10.4927
▁엔진	-10.4929
가량	-10.4931
▁지역주민	-10.4932
▁치열한	-10.4933
▁자카르타	-10.494
▁한인	-10.494
22	-10.4941
▁장이	-10.4943
▁달라고	-10.4945
상황	-10.4945
▁사유로	-10.4947
▁생활을	-10.4949
▁게재	-10.4952
▁지체	-10.4953
▁독특한	-10.4957
▁포항	-10.4958
▁특화	-10.4961
제로	-10.4962
연맹	-10.4962
▁격차	-10.4964
▁업데이트	-10.4968
퍼센트	-10.4969
▁상환	-10.497
▁소설	-10.497
▁세종	-10.4974
▁넘치는	-10.4974
▁기조	-10.498
▁충족	-10.4982
징	-10.499
▁조합	-10.4996
▁협상이	-10.4997
조선	-10.4997
▁접속	-10.4999
▁공인	-10.5
▁훌륭한	-10.5
▁시기에	-10.5001
▁음식점	-10.5002
▁하나가	-10.5004
▁텐데	-10.5008
▁연구개발	-10.5009
▁분쟁	-10.5009
▁파트너	-10.5011
▁통보하여야	-10.5012
▁화성	-10.5013
▁시민단체	-10.5017
▁국민들	-10.502
▁실질적인	-10.5022
시키기	-10.5025
▁넓은	-10.5026
▁우유	-10.5026
억원으로	-10.5026
군의	-10.5027
리아	-10.5033
▁가질	-10.5034
▁시작됐다	-10.5041
▁원칙	-10.5044
▁단기	-10.5044
▁한계가	-10.5044
▁참가자	-10.5044
▁곧바로	-10.5045
▁작품이	-10.505
▁풀어	-10.5052
▁서식	-10.5058
▁조금만	-10.5062
▁상품이	-10.5062
▁에어	-10.5064
▁교육과정	-10.5064
▁되도록	-10.5067
▁전통시장	-10.5069
▁강아지	-10.5074
룡	-10.5081
▁사고를	-10.5082
▁점수	-10.5083
▁조언	-10.5089
▁받았습니다	-10.509
▁제도를	-10.509
▁신용	-10.5091
구나	-10.5092
▁부채	-10.5092
▁고교	-10.5099
pop	-10.5103
▁않	-10.5105
요금	-10.5107
▁퇴근	-10.5109
▁긍정적	-10.5111
▁심지어	-10.5112
▁당연직	-10.5113
▁계좌	-10.5113
▁영향력	-10.5117
▁대사	-10.5118
묘	-10.5119
하나	-10.5122
▁치매	-10.5122
▁신제품	-10.5127
민이	-10.5129
▁담당하는	-10.5131
▁진학	-10.5135
▁모니터링	-10.5141
▁성장을	-10.5146
▁침체	-10.5147
▁쉬운	-10.5152
▁많습니다	-10.5154
▁느끼는	-10.5155
번호	-10.5158
▁곳곳에	-10.516
▁전원	-10.5161
하다가	-10.5167
대에	-10.5168
▁진전	-10.5168
▁하나님의	-10.5168
하였으며	-10.5168
▁도서	-10.5169
▁두산	-10.5174
▁미소	-10.5175
▁지수	-10.5177
콜	-10.5177
▁맞은	-10.5179
ing	-10.518
▁지도자	-10.5181
마리	-10.5181
▁양식	-10.5188
f	-10.5192
▁주지	-10.5193
대출	-10.5194
허	-10.5195
▁움직임	-10.5198
▁아니지만	-10.5199
▁MBC	-10.5201
▁지방선거	-10.5202
▁촉구했다	-10.5204
▁끝내	-10.5205
▁부대	-10.5205
▁진행했다	-10.5206
▁지위	-10.5207
▁36	-10.5207
▁인정되는	-10.5209
컬	-10.5211
▁개정안	-10.5214
째	-10.5214
▁개선을	-10.5215
▁열기	-10.5219
▁창조	-10.5222
습니까	-10.5225
▁총선	-10.5225
▁수행할	-10.5226
본부장	-10.5226
▁붕괴	-10.5228
선이	-10.5229
▁소방당국	-10.5229
중인	-10.5235
음악	-10.5244
▁기관의	-10.5244
▁해체	-10.5246
▁발견됐다	-10.5251
▁종종	-10.5252
▁몸이	-10.5252
▁다녀	-10.5253
▁벌이고	-10.5253
리스	-10.5253
▁달에	-10.5257
▁조례에서	-10.5263
▁언제나	-10.5265
▁당연히	-10.5269
▁비교해	-10.5271
▁돼지	-10.5274
▁되길	-10.5274
▁요건	-10.5275
▁가사	-10.5277
▁요청한	-10.5279
▁성공적	-10.528
▁이들을	-10.5281
▁음주	-10.5283
미가	-10.5283
차전	-10.5285
▁물량	-10.5288
▁듣는	-10.5289
32	-10.529
▁형태의	-10.5291
▁점포	-10.5291
▁동반	-10.5292
▁정황	-10.5292
▁워싱턴	-10.5293
▁내지	-10.5293
▁혼란	-10.5296
▁지원하고	-10.5298
현장	-10.5299
▁생존	-10.53
▁경기도내	-10.53
결정	-10.5301
▁끝나고	-10.5304
▁당선	-10.5306
▁당한	-10.5308
절차	-10.5309
벨	-10.5311
▁위원회에	-10.5312
▁늘어	-10.5312
(4	-10.5313
▁컨설팅	-10.5313
박물관	-10.5321
▁시대에	-10.5321
▁준비한	-10.5322
▁진보	-10.5323
▁일어나	-10.5327
▁수거	-10.5328
▁할지	-10.5332
시행	-10.5333
▁자살	-10.5334
▁쏠리고	-10.5335
죽	-10.5337
▁비싼	-10.5337
▁병원에	-10.5339
찰	-10.5339
▁경제가	-10.5344
▁극복	-10.5345
▁레스토랑	-10.5346
▁허리	-10.5346
받	-10.5349
▁마주	-10.5349
비는	-10.535
▁금요일	-10.5351
예방	-10.5355
▁음성	-10.5357
▁“(	-10.536
31	-10.5361
▁논리	-10.5362
▁회사에서	-10.5363
▁적발	-10.5366
▁사무실	-10.5366
le	-10.5368
결과	-10.537
교류	-10.5374
▁2006	-10.5375
▁엄청난	-10.5376
▁추적	-10.5376
▁논	-10.538
증권	-10.5383
▁보내는	-10.5384
▁높이기	-10.5387
▁표창	-10.5387
▁다음에	-10.5389
▁정책에	-10.5392
▁말까지	-10.5395
▁음식이	-10.5396
▁상가	-10.5399
▁뉴	-10.5403
▁보인	-10.5404
청년	-10.5404
on	-10.5405
▁설명회	-10.5407
38	-10.5408
▁보전	-10.5409
▁대피	-10.541
▁둘째	-10.5416
▁증언	-10.5416
▁속도가	-10.5417
▁극장	-10.5419
▁이곳은	-10.5421
▁손실	-10.5424
▁이상을	-10.5424
▁월요일	-10.5425
▁운	-10.5425
▁죽음	-10.5425
▁이수	-10.5425
▁그날	-10.5431
▁뷰티	-10.5431
▁규모로	-10.5434
▁기여	-10.5436
▁생길	-10.5439
▁트위터	-10.5439
▁인천시	-10.544
▁느낌이	-10.5442
▁성경	-10.5443
▁층	-10.5444
▁돌파	-10.5445
▁방식을	-10.5445
▁끌었다	-10.5446
▁밴드	-10.5452
▁오염	-10.5452
▁원전	-10.5452
관은	-10.5455
데이	-10.5456
▁정도가	-10.546
▁자료에	-10.5463
37	-10.5463
▁컬러	-10.5465
▁회수	-10.5468
▁알리는	-10.5468
▁경주	-10.547
▁주민이	-10.5474
▁기관이	-10.5474
▁광역	-10.5476
▁기분	-10.5478
▁조금씩	-10.5479
▁한미	-10.5483
개로	-10.5485
▁확인했다	-10.5485
▁건조	-10.5487
▁마련한	-10.5488
할게요	-10.5496
▁실시하는	-10.55
▁동참	-10.55
▁뛰어	-10.5502
▁전해	-10.5502
북한	-10.5502
▁공감	-10.5504
▁중점	-10.5504
신문	-10.5506
▁인정할	-10.551
▁공고	-10.551
▁희	-10.5511
▁적정	-10.5511
데다	-10.5511
▁기대가	-10.5512
▁참가한	-10.5512
▁왔습니다	-10.5514
▁사건에	-10.5515
▁장면이	-10.5515
▁간편	-10.5516
▁시공	-10.5516
▁숙박	-10.5518
▁돌봄	-10.5519
▁어렵다는	-10.5521
▁건데	-10.5524
▁만료	-10.5524
면서도	-10.5525
▁대다수	-10.5526
▁방학	-10.5528
▁헤어	-10.5529
▁설득	-10.5529
▁원인이	-10.5532
▁예산이	-10.5532
▁수렴	-10.5533
▁자회사	-10.5534
의료	-10.5535
하러	-10.5538
▁문자	-10.5543
▁웃	-10.5544
▁개념	-10.5544
▁일에	-10.5545
▁배우고	-10.5545
▁호흡	-10.5549
됐다는	-10.555
▁재직	-10.555
▁늘어나	-10.5553
응	-10.5555
▁대리	-10.5558
▁공연장	-10.5558
안이	-10.5559
▁북미정상회담	-10.5561
▁정치권	-10.5569
▁사업이다	-10.5569
▁펼쳐	-10.557
▁야간	-10.557
있	-10.5572
칸	-10.5572
▁되면서	-10.5573
▁가맹점	-10.5573
ar	-10.5574
▁얻은	-10.5575
▁이미지를	-10.5577
▁살인	-10.5577
▁방법은	-10.5579
▁붙	-10.5581
▁사용하고	-10.5584
▁몰려	-10.5584
▁토론회	-10.5586
▁공시	-10.5586
천만원	-10.5587
▁함은	-10.5587
▁테	-10.5587
▁기업과	-10.5587
건으로	-10.5588
▁다음과	-10.5589
▁균형	-10.559
▁심한	-10.5592
▁흥행	-10.5592
▁종전선언	-10.5593
▁들을	-10.5596
▁밖으로	-10.5596
▁자랑	-10.5597
▁소송을	-10.5605
▁파주	-10.5607
▁적합한	-10.5608
리에	-10.5608
▁최악	-10.5609
모델	-10.5614
▁지사가	-10.5616
▁손해배상	-10.5616
▁선진국	-10.5616
▁무죄	-10.5617
▁클라우드	-10.5617
음을	-10.5617
▁방어	-10.5621
▁솔루션	-10.5625
▁수준을	-10.5627
▁작업이	-10.5629
쪽	-10.563
▁부당	-10.563
▁전직	-10.563
▁120	-10.5633
▁근로시간	-10.5634
펀드	-10.5636
▁운영한다	-10.5636
▁사업으로	-10.5643
▁관리에	-10.5644
▁대법관	-10.5645
▁계속해서	-10.5646
▁주최하고	-10.5648
▁보내고	-10.5648
▁늘어나고	-10.5649
▁이뤄지지	-10.5655
▁청약	-10.5661
▁예산안	-10.5662
▁경기북부	-10.5662
▁미얀마	-10.5663
▁편집	-10.5668
▁중입니다	-10.5673
▁사안	-10.5673
▁제외하고는	-10.5677
▁너무나	-10.568
▁제약	-10.5681
▁변동	-10.5683
▁지상	-10.5683
▁입찰	-10.5684
▁배상	-10.5685
랜드	-10.5687
▁종사자	-10.5687
▁염색	-10.569
하더라도	-10.5691
▁통행	-10.5692
▁차지	-10.5694
시간을	-10.5695
▁높여	-10.5697
▁일본에서	-10.5699
지면서	-10.5699
▁발생하지	-10.5702
300	-10.5702
들어	-10.5703
▁원이에요	-10.5703
▁체계	-10.5704
▁발령	-10.5707
▁작성한	-10.5713
▁결정했다	-10.5714
▁해상	-10.5716
▁끈다	-10.5719
▁품	-10.5719
▁모았다	-10.5719
규정	-10.5725
▁마찬가지로	-10.5725
▁전문성	-10.5725
▁재활용	-10.5726
엽	-10.5727
▁기업을	-10.5728
▁은퇴	-10.5729
텍	-10.5732
▁금액이	-10.5732
▁갖추고	-10.5734
▁갔다	-10.5734
▁감성	-10.5735
▁가해자	-10.5737
센	-10.5737
▁특검	-10.5738
▁내는	-10.574
▁파괴	-10.5743
▁발전에	-10.5745
▁세워	-10.5745
▁요구했다	-10.5746
▁영화는	-10.5749
나라	-10.575
▁당해	-10.5752
▁2022	-10.5754
▁600	-10.5755
▁곳곳에서	-10.5758
▁정규직	-10.5759
▁성향	-10.5761
▁취재	-10.5761
더니	-10.5762
▁댓글	-10.5762
▁도민들	-10.5764
▁방치	-10.5766
▁다르다	-10.5767
▁힘들어	-10.5768
▁성능	-10.5772
▁37	-10.5773
▁급등	-10.5773
었	-10.5779
▁드릴	-10.578
▁과태료	-10.5782
▁중요성	-10.5785
연합	-10.5788
▁보지	-10.5789
▁매달	-10.5791
▁내게	-10.5791
하시	-10.5791
▁주말에	-10.5792
보는	-10.5794
겠어요	-10.5794
▁사례를	-10.5802
▁교육청	-10.5808
▁노하우	-10.581
▁쿠폰	-10.5811
▁아까	-10.5812
▁금융기관	-10.5812
▁후속	-10.5813
▁보건복지부	-10.5815
▁대체로	-10.5817
▁저소득층	-10.5819
▁위탁할	-10.5821
▁테러	-10.5821
▁성남	-10.5823
▁예고	-10.5824
▁한정	-10.5825
여건	-10.5825
▁존중	-10.5828
▁있다며	-10.5828
이라서	-10.5833
▁숫자	-10.5835
▁내야	-10.5835
학습	-10.5837
▁대통령을	-10.5839
▁포상	-10.5841
껏	-10.5841
▁공익	-10.5841
▁실력	-10.5842
▁전주	-10.5843
▁벌금	-10.5847
▁재고	-10.585
▁걸로	-10.5855
렬	-10.5857
23	-10.5857
▁가족과	-10.5858
▁‘2019	-10.5859
소를	-10.5862
▁주주	-10.5862
▁짜	-10.5865
▁가입자	-10.5866
▁대외	-10.5867
▁되는데	-10.587
실에서	-10.5877
▁회사는	-10.5878
▁않았던	-10.5887
▁가기	-10.589
▁무대를	-10.5897
▁폭로	-10.5903
포럼	-10.5904
웨이	-10.5906
▁지배	-10.5906
▁사퇴	-10.5907
클	-10.5913
▁불편을	-10.5913
▁봐야	-10.5917
▁뭐가	-10.5919
▁깨	-10.5921
지부	-10.5927
▁비난	-10.5928
▁박스	-10.5929
▁본회의	-10.5931
▁애초	-10.5931
▁사립유치원	-10.5934
▁중동	-10.5935
▁일환으로	-10.5935
▁국방	-10.5936
▁소년	-10.5936
▁EU	-10.5938
▁항의	-10.5942
▁근처	-10.5946
받을	-10.5947
스터	-10.5949
▁만화	-10.595
▁교실	-10.595
▁녹	-10.5951
교육을	-10.5952
▁소요	-10.5952
▁막을	-10.5953
▁선도	-10.5953
젠	-10.5955
▁과학기술	-10.5955
▁원내대표가	-10.5956
▁관찰	-10.5957
▁이어진	-10.5958
라운드	-10.5958
▁이천	-10.596
▁브렉시트	-10.5961
심의위원회	-10.5961
▁재원	-10.5962
탁	-10.5962
▁차세대	-10.5962
▁고장	-10.5964
▁대결	-10.5966
▁났다	-10.5967
▁무릎	-10.5967
▁탄력	-10.5972
▁끊임없	-10.5977
▁쾌적	-10.5979
▁기온	-10.5979
한국시간	-10.598
▁값	-10.5981
▁이끌	-10.5981
▁만남	-10.5988
▁먼	-10.599
▁인지	-10.5991
▁서버	-10.5992
제한	-10.5994
기관의	-10.5996
▁든	-10.6003
갔다	-10.6008
▁2005	-10.6009
▁투자가	-10.601
▁확실히	-10.6011
▁화학	-10.6013
▁보면서	-10.6013
▁갖는	-10.6015
▁주문한	-10.602
▁아티스트	-10.6026
▁국가가	-10.6026
▁살펴보면	-10.6028
▁와인	-10.6029
▁전반에	-10.603
▁홈런	-10.6034
▁생각에	-10.6036
▁진흥	-10.6036
▁참여하고	-10.6036
▁보고서를	-10.604
단은	-10.6041
▁살해	-10.6043
▁융합	-10.6046
프로그램	-10.6047
▁놓	-10.6048
▁몇몇	-10.6051
▁119	-10.6052
놀이	-10.6052
▁휴	-10.6055
▁푸	-10.6057
▁안전성	-10.6057
▁소형	-10.6057
항공	-10.6057
▁요구할	-10.6061
▁불량	-10.6062
34	-10.6066
▁조회	-10.6066
▁연임	-10.6067
▁입국	-10.6071
▁가능해	-10.6075
▁소유자	-10.6075
▁있었어요	-10.6077
▁나한테	-10.6079
▁항공사	-10.608
▁다수의	-10.608
키로	-10.6081
▁부스	-10.6082
물질	-10.6083
▁별도	-10.6085
▁든다	-10.6086
▁하더라도	-10.6086
▁최저	-10.6089
▁한해	-10.6089
▁여지	-10.6089
▁제고	-10.6093
기와	-10.6097
회에	-10.6099
▁말할	-10.61
▁공기	-10.61
▁문장	-10.6102
▁티켓	-10.6102
▁이익을	-10.6104
▁전략을	-10.6106
▁치즈	-10.6108
휴	-10.6109
▁제기한	-10.6114
▁커질	-10.6119
▁강화를	-10.6121
▁버전	-10.6123
닝	-10.6128
▁메인	-10.613
▁배당	-10.613
▁현안	-10.613
re	-10.6133
▁드는	-10.6136
대응	-10.6141
▁진정	-10.6142
▁디스플레이	-10.6142
▁묻는	-10.6147
▁정상화	-10.6148
점검	-10.6149
▁세탁	-10.615
둔	-10.6151
됐습니다	-10.6155
▁브	-10.6155
▁북쪽	-10.6157
▁유물	-10.6158
▁연금	-10.6158
▁지내	-10.6159
▁기각	-10.6159
▁감축	-10.616
5000	-10.6163
▁건너	-10.6166
동의	-10.6168
▁남자친구	-10.6169
▁조화	-10.617
어서	-10.6172
▁소지	-10.6173
느냐	-10.6174
부서의	-10.6175
▁가능하며	-10.618
▁발효	-10.6182
하자는	-10.6182
선거	-10.6184
▁인하여	-10.6184
▁수급	-10.6186
▁평생	-10.6186
▁증가하는	-10.619
▁모인	-10.619
기획	-10.6191
▁성실	-10.6192
AI	-10.6197
▁소프트웨어	-10.6198
▁인형	-10.6198
사로	-10.6199
▁높고	-10.62
▁여자친구	-10.6201
범죄	-10.6203
▁슬	-10.6207
▁기간에	-10.6207
▁리스트	-10.6211
▁소비자들	-10.6211
▁카카오톡	-10.6211
▁안팎	-10.6212
솔	-10.6213
▁오류	-10.6214
▁좌우	-10.6214
▁조치가	-10.6214
▁버스를	-10.6222
▁얼마에요	-10.6224
▁몸에	-10.6224
▁그랬	-10.6225
▁과도한	-10.6231
▁연예인	-10.6232
▁꼽힌다	-10.6233
▁런던	-10.6233
▁후에는	-10.6233
보수	-10.6241
▁사정이	-10.6245
▁때문	-10.6249
케이	-10.6251
▁성분	-10.6252
▁슈퍼	-10.6254
의원	-10.6254
▁빌	-10.6257
▁행사로	-10.6258
▁몰	-10.626
▁부착	-10.6262
▁주재	-10.6262
▁보일	-10.6262
▁무엇이	-10.6265
▁소비자가	-10.6265
▁관계자들	-10.6266
방식	-10.6267
▁면적	-10.6269
▁부득이	-10.6276
▁의지가	-10.6282
▁위기에	-10.6284
일본	-10.6285
▁70%	-10.6286
업자	-10.6286
▁춤	-10.6288
▁한때	-10.6291
▁규칙은	-10.6298
▁차질	-10.6298
▁검	-10.6299
연대	-10.63
접	-10.6301
겸	-10.6302
400	-10.6305
▁화물	-10.6306
▁담고	-10.6308
▁소중한	-10.6311
▁스토리	-10.6314
▁송파구	-10.6314
▁태도	-10.6317
▁자격증	-10.6318
▁테이블	-10.6319
▁시작해	-10.6321
베이	-10.6321
욕	-10.6329
둘	-10.6331
▁서울시가	-10.6332
▁어디로	-10.6333
36	-10.6337
▁가능해요	-10.634
▁거리가	-10.634
▁특유의	-10.6341
▁매력을	-10.6341
▁진정한	-10.6342
▁승리를	-10.6344
▁비정규직	-10.6345
디자인	-10.6345
▁증권	-10.6349
▁소식	-10.6349
▁비용은	-10.635
▁작용	-10.6351
리스트	-10.6359
주민	-10.636
▁보러	-10.6365
▁스크린	-10.6365
▁돕는	-10.637
분에	-10.6372
▁하려고	-10.6374
자인	-10.6379
▁준공	-10.6379
받는	-10.6383
▁언급한	-10.6389
▁우즈베키스탄	-10.639
▁차원의	-10.6391
▁법원이	-10.6391
▁된다면	-10.6392
쳤다	-10.6392
▁조율	-10.6393
▁이처럼	-10.6393
▁정상이	-10.6394
▁적자	-10.6395
▁카카오	-10.6401
▁사건은	-10.6402
▁지표	-10.6405
▁경기장	-10.6405
▁해군	-10.6406
▁또다시	-10.6407
인증	-10.641
▁관리하는	-10.6411
공급	-10.6412
특별	-10.6415
▁지원하기	-10.6415
▁걸그룹	-10.6416
기기	-10.6423
증을	-10.6425
기지	-10.6429
환자	-10.643
▁중에는	-10.643
▁수시	-10.6431
▁이름은	-10.6431
▁거기에	-10.6437
▁기여할	-10.6438
▁매매	-10.644
▁부총리	-10.644
이상	-10.644
▁국비	-10.644
▁대답	-10.6442
▁진주	-10.6451
▁아이폰	-10.6452
▁좌석	-10.6452
인당	-10.6453
셀	-10.6456
▁맞서	-10.6457
▁싸	-10.6457
▁기차	-10.6459
▁포스코	-10.6459
▁드러냈다	-10.6462
▁방식이	-10.6464
▁요구가	-10.6466
▁오지	-10.6471
▁지금도	-10.6472
▁불가능	-10.6473
개월간	-10.6473
▁들어갈	-10.6476
▁리스크	-10.6476
▁명단	-10.6477
▁이내의	-10.6477
▁강좌	-10.648
▁싫어	-10.6482
▁사장님	-10.6482
▁섭취	-10.6484
▁김씨가	-10.6488
▁조리	-10.6492
▁전화번호	-10.6493
▁사망자	-10.6494
▁시술	-10.6496
▁색깔	-10.6496
▁세운	-10.6503
▁정확하게	-10.6509
시가	-10.6511
▁안산	-10.6513
▁미국에	-10.6513
▁참가자들	-10.6514
▁신라	-10.6515
▁유력	-10.6517
▁김성	-10.6519
▁신인	-10.6523
▁짓	-10.6524
셨	-10.6525
▁공단	-10.6525
▁80%	-10.6533
▁O	-10.6535
▁카드로	-10.6535
▁헌법	-10.6536
▁한데	-10.6536
▁인공	-10.6537
▁친구와	-10.6538
▁평택	-10.6539
▁잠깐	-10.6539
▁대해선	-10.654
중앙	-10.654
▁북한과	-10.6544
▁최소한	-10.6544
▁시인	-10.6547
▁슈	-10.6548
호텔	-10.655
▁하천	-10.655
▁깜짝	-10.655
▁산업단지	-10.6551
▁그림을	-10.6553
▁행동을	-10.6556
▁반대로	-10.656
물이	-10.656
▁국가대표	-10.6561
▁국어	-10.6561
▁창립	-10.6563
▁판매하는	-10.6567
▁때가	-10.6568
▁상금	-10.6569
변경	-10.6571
▁참사	-10.6572
▁사실이다	-10.6578
▁밤에	-10.6579
▁팀을	-10.6581
▁유사	-10.6581
수는	-10.6584
▁것들이	-10.6585
▁최소화	-10.6586
▁기상	-10.6587
맛	-10.6588
칼	-10.659
▁명품	-10.6591
하시고	-10.6592
▁일어난	-10.6594
▁일각에서	-10.6596
▁보증	-10.6599
롱	-10.6599
심에서	-10.66
나는	-10.66
타운	-10.6601
▁잡은	-10.6602
▁예전	-10.6602
▁가져가	-10.6602
▁역할이	-10.6605
▁유사한	-10.6608
▁유족	-10.6608
▁고려하면	-10.661
쓰	-10.6612
▁종류의	-10.6612
▁날부터	-10.6613
▁이탈	-10.6615
▁신앙	-10.662
심을	-10.6621
▁성추행	-10.6623
▁걸려	-10.6624
▁학술	-10.6626
릿	-10.6628
▁SBS	-10.6629
라서	-10.6629
▁점유율	-10.6632
풀	-10.6634
▁스케줄	-10.664
▁갖게	-10.6645
▁얼굴을	-10.6646
▁달려	-10.6648
▁취미	-10.6653
▁소리가	-10.6654
▁상징	-10.6656
▁부위	-10.6657
▁I	-10.6657
유통	-10.6658
▁펼쳐진다	-10.6661
▁가능하도록	-10.6668
사업에	-10.6669
▁그나마	-10.6669
넷	-10.667
▁행정안전부	-10.6671
▁기증	-10.6671
▁대단	-10.6672
능	-10.6672
▁뒤늦게	-10.6674
▁침	-10.6674
▁급식	-10.6677
보고서	-10.6678
▁보냈다	-10.6678
▁매니저	-10.6678
▁꾸	-10.6688
▁40%	-10.6691
▁선물을	-10.6693
▁확신	-10.6701
▁이상인	-10.6702
▁지방세	-10.6704
천여	-10.6705
원에	-10.6706
▁식으로	-10.6706
▁고문	-10.6712
▁잊지	-10.6715
랩	-10.6716
▁배가	-10.6716
▁연락이	-10.6717
200	-10.6718
▁내년부터	-10.6721
▁멤버들	-10.6723
공동	-10.6723
▁일고	-10.6724
▁있었다고	-10.6727
▁세일	-10.6729
▁인쇄	-10.6731
▁광진구	-10.6731
▁걸리	-10.6734
▁뒷받침	-10.6734
▁수행하는	-10.6735
리를	-10.6735
▁하니	-10.6737
▁서울에서	-10.6737
▁수원시	-10.6738
▁소감	-10.674
▁지나치	-10.674
▁주류	-10.674
인들의	-10.6743
▁취약계층	-10.6745
▁사장이	-10.6745
년째	-10.6748
▁철회	-10.6751
▁땀	-10.6752
▁경과	-10.6754
▁끝나면	-10.6755
▁얼마인가요	-10.6756
▁아르헨티나	-10.6757
▁향상을	-10.6758
사용	-10.6758
▁퍼	-10.6758
▁끝까지	-10.6759
▁포기	-10.6762
▁수여	-10.6763
▁즐겨	-10.6764
▁나쁜	-10.6765
인권	-10.6765
▁있거나	-10.6768
▁코드	-10.6769
▁스트레스	-10.6771
▁아니한다	-10.6772
▁흉기	-10.6773
▁바꿀	-10.6776
▁물가	-10.6777
▁지침	-10.6779
서비스를	-10.6781
▁파업	-10.6781
▁마포구	-10.6784
▁위주로	-10.6787
금액	-10.6788
▁기준이	-10.6789
▁먹거리	-10.6791
▁사용하지	-10.6792
하우스	-10.6798
▁상태를	-10.6798
▁민주노총	-10.6808
▁방금	-10.6812
▁현지에서	-10.6814
29	-10.6817
▁모자	-10.6819
예정	-10.6819
▁간단한	-10.682
▁국무부	-10.6821
▁성명	-10.6827
▁믿고	-10.6828
▁짐	-10.6828
▁묘	-10.6829
▁구성원	-10.683
▁응답	-10.6832
운용	-10.6833
▁시너지	-10.6833
▁올바른	-10.6833
▁신도시	-10.6836
전쟁	-10.6839
▁아니한	-10.6839
▁포착	-10.6839
▁뜨	-10.6839
▁그려	-10.6839
▁미니	-10.6842
▁이집트	-10.6843
▁이송	-10.6845
▁신축	-10.6854
▁시신	-10.6855
▁프로그램은	-10.6856
▁탑재	-10.6856
▁건전	-10.6857
▁기업인	-10.6859
군수	-10.686
▁세력	-10.6861
▁250	-10.6861
▁체크	-10.6863
▁김정	-10.6863
▁연봉	-10.6866
▁보며	-10.6866
∼20	-10.6869
▁판문점	-10.6869
▁양산	-10.6871
설비	-10.6871
석이	-10.6872
▁사람과	-10.6873
▁호소	-10.6874
기간이	-10.6875
▁뒤로	-10.6876
▁워크숍	-10.6878
▁그걸	-10.6879
▁다행히	-10.6881
▁도중	-10.6886
법이	-10.6886
▁연인	-10.6887
▁특성상	-10.6888
▁탄핵	-10.689
▁마스크	-10.6894
▁영어로	-10.6895
통합	-10.6896
▁궁금증	-10.6897
▁미팅	-10.6898
▁금고	-10.6898
▁전세계	-10.6902
▁안녕하세요	-10.6902
▁면담	-10.6903
정치	-10.6908
▁벌인	-10.6909
화된	-10.6909
▁자원봉사자	-10.6913
▁감안하면	-10.6914
▁회의에서	-10.6914
▁유전자	-10.6916
영상	-10.6916
▁병원으로	-10.6917
33	-10.6917
▁정상회담이	-10.6917
▁발목	-10.6919
▁하루에	-10.6926
함과	-10.6927
▁준비가	-10.6929
교육감	-10.6929
▁주시겠어요	-10.693
▁건수	-10.693
▁추정된다	-10.6931
▁일반적으로	-10.6932
과정에서	-10.6932
▁부모님	-10.6933
▁자신감	-10.6941
▁사정	-10.6944
지요	-10.6946
▁꼼꼼	-10.6948
▁납품	-10.6948
정비	-10.6951
회의를	-10.6952
▁출국	-10.6956
▁제품으로	-10.6957
▁아울러	-10.6959
▁좋겠습니다	-10.696
▁김종	-10.6965
▁이해할	-10.6968
▁통장	-10.6974
▁오래된	-10.6977
만달러	-10.6979
▁55	-10.6982
▁관계자들이	-10.6982
▁지어	-10.6984
▁플라스틱	-10.6986
▁명시	-10.699
사실	-10.6991
▁거로	-10.6991
▁소녀	-10.6993
▁의자	-10.6995
▁늘어나는	-10.6996
▁집계됐다	-10.6996
▁활력	-10.7005
▁워낙	-10.7006
▁에어컨	-10.7006
▁보여주고	-10.7011
▁e	-10.7011
▁책임이	-10.7013
▁인건비	-10.7017
▁자동으로	-10.7023
▁사이의	-10.7025
▁39	-10.7025
중소기업	-10.7029
▁흡수	-10.7029
▁모습으로	-10.7031
▁거절	-10.7032
▁경찰청	-10.7036
▁고속도로	-10.7043
롭	-10.7043
부는	-10.7044
▁채워	-10.7046
▁가격에	-10.7047
별지	-10.7048
▁발매	-10.7048
▁차기	-10.7049
▁48	-10.7049
▁상용화	-10.705
만으로	-10.705
▁서부	-10.7052
셔야	-10.7061
▁이명박	-10.7064
45	-10.7065
39	-10.7066
▁태양광	-10.7066
▁내릴	-10.7067
▁안전하게	-10.7067
줍니다	-10.7069
핑	-10.7069
부담	-10.7071
▁수영	-10.7073
▁학생들에게	-10.7073
▁죄	-10.7074
▁사법	-10.7076
▁간부	-10.708
▁패키지	-10.7081
▁확대를	-10.7081
▁유아	-10.7081
▁꺾	-10.7081
▁머	-10.7083
▁전산	-10.7084
▁5000	-10.7084
▁올해부터	-10.7085
▁사이버	-10.7086
▁엘	-10.7086
▁대립	-10.7086
▁촉구	-10.7087
해줄	-10.7087
▁철학	-10.7092
요원	-10.7093
▁동향	-10.7094
▁고용노동부	-10.7095
▁대표의	-10.7095
시즌	-10.7095
시로	-10.7095
▁통지	-10.7096
유지	-10.7096
▁고령	-10.7097
▁솔로	-10.7099
▁사실은	-10.7102
▁소개했다	-10.7106
제는	-10.7107
▁크지	-10.7107
▁바꾸	-10.7108
▁거친	-10.7108
▁팀장	-10.7108
▁이른	-10.7112
사에	-10.7112
▁일본인	-10.7113
▁인류	-10.7114
▁풍경	-10.7114
▁홈페이지에	-10.7115
▁원이	-10.7116
▁할게요	-10.7122
따	-10.7122
▁피곤	-10.7124
▁주석	-10.7125
it	-10.7125
▁얼마예요	-10.7125
▁가능성은	-10.7127
▁자영업자	-10.713
▁선호하는	-10.7134
▁싶지	-10.7135
자들의	-10.7135
조합	-10.7137
▁높였다	-10.7139
▁이스라엘	-10.7141
▁2,000	-10.7141
▁감동	-10.7142
기반	-10.7144
▁전형	-10.7147
▁개시	-10.7147
▁수령	-10.7148
▁열람	-10.7148
퇴	-10.7153
▁소집	-10.7153
▁하나인	-10.7154
니아	-10.7155
▁실태	-10.7156
▁패널	-10.7158
▁기쁨	-10.7158
참여	-10.716
사들이	-10.7161
▁줄어든	-10.7161
▁얘기를	-10.7163
추진	-10.7163
▁예정인	-10.7165
▁보고하여야	-10.7167
량을	-10.7167
▁서울의	-10.7169
▁가슴	-10.717
▁좌	-10.7174
▁대통령에게	-10.7175
▁상담을	-10.7175
▁관심과	-10.7176
▁남긴	-10.7178
▁추진을	-10.7179
▁재무	-10.718
▁관광지	-10.7181
스크	-10.7186
▁철저한	-10.7186
▁연구소	-10.7188
▁비록	-10.7189
IT	-10.7189
▁동작	-10.7192
▁점에	-10.7194
▁취재진	-10.7195
▁연합	-10.7195
▁멀리	-10.7196
▁북한에	-10.7196
▁수면	-10.7197
▁바이어	-10.7199
▁그러	-10.72
▁데는	-10.7205
▁관악구	-10.7206
▁드리	-10.7207
▁호텔에서	-10.7207
▁기대감이	-10.7208
▁가요	-10.7211
▁적용한다	-10.7212
▁아들이	-10.7213
▁정부에	-10.7214
▁착수	-10.7216
▁불가능한	-10.7217
▁조만간	-10.7218
▁조사에서	-10.7219
▁돌아	-10.7222
▁강요	-10.7223
▁수탁자는	-10.7226
▁참가해	-10.7227
▁소음	-10.7234
홀에서	-10.7235
▁챙겨	-10.7235
▁응답자	-10.7235
하셔야	-10.7239
엄	-10.7239
▁중국인	-10.724
▁지적도	-10.7241
▁평생교육	-10.7241
▁철저히	-10.7242
같이	-10.7243
▁사용이	-10.7246
전문가	-10.7248
오는	-10.7248
▁없게	-10.7253
▁다니는	-10.7253
▁배경으로	-10.726
▁잡지	-10.7261
대와	-10.7263
▁학대	-10.7267
▁다채로	-10.7268
▁포함한다	-10.7268
▁CJ	-10.7268
▁개척	-10.7269
▁위해선	-10.727
▁사회복지	-10.7272
▁대구시	-10.7272
부지사	-10.7272
en	-10.7276
순위	-10.7276
▁긴밀	-10.7278
래도	-10.728
▁구매할	-10.7281
▁권리를	-10.7283
▁열려	-10.7285
▁차트	-10.7286
▁거점	-10.7287
▁디자이너	-10.7288
▁어쩔	-10.7289
▁끈	-10.7291
▁성적이	-10.7292
▁소스	-10.7293
▁동행	-10.7294
▁경향이	-10.7294
▁할머니	-10.7296
▁전국에서	-10.7297
▁거라고	-10.7297
▁딸기	-10.7298
▁의혹에	-10.7301
▁자라	-10.7301
주간	-10.7301
▁붙여	-10.7301
쳤	-10.7302
▁중국에	-10.7302
▁그곳	-10.7306
▁포함되어	-10.7308
▁사회의	-10.7309
▁병행	-10.7312
조사를	-10.7314
컵	-10.7314
▁운항	-10.7319
▁임용	-10.7325
▁포함돼	-10.7327
당한	-10.7327
▁현재는	-10.7331
구요	-10.7332
▁수주	-10.7333
▁꺼내	-10.7333
회는	-10.7335
▁차지하고	-10.7335
심의	-10.7337
방안	-10.7339
▁장에게	-10.7341
근무	-10.7342
기능	-10.7342
▁폭이	-10.7344
▁지역으로	-10.7345
▁지급한다	-10.7345
▁밝은	-10.7347
소리	-10.7348
▁상품은	-10.7349
▁미뤄	-10.735
▁수익을	-10.7351
▁성범죄	-10.7351
▁봉사활동	-10.7354
▁이자	-10.7355
▁근데	-10.7356
▁모범	-10.7357
▁방문하는	-10.7362
▁거짓말	-10.7362
만여	-10.7363
▁의장이	-10.737
보건	-10.7374
낭	-10.738
▁끌	-10.7381
▁기념식	-10.7384
▁신중	-10.7385
▁일반인	-10.7385
▁연령	-10.7385
▁경찰과	-10.7385
▁성과가	-10.7387
▁유럽연합	-10.7387
▁김태	-10.7388
▁있을까	-10.7389
▁스튜디오	-10.7396
촉진	-10.7396
▁3·1	-10.7398
▁손에	-10.74
▁학기	-10.74
▁정보화	-10.741
▁하세요	-10.7412
▁내신	-10.7412
▁친구들이	-10.7413
엠	-10.7413
▁아니라는	-10.7414
▁부천	-10.7414
▁편하게	-10.7414
▁줄었다	-10.7416
▁케이	-10.7421
▁해결하기	-10.7422
▁출연해	-10.7422
▁금융권	-10.7423
시기	-10.7424
맥	-10.7433
▁운영위원회	-10.7434
▁통지하여야	-10.7437
▁용기	-10.7438
▁원유	-10.7439
▁거론	-10.744
▁투기	-10.744
▁광장	-10.744
▁준비해	-10.7444
▁가려	-10.7445
▁고르	-10.7447
▁기름	-10.7448
용으로	-10.7448
▁콩	-10.7449
만한	-10.7451
위원회의	-10.7453
▁배울	-10.7453
▁수색	-10.7453
▁인상을	-10.7455
법에	-10.7458
▁시진핑	-10.7458
▁한쪽	-10.746
칙	-10.7461
▁언급했다	-10.7461
▁취급	-10.7463
▁검토하고	-10.7464
에겐	-10.7466
▁영세	-10.7467
▁것이고	-10.7469
▁경로	-10.7476
▁음식은	-10.7478
▁사우디	-10.7479
관을	-10.748
▁다이어트	-10.7483
▁금융위	-10.7483
▁게시	-10.7487
로운	-10.7496
▁인식이	-10.7499
▁논의를	-10.75
▁출제	-10.7503
▁도가	-10.7505
끼	-10.7509
▁정성	-10.7512
▁앞선	-10.7515
▁필요해요	-10.7517
▁좋았	-10.7517
▁내용에	-10.7518
액을	-10.7519
현재	-10.7521
특	-10.7524
투어	-10.7527
업체가	-10.7529
▁민주주의	-10.7532
내는	-10.7532
▁결혼식	-10.7537
▁마련해	-10.7537
▁대표와	-10.7538
▁영광	-10.7539
▁파악하고	-10.7543
대상자	-10.7544
▁성장세	-10.7545
▁빅	-10.7545
▁맞고	-10.7547
▁공모전	-10.755
▁기재부	-10.7551
▁상시	-10.7551
▁순수	-10.7553
로서의	-10.7553
▁도출	-10.7556
▁김동	-10.7557
▁않았다는	-10.7558
▁개인의	-10.7559
▁고시	-10.756
봐	-10.7561
▁나이가	-10.7561
학회	-10.7562
사무소	-10.7562
▁준비하고	-10.7565
튼	-10.7567
아동	-10.7567
▁혐의가	-10.7567
▁본격화	-10.7569
좌	-10.7569
▁의류	-10.7569
▁벨기에	-10.757
▁아무것	-10.757
푸	-10.7572
▁경비를	-10.7572
하라는	-10.7573
하였을	-10.7573
▁소환	-10.7576
▁국민들이	-10.7576
▁노력하겠다	-10.7577
▁분석된다	-10.7579
▁이기	-10.758
▁제외하고	-10.758
▁맡기	-10.7581
▁이후에	-10.7584
▁보여주	-10.7586
임에도	-10.7586
▁증대	-10.7587
▁신청서를	-10.7588
치를	-10.759
▁괜찮	-10.7593
▁인지도	-10.7593
▁시까지	-10.7595
▁필요로	-10.7599
▁선보인다	-10.7599
▁추정되는	-10.7601
▁왔어요	-10.7605
▁도약	-10.7605
▁방영	-10.7607
▁규명	-10.7608
▁아니라고	-10.7609
▁주장하는	-10.761
▁얻었다	-10.7617
▁협회	-10.7617
▁말씀해	-10.7618
▁일하고	-10.762
▁전문가들이	-10.7623
텐	-10.7624
▁그러하지	-10.7626
면적	-10.763
▁그저	-10.763
▁천연	-10.7633
뜨	-10.7636
▁여론이	-10.7637
▁뭔가	-10.7638
▁메이	-10.7639
▁남쪽	-10.7641
▁제게	-10.7642
▁관리자	-10.7643
▁의원들	-10.7648
▁퇴직	-10.7648
부를	-10.7649
▁널	-10.765
▁귀국	-10.7656
▁근육	-10.7656
▁비디오	-10.7656
▁이름으로	-10.7657
▁지난주	-10.7657
기록	-10.7657
▁기업은	-10.7657
이용	-10.7657
었어	-10.7659
▁합류	-10.7659
▁선사	-10.766
ha	-10.766
▁벌어진	-10.7663
일자리	-10.7665
지기	-10.7668
▁5·18	-10.7668
수익	-10.7669
▁다하겠다	-10.767
▁결코	-10.767
▁피자	-10.7673
▁익	-10.7673
48	-10.7674
▁유망	-10.7675
▁신분	-10.7676
▁기구	-10.7678
▁관광객이	-10.7679
▁성공했다	-10.7679
▁즐겁게	-10.768
▁남북정상회담	-10.7681
▁반영된	-10.7684
▁생겼	-10.7684
다니	-10.7686
▁잡았다	-10.7689
트리	-10.7692
▁유관기관	-10.7694
▁뭘	-10.7694
담당	-10.7695
▁머물	-10.77
▁척	-10.7703
▁기여한	-10.7704
▁국적	-10.7708
▁경기도에	-10.7709
파크	-10.7709
▁비자	-10.771
▁인용해	-10.7711
▁글이	-10.7713
▁43	-10.7715
▁준비하는	-10.7715
▁오랜만에	-10.7718
▁지인	-10.7719
▁과세	-10.7719
▁판매가	-10.772
▁반등	-10.7723
▁국제사회	-10.7726
▁나면	-10.7726
▁인근에	-10.7729
800	-10.7729
▁제안했다	-10.773
▁위원장과	-10.7734
▁단순한	-10.7738
▁찾았다	-10.7739
▁웹	-10.7741
▁벌였다	-10.7741
▁안전사고	-10.7741
▁좋고	-10.7742
▁회신	-10.7743
렸	-10.7743
▁석탄	-10.7745
성장	-10.7746
▁말에	-10.7748
▁자세히	-10.7753
▁점수를	-10.7753
▁언니	-10.7758
▁격려	-10.7759
▁주행	-10.7763
군은	-10.7764
었을	-10.7764
당시	-10.7768
▁영화의	-10.777
▁청사	-10.7772
▁얼음	-10.7773
활	-10.7774
▁시상식	-10.7774
재산	-10.7775
▁클래식	-10.7777
▁보건	-10.7777
▁바지	-10.7778
▁출판	-10.7786
▁조사에	-10.7787
▁지갑	-10.7789
현대	-10.7791
▁하락세	-10.7791
간의	-10.7791
▁지장	-10.7792
▁흘러	-10.7792
▁목록	-10.7793
▁분들	-10.7793
▁변수	-10.7795
▁탓	-10.7797
되나요	-10.7797
▁입점	-10.7799
했	-10.7801
방지	-10.7807
▁영상이	-10.7814
▁뼈	-10.7816
▁주방	-10.7816
▁동장	-10.7817
▁시험을	-10.782
▁커플	-10.7821
▁양쪽	-10.7821
▁이재	-10.7825
▁규정이	-10.7825
위험	-10.7827
▁좋겠어	-10.7827
▁좋아해요	-10.7828
▁넌	-10.7829
▁내역	-10.783
잖아	-10.7833
▁매진	-10.7833
▁오르	-10.7834
▁주신	-10.7835
▁혜택이	-10.7838
▁성장할	-10.7838
▁움직임이	-10.7841
▁현직	-10.7843
▁서면	-10.7845
▁콜	-10.7845
점으로	-10.7847
▁생겼다	-10.7848
▁얼	-10.7849
▁걸린	-10.7849
▁조달	-10.7849
▁교육이	-10.7849
▁법관	-10.785
▁다문화	-10.7853
▁고가	-10.7854
▁기자가	-10.7854
▁떠난	-10.7856
▁개발에	-10.7857
▁가이드	-10.7857
▁수상했다	-10.7857
▁보도가	-10.7858
념	-10.7859
▁그중	-10.7861
▁계층	-10.7863
▁늦어	-10.7864
▁CEO	-10.7865
▁위주	-10.787
52	-10.7871
▁밀려	-10.7873
▁민선	-10.7874
처분	-10.7876
▁감사를	-10.788
▁원인으로	-10.7884
▁떨	-10.7887
영이	-10.7887
명에게	-10.7889
아파트	-10.789
▁취약	-10.789
문재인	-10.789
▁프리	-10.7892
준다	-10.7894
▁제시했다	-10.7894
▁피아노	-10.7894
릭	-10.7894
▁승진	-10.7895
▁측의	-10.7896
▁계단	-10.7897
▁관행	-10.7898
피해	-10.7899
▁관리가	-10.7901
▁뇌물	-10.7902
▁기사를	-10.7903
중심	-10.7905
▁신속하게	-10.7912
▁덮	-10.7913
▁제공해	-10.7914
▁결합	-10.7916
▁과거에	-10.7919
▁42	-10.7921
▁모른다	-10.7922
▁활동하고	-10.7922
▁중복	-10.7923
된다는	-10.7923
▁의문	-10.7924
▁모습이다	-10.7927
체육	-10.793
▁실력을	-10.793
▁대가	-10.793
대장	-10.7934
▁금방	-10.7935
▁그에	-10.7936
체계를	-10.794
▁높일	-10.7945
산업의	-10.7946
▁공략	-10.7946
▁위생	-10.795
▁않았다고	-10.795
x	-10.7952
상이	-10.7952
포인트	-10.7954
페이	-10.7956
▁재미	-10.7958
▁전투	-10.7958
급여	-10.7959
▁아픈	-10.7959
▁위축	-10.7961
▁찾	-10.7963
▁의원들이	-10.7964
▁인적	-10.7964
▁위에서	-10.7964
POP	-10.7966
▁복무	-10.7966
▁목포	-10.7967
편의	-10.7968
▁집권	-10.797
▁대비해	-10.7971
▁흥	-10.7976
▁해결할	-10.7977
▁맡았다	-10.7979
▁발의	-10.7983
▁이거는	-10.7983
▁기무사	-10.7983
▁당국이	-10.7984
▁무용	-10.7988
▁활발한	-10.7988
공공	-10.7992
일로	-10.7994
(19	-10.7994
▁좋아합니다	-10.7998
▁철수	-10.7999
▁오늘날	-10.7999
▁간판	-10.8003
55	-10.8003
▁병원에서	-10.8005
해지는	-10.8005
음식	-10.8006
▁거래가	-10.8006
▁막아	-10.8011
(20	-10.8012
▁사법부	-10.8015
▁근대	-10.8016
▁만든다	-10.8017
▁여성들이	-10.8018
▁신청할	-10.8021
바이오	-10.8021
▁지역이	-10.8021
▁못했던	-10.8024
▁대장	-10.8024
▁아니에요	-10.8025
▁예수님	-10.8026
▁반려동물	-10.8029
▁필요성이	-10.8032
▁1∼2	-10.8034
▁말이다	-10.8034
▁탈퇴	-10.8036
▁저감	-10.8039
둥	-10.804
▁단장	-10.8043
받았다	-10.8044
밤	-10.8045
으로써	-10.8045
▁민주	-10.8045
▁사람으로	-10.8046
였고	-10.8047
CC	-10.8048
▁극대화	-10.8049
▁헬기	-10.805
▁국가의	-10.8051
▁거대한	-10.8051
▁문화적	-10.8052
▁패턴	-10.8055
▁전액	-10.8058
징수	-10.806
▁추구	-10.806
▁매도	-10.8063
▁임무	-10.8064
▁할아버지	-10.8066
▁프로그램에	-10.8067
▁약속을	-10.8067
근로자	-10.8069
대비	-10.8071
▁많은데	-10.8073
▁2∼3	-10.8078
연합회	-10.808
국이	-10.8086
▁보여줄	-10.8087
▁이외에	-10.8087
▁예정된	-10.8088
▁주시기	-10.8091
▁우승을	-10.8093
▁회의는	-10.8097
▁오프라인	-10.81
▁쪽에	-10.81
▁했을	-10.81
▁BMW	-10.8101
▁억제	-10.8102
▁고개	-10.8103
▁첫째	-10.8104
▁자원봉사	-10.8108
▁내려가	-10.8121
▁일치	-10.8122
▁신청한	-10.8122
▁거는	-10.8124
▁이혼	-10.8126
▁싱글	-10.8126
▁구민의	-10.8127
▁부활	-10.8127
▁체류	-10.8129
▁간호사	-10.813
▁나서는	-10.813
▁강경	-10.8132
▁판단이	-10.8132
▁실적을	-10.8132
▁지원해	-10.8134
이니	-10.8134
센터를	-10.8137
▁상관없이	-10.8143
▁의료기관	-10.8144
▁결성	-10.8145
▁팀의	-10.8145
▁불편한	-10.8146
위원회는	-10.8146
▁알려주	-10.8146
만명이	-10.815
5,000	-10.8151
시킨다	-10.8151
▁저하	-10.8152
▁때보다	-10.8154
▁이걸	-10.8155
▁완벽한	-10.8156
▁연일	-10.8159
▁모습은	-10.816
▁오직	-10.8162
▁선보였다	-10.8163
▁건지	-10.8163
▁무역협상	-10.8166
▁이론	-10.8167
▁재건축	-10.8167
대교	-10.817
▁해외에서	-10.817
매체	-10.8177
청장	-10.818
▁승객	-10.8182
만원이	-10.8188
▁그곳에	-10.819
▁일본이	-10.819
▁효율적	-10.819
▁다음날	-10.8192
▁정황이	-10.8193
▁초점	-10.8194
▁일시	-10.8196
▁영입	-10.8197
▁수질	-10.8199
심이	-10.8199
더라	-10.82
▁상무	-10.82
▁넘기	-10.8201
▁기다리	-10.8202
▁위법	-10.8202
▁비타민	-10.8205
았던	-10.8207
▁이용하여	-10.8207
▁재발	-10.8207
▁번에	-10.821
▁흡연	-10.821
▁감정을	-10.8211
▁예정이라고	-10.8211
▁환경이	-10.8212
수입	-10.8215
▁커졌다	-10.8217
▁무인	-10.8218
▁구조조정	-10.822
▁남겨	-10.822
▁정하여	-10.8221
운영할	-10.8226
▁장기간	-10.8227
▁엔	-10.8231
▁조심	-10.8234
▁태양	-10.8237
▁구정	-10.8238
▁나타나는	-10.8241
▁최근에	-10.8246
부산	-10.8246
▁칸	-10.8248
▁않았어요	-10.8249
▁가족들	-10.8249
▁상대방	-10.825
▁서식에	-10.8254
▁추산	-10.8256
▁돌려	-10.8257
▁보여준	-10.826
▁학업	-10.8262
센터에서	-10.8262
▁면에서	-10.8262
▁성공한	-10.8264
굴	-10.8266
▁안전을	-10.8266
지면	-10.8266
▁권한을	-10.8267
▁높다는	-10.8267
▁위원장을	-10.8268
시고	-10.827
▁이해가	-10.8273
77	-10.8273
▁하나는	-10.8275
▁아마도	-10.8275
▁포함됐다	-10.8275
▁어르신	-10.8275
▁보조금을	-10.8277
▁알리	-10.828
되는데	-10.8282
▁않았	-10.8283
▁크림	-10.8284
▁국민청원	-10.8284
600	-10.8285
▁5,000	-10.8286
▁근거로	-10.8288
인구	-10.8289
▁운명	-10.8289
▁진행해	-10.829
▁최적	-10.8291
▁강화하고	-10.8293
역사	-10.8295
의결	-10.8295
▁구호	-10.8296
▁바라는	-10.8298
단을	-10.83
원에서	-10.8302
▁먹으면	-10.8302
수준	-10.8305
▁투쟁	-10.8307
▁확보한	-10.8309
▁믿음	-10.8309
지게	-10.8309
▁현실화	-10.831
딜	-10.831
▁공화당	-10.831
▁이르면	-10.8314
▁발생하고	-10.8315
▁뜻이다	-10.8318
직원	-10.8321
야말로	-10.8324
▁아니야	-10.8325
▁결정이	-10.8326
수요	-10.8327
▁세종시	-10.833
웠	-10.8331
▁해명	-10.8333
농업	-10.8334
▁탑	-10.8335
▁가시	-10.8336
▁조성을	-10.8338
▁적어도	-10.8339
▁활성화에	-10.8342
▁체크인	-10.8342
인사	-10.8343
▁최다	-10.8346
▁내리는	-10.8347
▁정규	-10.8349
▁대회에서	-10.8349
▁반대하는	-10.8349
광고	-10.8351
▁수강	-10.8353
▁행사에서	-10.8354
▁하시면	-10.8355
▁LA	-10.8356
▁보아	-10.8357
▁용도	-10.8357
▁주셔서	-10.8359
▁유지하고	-10.8359
▁업무에	-10.8361
박람회	-10.8362
▁줄여	-10.8362
▁유발	-10.8363
▁부부가	-10.8363
▁설치할	-10.8365
(7	-10.8366
▁반납	-10.8366
정원	-10.8366
▁용산구	-10.8367
▁없다면	-10.8368
구를	-10.837
▁이벤트를	-10.8371
▁막대	-10.8371
안에	-10.8372
▁통일부	-10.8373
▁웃음을	-10.8374
▁에이	-10.8374
▁입사	-10.8375
▁체결했다	-10.8375
▁견제	-10.8376
▁재능	-10.8376
▁재판을	-10.8383
내가	-10.8383
▁명동	-10.8384
▁선보인	-10.8384
놓	-10.8385
▁선택할	-10.8387
▁관장	-10.8388
▁보세요	-10.839
장소	-10.8392
자치	-10.8392
보증	-10.8393
▁선생	-10.8394
상에	-10.8394
▁즉각	-10.8395
부장	-10.8395
▁조항	-10.8399
▁프로젝트를	-10.8401
▁열리고	-10.8402
▁일반적인	-10.8404
나란히	-10.8406
▁2004	-10.8406
▁약화	-10.8407
▁시청률	-10.841
▁끌어	-10.841
▁안으로	-10.8413
▁정면	-10.8415
▁패스트트랙	-10.8416
▁3000	-10.8421
▁선택한	-10.8424
▁곽	-10.8425
이닝	-10.8427
▁휴일	-10.8429
▁국악	-10.8429
발생	-10.843
▁매력	-10.843
▁자리매김	-10.843
미터	-10.8431
▁제외한다	-10.8432
▁시설이	-10.8433
▁용어	-10.8436
64	-10.8436
49	-10.8436
샤	-10.8437
▁찾지	-10.8437
▁생기는	-10.8438
▁그만	-10.8441
▁석유	-10.8442
▁무역분쟁	-10.8444
▁피해자가	-10.8445
▁적용해	-10.8448
▁갑니다	-10.8449
▁참여한다	-10.8449
▁집계	-10.845
▁44	-10.8451
▁취업자	-10.8454
▁됩니까	-10.8455
▁출자	-10.8457
▁넣고	-10.8457
▁심판	-10.8457
▁오고	-10.8458
▁일종	-10.846
▁가공	-10.846
▁합의가	-10.8462
당국	-10.8465
▁읽고	-10.8468
▁고스란히	-10.8471
빌	-10.8471
▁리더십	-10.8471
▁퍼포먼스	-10.8474
▁중요하다고	-10.8476
▁말씀을	-10.8477
다리	-10.8478
▁활	-10.8478
▁연대	-10.8481
▁동시	-10.8483
▁생성	-10.8487
▁동부	-10.8487
▁통증	-10.8488
▁환승	-10.849
▁집값	-10.849
▁확인이	-10.849
▁업무협약	-10.8493
▁틈	-10.8493
비율	-10.8494
▁노동당	-10.8496
▁시대를	-10.8497
▁대상은	-10.8498
수당	-10.85
▁문화체육관광부	-10.8502
▁매수	-10.8503
▁프	-10.8505
▁포상금	-10.8505
▁들은	-10.8505
▁업	-10.8505
▁걷	-10.8506
▁채소	-10.8508
결제	-10.8509
▁정작	-10.851
▁저녁에	-10.8511
엔터테인먼트	-10.8512
없는	-10.8515
▁여름철	-10.8517
올해	-10.8519
65	-10.852
▁요구를	-10.852
▁조사결과	-10.8522
▁월드	-10.8524
▁교수님	-10.8524
▁선전	-10.8525
▁왔는데	-10.8526
▁화장	-10.8526
▁남북관계	-10.8528
정이	-10.8528
▁여비	-10.8529
▁올리는	-10.8529
등을	-10.853
료를	-10.853
▁인테리어	-10.8531
▁예외	-10.8534
▁알아보	-10.8535
▁바람에	-10.8535
▁입어	-10.8536
▁예수	-10.8537
▁창고	-10.8539
▁제안한	-10.854
▁토트넘	-10.8541
▁줄이기	-10.8545
▁상업	-10.8551
▁양승태	-10.8551
▁내외	-10.8554
▁딸이	-10.8555
▁혁신성장	-10.8555
▁집안	-10.8556
▁시민이	-10.8558
▁키워	-10.856
▁빌려	-10.856
▁부르	-10.8561
▁연설	-10.8562
▁공간으로	-10.8562
소가	-10.8564
목적	-10.8568
▁호평	-10.8571
▁2002	-10.8575
▁정서	-10.8575
▁파는	-10.8577
▁개선이	-10.8579
▁제작한	-10.858
▁공개됐다	-10.8581
▁김용	-10.8581
66	-10.8584
▁공감대	-10.8585
세트	-10.8586
▁소요되는	-10.8586
▁종합적	-10.8589
▁비슷	-10.859
▁수출이	-10.8592
▁느끼고	-10.8594
▁외모	-10.8594
▁기준금리	-10.8595
▁밑	-10.8596
▁국외	-10.8597
▁관계기관	-10.8598
▁독자	-10.8598
협상	-10.8603
ic	-10.8606
▁내수	-10.8612
▁방문할	-10.8612
▁결정한다	-10.8612
실장	-10.8613
▁옵션	-10.8613
업무를	-10.8613
▁육군	-10.8613
▁규정한	-10.8613
놓고	-10.8616
단의	-10.8619
▁구체적	-10.862
젤	-10.8622
▁결승	-10.8622
무역	-10.8622
▁시행에	-10.8623
▁말로	-10.8624
▁복잡한	-10.8625
▁시켜	-10.8626
▁정해진	-10.8627
할지	-10.8628
▁사회적기업	-10.8633
▁국무총리	-10.8634
되었던	-10.8634
▁아메리카노	-10.8634
▁저항	-10.8635
▁중반	-10.8637
억원에	-10.8638
였어요	-10.8639
곳을	-10.8642
육성	-10.8644
▁고객들	-10.8644
▁차량에	-10.8644
▁실종	-10.8646
▁책은	-10.865
▁전체가	-10.865
▁섬유	-10.8653
큐	-10.8656
▁설립한	-10.8658
▁금융당국	-10.8659
▁구성한다	-10.8659
▁도시재생	-10.866
▁제기된다	-10.866
▁전달했다	-10.8661
클럽	-10.8661
▁까	-10.8663
웠다	-10.8664
▁강동구	-10.8665
▁정산	-10.8666
▁90%	-10.8666
▁모델을	-10.8666
▁육아	-10.8668
자들은	-10.8668
이드	-10.8669
▁라면	-10.8669
▁임대료	-10.867
▁테마	-10.8672
▁전송	-10.8672
▁공적	-10.8673
릉	-10.8673
▁남경필	-10.8675
▁힘입어	-10.8675
▁대략	-10.8676
▁말은	-10.8677
▁합의한	-10.8677
▁넘어서	-10.8677
▁탈락	-10.8677
▁해지	-10.8678
▁삶	-10.8678
▁나누고	-10.8678
시설의	-10.868
램	-10.8682
집행	-10.8683
▁없던	-10.8686
▁증진	-10.8686
▁고대	-10.8687
▁면세점	-10.8688
▁이어져	-10.869
▁변화에	-10.8692
▁하시는	-10.8692
▁않았고	-10.8693
▁전후	-10.8693
▁예상했다	-10.8693
▁수습	-10.8693
경쟁	-10.8695
▁권한	-10.8698
▁연다	-10.8698
▁상당수	-10.87
삭	-10.8703
▁경기도의회	-10.8703
▁자칫	-10.8703
44	-10.8706
▁경찰의	-10.8706
▁비싸	-10.8708
최근	-10.8708
됐을	-10.8709
이었지만	-10.871
▁생각보다	-10.8711
▁기소된	-10.8714
▁관련이	-10.8715
랜	-10.8717
▁김포	-10.8719
핀	-10.872
▁아트	-10.8721
지역의	-10.8721
답	-10.8722
▁너와	-10.8723
▁방송을	-10.8724
▁초등학생	-10.8724
▁개관	-10.8725
▁중심이	-10.8725
▁시세	-10.8726
▁컵	-10.8727
▁원료	-10.8729
▁출	-10.8729
▁이해하고	-10.873
씨에게	-10.873
▁싶	-10.8732
▁흰색	-10.8732
▁마시고	-10.8732
▁조사가	-10.8736
▁줄이	-10.8737
된다면	-10.874
▁민간인	-10.8741
▁사로잡	-10.8743
▁군수	-10.8744
47	-10.8744
▁몰아	-10.8746
▁자꾸	-10.8746
▁부작용	-10.8747
▁고객에게	-10.8751
교실	-10.8755
▁횡령	-10.8756
▁선포	-10.8758
▁고수	-10.8759
▁어렵습니다	-10.876
▁처분을	-10.8761
▁예약을	-10.8762
책임	-10.8762
▁이들에게	-10.8762
▁무장	-10.8763
받고	-10.8764
천원	-10.8766
▁본부장	-10.8767
▁출동	-10.8769
▁선두	-10.8774
▁신흥국	-10.8774
▁관여	-10.8777
▁만났	-10.8779
▁돕기	-10.878
앙	-10.878
▁시상	-10.878
철도	-10.8781
▁중독	-10.8781
▁의제	-10.8782
재정	-10.8784
▁모양새	-10.8787
▁유학	-10.8788
▁퇴	-10.879
센터가	-10.879
▁확정된	-10.8791
▁보험료	-10.8791
▁분실	-10.8792
홍보	-10.8792
▁문화의	-10.8795
사업의	-10.8795
▁오르는	-10.8796
▁김민	-10.8796
▁경북도	-10.8797
▁조별리그	-10.88
▁때문으로	-10.8802
▁정치인	-10.8802
인천광역시	-10.8804
▁합쳐	-10.8804
▁흐	-10.8806
▁수차례	-10.8807
경비	-10.8808
됐기	-10.8809
▁센서	-10.8811
▁국산	-10.8812
41	-10.8812
▁맞아요	-10.8814
▁없었습니다	-10.8816
▁쥐	-10.882
▁자사	-10.8822
▁면허	-10.8822
상으로	-10.8824
▁돼서	-10.8826
▁판결이	-10.8826
▁끊이지	-10.8828
▁협박	-10.8829
▁강행	-10.883
▁배우는	-10.8831
▁꺼	-10.8832
▁한다면	-10.8833
하듯	-10.8835
▁응시	-10.8837
▁독점	-10.8837
▁이슬람	-10.8837
》	-10.8842
▁떼	-10.8842
▁검은색	-10.8843
▁확인된	-10.8846
▁산업통상자원부	-10.8846
▁보내주세요	-10.8846
뉴	-10.8847
부에	-10.8848
▁감소한	-10.8849
▁화합	-10.8853
▁라디오	-10.8854
▁골키퍼	-10.8856
▁성매매	-10.8857
▁정밀	-10.8858
▁맞이	-10.886
▁상해	-10.8862
▁현금으로	-10.8864
얼	-10.8867
▁생계	-10.8869
▁노동계	-10.887
▁희망을	-10.8871
▁기한	-10.8874
▁성공적인	-10.8875
▁행사장	-10.8877
팀장	-10.8881
▁이후에도	-10.8882
법원	-10.8882
만원으로	-10.8883
▁학과	-10.8883
▁될지	-10.8883
▁사진은	-10.8884
산업단지	-10.8885
▁개발을	-10.8888
▁걸리는	-10.8888
초등학교	-10.8889
▁이해관계	-10.889
지역에	-10.8892
▁입니다	-10.8898
▁환율	-10.8898
▁불거진	-10.8898
▁각호의	-10.8898
▁라이브	-10.89
렸습니다	-10.8906
at	-10.891
▁대량	-10.8911
▁나서고	-10.8913
님께서	-10.8914
▁의정부	-10.8916
▁필요성을	-10.8921
▁어른	-10.8925
▁주된	-10.8925
▁사망한	-10.8926
▁것이었다	-10.8928
▁충실	-10.8928
▁막판	-10.8935
▁파손	-10.8935
▁일할	-10.8938
▁연관	-10.8938
900	-10.8938
시장에서	-10.8938
테크	-10.894
▁춤을	-10.894
▁정당한	-10.8941
▁의존	-10.8943
▁수영장	-10.8945
▁세계적	-10.8945
▁선수단	-10.8946
▁나은	-10.8947
이던	-10.8949
▁중국어	-10.895
▁분산	-10.895
▁예정이며	-10.895
▁펼치고	-10.8951
(6	-10.8953
기간을	-10.8954
▁개막식	-10.8958
유치원	-10.8959
▁착공	-10.8959
성은	-10.8961
▁고객의	-10.8963
▁것만	-10.8967
▁애플리케이션	-10.8969
▁메르스	-10.8969
▁생각하지	-10.897
▁보험사	-10.897
▁입구	-10.8972
▁60%	-10.8975
▁산업의	-10.8978
▁중국은	-10.8979
▁수업이	-10.8981
▁윤리	-10.8982
▁편이다	-10.8983
700	-10.8984
▁자치	-10.8988
틴	-10.8989
▁살려	-10.899
▁소비자들이	-10.899
▁공정한	-10.8995
-0	-10.8995
되던	-10.8995
민의	-10.8996
▁설치하고	-10.8996
▁있기를	-10.8999
▁연방	-10.8999
건을	-10.9002
▁신고가	-10.9002
▁김경수	-10.9002
▁서양	-10.9003
▁빚	-10.9005
▁급락	-10.9013
▁국정	-10.9015
명령	-10.9015
▁경우에도	-10.9017
▁홀로	-10.9018
▁진심으로	-10.9019
▁똑같은	-10.902
▁주민등록	-10.9021
▁굽	-10.9022
▁해안	-10.9022
▁있었다는	-10.9023
▁패배	-10.9024
정책을	-10.9026
▁골목	-10.9026
줬	-10.9026
▁거둔	-10.9029
▁단위로	-10.903
▁연내	-10.9032
▁병역	-10.9033
▁정체성	-10.9033
▁구경	-10.9033
▁재해	-10.9034
▁추억	-10.9038
▁시청자	-10.9039
▁시사	-10.9039
▁받아들여	-10.9039
▁가로	-10.904
▁환자의	-10.9041
▁근절	-10.9042
▁효	-10.9042
▁불이익	-10.9042
▁닭	-10.9047
▁바르	-10.9048
▁행정부	-10.9049
▁희망하는	-10.9049
▁기본계획	-10.9051
▁나누는	-10.9052
▁넥센	-10.9054
에게도	-10.9055
▁성남시	-10.9055
▁무조건	-10.9057
▁배포	-10.9059
숲	-10.906
▁주고받	-10.9062
▁요구한	-10.9067
건축	-10.9068
▁주간	-10.9069
장관	-10.9072
▁회의록	-10.9072
▁데이트	-10.9073
▁교재	-10.9073
인에게	-10.9074
▁성희롱	-10.9075
▁드라마를	-10.9075
▁경찰관	-10.9077
▁확실한	-10.9077
▁대상을	-10.908
▁세금을	-10.908
밍	-10.9082
▁세상에	-10.9082
학기	-10.9082
셔서	-10.9084
▁날인	-10.9084
▁결정할	-10.9088
▁아닐	-10.9089
▁이루	-10.909
▁됐다고	-10.9091
▁상하이	-10.9095
▁해주	-10.9095
▁반품	-10.9096
▁업그레이드	-10.9097
▁쌓	-10.9099
▁되기를	-10.91
국장은	-10.91
▁재벌	-10.9102
▁들었습니다	-10.9103
▁인원이	-10.9107
▁유포	-10.9109
▁거세	-10.911
▁이루고	-10.9112
▁절차가	-10.9112
∼2	-10.9113
▁냉	-10.9114
▁개최된다	-10.9119
▁전국적으로	-10.912
▁생겨	-10.9121
▁반전	-10.9123
▁아름다움	-10.9126
▁25%	-10.9127
▁끝날	-10.9128
▁않다고	-10.9129
▁상자	-10.913
가정	-10.913
▁전세	-10.9132
▁군대	-10.9134
▁규제가	-10.9134
오늘	-10.9134
▁되는지	-10.9137
▁나누어	-10.9139
이었습니다	-10.9141
▁버닝썬	-10.9142
짓	-10.9142
연금	-10.9145
▁군인	-10.9148
▁건물이	-10.9148
▁보호자	-10.9149
▁DMZ	-10.9154
어가	-10.9154
▁개성공단	-10.9155
정보를	-10.9155
▁앞장서	-10.9158
▁민주당이	-10.9162
우스	-10.9165
문학	-10.9165
FC	-10.9166
잖아요	-10.9166
▁끝나는	-10.9166
▁계약서	-10.9167
꾼	-10.9168
원인	-10.9168
▁개장	-10.9169
▁업체들	-10.9169
▁이뤄지는	-10.9169
▁여섯	-10.9169
▁액션	-10.9169
▁방식이다	-10.917
▁포스터	-10.917
▁물어보	-10.917
-2	-10.9172
▁알리고	-10.9172
▁사회에	-10.9173
▁업체들이	-10.9174
▁해석된다	-10.9174
▁차장	-10.9174
▁걱정이	-10.9176
▁여수	-10.9176
융합	-10.9177
▁해킹	-10.9177
▁180	-10.9178
▁환전	-10.9178
▁기후변화	-10.918
정도	-10.9181
▁거뒀다	-10.9183
▁코너	-10.9184
▁내년도	-10.9186
59	-10.9186
▁원고	-10.9187
▁구미	-10.9188
국의	-10.9189
EU	-10.919
▁권장	-10.9199
▁동남아	-10.9199
▁가축	-10.9202
▁도착한	-10.9203
▁켜	-10.9203
스의	-10.9203
▁기억이	-10.9204
빵	-10.9205
▁언	-10.9206
▁후보는	-10.921
▁더해	-10.921
▁농장	-10.9213
했으면	-10.9214
▁차로	-10.9215
▁나오기	-10.9216
▁이뤄진다	-10.9221
▁지낸	-10.9221
▁추측	-10.9222
기업이	-10.9224
당이	-10.9224
▁세포	-10.9225
▁얼굴이	-10.9226
▁줍니다	-10.9227
에서부터	-10.9227
▁펼쳤다	-10.9228
▁쓰지	-10.9229
▁대전시	-10.9231
펜	-10.9231
▁대한민국의	-10.9234
▁젖	-10.9235
▁경찰서	-10.9237
▁타결	-10.9238
▁추천해	-10.9239
룩	-10.9241
▁유지할	-10.9242
▁도달	-10.9243
교육청	-10.9246
▁교원	-10.9249
▁줄이고	-10.9249
닉	-10.925
▁부모가	-10.9253
보세요	-10.9253
▁1990	-10.9256
▁시작하는	-10.9257
▁《	-10.926
▁본인의	-10.9261
▁경관	-10.9262
남북	-10.9263
몬	-10.9264
▁갤러리	-10.9265
킨	-10.9265
▁이어가고	-10.9265
티브	-10.9266
▁낳	-10.927
▁못하게	-10.9274
▁대사관	-10.9274
▁자립	-10.9275
▁베네수엘라	-10.9275
눈	-10.9276
▁음원	-10.9277
▁알지	-10.9278
▁지역구	-10.9281
담당관	-10.9285
▁제공하기	-10.9289
▁아직까지	-10.9291
▁괴	-10.9293
▁개최되는	-10.9293
▁맹	-10.9294
▁수술을	-10.9294
▁상정	-10.9295
▁입장이	-10.9296
▁개최한	-10.9297
던데	-10.9297
▁시작한다	-10.9299
▁도착할	-10.93
▁잃은	-10.93
▁스위스	-10.93
▁봐도	-10.93
▁가이드라인	-10.93
▁체력	-10.9304
▁나왔	-10.9306
▁쌓아	-10.9308
캠퍼스	-10.9309
▁3,000	-10.9309
▁않는다면	-10.9311
대사	-10.9312
▁모색	-10.9313
에스	-10.9315
▁편입	-10.9315
▁삶이	-10.9323
▁반입	-10.9324
▁마음으로	-10.9326
곳에	-10.9327
했었다	-10.9327
사례	-10.9327
천명	-10.9327
▁견해	-10.933
▁시작할	-10.933
▁특혜	-10.9331
▁강렬	-10.9333
▁오디션	-10.9336
▁치유	-10.9336
▁진영	-10.9337
▁영화관	-10.9338
▁농구	-10.934
▁중지	-10.934
▁말하기	-10.9341
이거나	-10.9342
▁합리적	-10.9344
▁전체의	-10.9345
달라고	-10.9346
▁탈출	-10.9346
업소	-10.9347
방향	-10.9348
전형	-10.9348
▁달한다	-10.935
▁흑	-10.9352
▁골라	-10.9352
▁태극기	-10.9354
▁순서	-10.9354
렁	-10.9359
▁영유아	-10.9359
▁철강	-10.936
▁지급하는	-10.936
Q	-10.9364
▁해석이	-10.9364
▁안심	-10.9365
▁공백	-10.9369
농가	-10.9369
▁셀	-10.937
였지만	-10.937
▁여론조사	-10.9371
▁한국영화	-10.9371
▁영등포구	-10.9372
재난	-10.9372
상은	-10.9375
▁거짓	-10.9376
▁분당	-10.9377
▁혜택	-10.9378
▁낮아	-10.9381
▁획득	-10.9383
▁팝	-10.9384
았습니다	-10.9385
▁수백	-10.9391
▁어렵게	-10.9393
▁화상	-10.9395
▁시계	-10.9399
▁변신	-10.9404
▁목사는	-10.9406
▁묘사	-10.941
▁최씨	-10.9413
▁엠	-10.9414
▁가족들이	-10.9415
▁장을	-10.9415
확인	-10.9415
▁노무현	-10.9415
▁오를	-10.9416
▁단일	-10.942
기업의	-10.9422
▁수준에	-10.9422
▁처방	-10.9423
▁읽어	-10.9423
▁실정이다	-10.9423
▁서민	-10.9423
님이	-10.9424
리지	-10.9424
▁줄일	-10.9424
56	-10.9426
촉	-10.9428
▁것이며	-10.9431
▁감상	-10.9431
▁서해	-10.9433
정지	-10.9434
▁청취	-10.9434
▁정책의	-10.9436
▁나라가	-10.9437
▁실망	-10.944
설계	-10.9441
▁펴	-10.9441
주셔서	-10.9443
▁졸	-10.9443
▁무상	-10.9443
▁동력	-10.9445
▁사태가	-10.9448
▁냉장고	-10.9448
▁아무도	-10.9449
▁시가	-10.945
▁착	-10.9451
▁과감	-10.9451
▁평창	-10.9452
▁표기	-10.9452
▁설치한	-10.9458
▁측에	-10.9464
▁나타난	-10.9465
▁많아요	-10.9466
▁책이	-10.9467
▁초래	-10.9468
역량	-10.947
짐	-10.9473
▁발간	-10.9474
▁부상을	-10.9478
▁당직	-10.9479
AR	-10.948
▁받으며	-10.948
▁국무장관	-10.9483
졌고	-10.9487
역에서	-10.9487
▁볼거리	-10.949
▁첫날	-10.9491
▁선보이는	-10.9492
▁확인을	-10.9492
린다	-10.9494
▁밝혔습니다	-10.9494
▁숙제	-10.9495
▁사회가	-10.9496
▁등재	-10.9497
▁대대적	-10.9499
▁많다는	-10.9501
▁대표적	-10.9502
미래	-10.9502
현이	-10.9504
▁감지	-10.9504
멸	-10.9504
▁류현진	-10.9507
▁초콜릿	-10.9507
▁프랜차이즈	-10.9513
▁치열	-10.9515
▁정할	-10.9516
▁수소	-10.9516
▁결심	-10.9517
▁직장인	-10.9517
▁건강에	-10.9517
▁떨어졌다	-10.9518
▁줄이는	-10.9519
사업이	-10.9522
▁아시아나항공	-10.9522
▁견인	-10.9524
▁신곡	-10.9531
▁경매	-10.9532
동이	-10.9533
▁복용	-10.9535
▁대안	-10.9536
▁빗	-10.9536
▁임상	-10.9536
▁부패	-10.9537
▁호기심	-10.9537
▁확대하고	-10.9538
▁애정	-10.9538
▁위치해	-10.954
▁국세청	-10.9541
▁의거	-10.9543
▁불가	-10.9546
▁찍	-10.9546
▁수량	-10.955
▁국장	-10.9551
▁누리	-10.9552
▁800	-10.9552
제작	-10.9553
▁바라보는	-10.9554
▁규칙으로	-10.9558
▁가리	-10.9558
계약을	-10.9559
0,000	-10.9561
▁성격이	-10.9563
▁예매	-10.9563
▁많을	-10.9565
▁제안을	-10.9567
▁얻는	-10.9567
▁비트코인	-10.9567
▁칭찬	-10.9568
▁사무총장	-10.9568
캠프	-10.9569
▁쳐	-10.957
▁합병	-10.9571
▁오해	-10.9573
춤	-10.9573
머리	-10.9576
▁패스	-10.9578
▁애니메이션	-10.9579
▁제기된	-10.958
▁증가세	-10.958
세포	-10.958
▁그릇	-10.9581
▁바이러스	-10.9581
▁대북제재	-10.9583
▁소득이	-10.9584
▁개최된	-10.9589
▁순환	-10.9589
▁재생	-10.959
▁결과는	-10.9596
▁천천히	-10.9597
▁미술관	-10.9599
여부를	-10.9599
장에게	-10.9601
▁청렴	-10.9604
▁논란에	-10.9606
▁남아있	-10.9607
스를	-10.9608
▁여부가	-10.961
▁기반을	-10.9613
동에	-10.9614
▁손님이	-10.9615
▁페이지	-10.9615
▁입장에서	-10.9617
팬	-10.9618
▁이후로	-10.9621
▁적발됐다	-10.9624
▁원입니다	-10.9626
▁농민	-10.9627
겠네요	-10.9628
▁창문	-10.9628
▁연료	-10.9629
▁흔히	-10.963
▁김상	-10.963
▁경제의	-10.963
▁수선	-10.9631
▁작가가	-10.9632
▁삼아	-10.9634
떡	-10.9639
▁고백	-10.964
▁국회가	-10.964
▁특별법	-10.9641
▁취하고	-10.9642
▁저출산	-10.9644
렸고	-10.9644
▁레이	-10.9648
▁총회	-10.9648
임대	-10.9649
▁접목	-10.9649
▁목적이	-10.9649
▁것들을	-10.965
▁설문조사	-10.9654
별로는	-10.9657
▁도구	-10.9659
▁부르는	-10.966
됐으나	-10.966
▁한국교회	-10.966
▁내놨다	-10.9661
소송	-10.9661
▁순으로	-10.9663
축구	-10.9663
▁보건소	-10.9663
▁폭염이	-10.9665
회담	-10.9665
▁여부에	-10.9669
▁커버	-10.967
▁지붕	-10.9675
▁전역	-10.9675
이었어요	-10.9675
보장	-10.9675
▁양육	-10.9679
▁출신의	-10.9679
▁실감	-10.968
▁경기도에서	-10.968
직을	-10.9681
보면	-10.9682
▁이른다	-10.9683
▁아이스	-10.9686
▁경기에	-10.9686
해드리겠습니다	-10.9686
▁실효성	-10.9687
듯이	-10.9689
▁월급	-10.9692
▁불리	-10.9694
▁주목받고	-10.9695
▁집중되고	-10.9695
▁꼽히는	-10.9698
맞	-10.9699
▁같아서	-10.97
▁이성	-10.9702
▁보복	-10.9708
▁청도	-10.9711
▁거라	-10.9712
▁2021	-10.9714
▁다들	-10.9715
▁한국에서는	-10.9716
▁땐	-10.9716
▁설치하는	-10.9718
▁시나리오	-10.9719
▁남한	-10.972
스와	-10.9721
아가	-10.9722
▁싸이	-10.9722
▁않는다고	-10.9723
▁공연은	-10.9725
▁길게	-10.9725
▁굳이	-10.9727
▁전무	-10.9727
▁반찬	-10.9727
규칙	-10.9727
치고	-10.9728
▁국회에	-10.9729
▁케이블	-10.973
▁실시했다	-10.9734
▁46	-10.9735
살이	-10.9736
▁가져오	-10.974
▁교정	-10.974
▁꼬	-10.9742
▁관람객들	-10.9743
▁솔	-10.9744
▁고등학생	-10.9748
▁왔	-10.9755
▁높아질	-10.9756
▁남편이	-10.9756
▁물에	-10.9756
▁장기화	-10.9756
▁구로구	-10.9759
▁업계에서	-10.9762
▁선택을	-10.9765
▁오사카	-10.9765
▁돼지고기	-10.9765
▁예쁜	-10.9766
▁같네요	-10.9767
이었고	-10.977
시설이	-10.9772
▁계신	-10.9773
▁등록된	-10.9774
▁모델이	-10.9775
▁민생	-10.9775
▁유연	-10.9777
▁함유	-10.9779
▁가득한	-10.978
▁평일	-10.9782
▁소식통	-10.9785
▁당황	-10.9786
▁행위가	-10.9788
43	-10.9788
▁열악한	-10.979
▁바뀐	-10.979
▁고생	-10.9791
▁간에	-10.9792
폐기물	-10.9793
▁과학기술정보통신부	-10.9796
▁경유	-10.9799
헤	-10.9801
▁강조한	-10.9802
▁마시	-10.9804
교수	-10.9807
카페	-10.9807
붙	-10.9808
▁기록하며	-10.9808
▁조합원	-10.9809
▁빅뱅	-10.9811
▁본선	-10.9811
▁실형	-10.9811
▁무척	-10.9816
▁불만이	-10.9816
책을	-10.9816
▁처음에는	-10.9816
▁정해	-10.9817
▁불교	-10.9818
▁법원행정처	-10.9819
차로	-10.982
▁승무원	-10.982
▁가격으로	-10.9821
▁잠시만	-10.9821
▁내부에서	-10.9827
▁손가락	-10.9827
▁배운	-10.9827
▁무렵	-10.9828
▁바쁘	-10.9828
▁찾아가는	-10.9828
▁높아졌다	-10.9829
▁추진해	-10.983
지난	-10.9834
▁압력	-10.9836
▁귀가	-10.9838
▁예배	-10.9838
▁완공	-10.984
▁결의	-10.9841
▁시행하는	-10.9842
▁뮤직비디오	-10.9842
▁태어나	-10.9842
▁자치구	-10.9843
▁요리를	-10.9848
▁전략적	-10.9849
▁저한테	-10.9849
▁추구하는	-10.9849
▁하도록	-10.9849
▁키우는	-10.985
▁유리한	-10.9852
▁잡는	-10.9855
▁기숙사	-10.9857
▁김진	-10.9858
▁적합	-10.9859
자본	-10.9859
▁중에서도	-10.986
▁문제의	-10.986
▁언제까지	-10.986
▁평소에	-10.9863
▁역전	-10.9867
▁못했습니다	-10.9867
▁전수	-10.9871
▁센	-10.9872
간다	-10.9873
▁출고	-10.9876
만대	-10.9879
▁무시	-10.9879
코드	-10.9881
▁드루킹	-10.9881
▁돌아오	-10.9883
▁지정한	-10.9883
▁체계적인	-10.9887
공유	-10.9888
▁혈	-10.9889
▁언제쯤	-10.9891
▁문화에	-10.9893
사장	-10.9895
▁외출	-10.9896
▁금액은	-10.9896
▁추락	-10.9896
▁쌍	-10.9898
져서	-10.9899
▁한국으로	-10.9902
▁이뤄지고	-10.9903
왔던	-10.9905
▁환호	-10.9913
▁중계	-10.9918
▁시스템이	-10.992
▁의무화	-10.9922
▁안정적으로	-10.9922
▁힘들다	-10.9923
▁보석	-10.9923
▁늦은	-10.9924
았	-10.9925
▁못한다	-10.9925
▁후기	-10.9925
▁보냈	-10.9926
▁흔들	-10.9927
▁부문에서	-10.9928
▁책정	-10.9929
▁시리아	-10.9929
▁41	-10.9929
톡	-10.9934
행하여야	-10.9935
▁비준	-10.9936
▁상권	-10.9938
▁양념	-10.9938
▁사건과	-10.9938
▁투약	-10.994
▁있었	-10.9941
▁지도부	-10.9941
대한	-10.9942
으려	-10.9942
▁요인이	-10.9943
▁접수된	-10.9944
▁장관과	-10.9945
58	-10.9945
▁공유하고	-10.9945
콘텐츠	-10.9949
▁조세	-10.995
▁일어날	-10.9951
▁라이	-10.9951
자리	-10.9954
▁모르겠어요	-10.9955
우가	-10.9955
졌지만	-10.9955
지급	-10.9957
▁되죠	-10.9957
▁시대의	-10.9957
▁책임자	-10.9958
▁공격수	-10.9958
▁방송된	-10.9959
음이	-10.9961
▁출구	-10.9964
제안	-10.9966
▁신기술	-10.9966
▁있으신가요	-10.9967
▁센터장	-10.9968
▁제기했다	-10.9968
▁보고서는	-10.9968
▁맞나요	-10.997
▁주어진다	-10.997
▁동구	-10.9971
ch	-10.9974
▁근무하는	-10.9974
군에	-10.9975
동안	-10.9977
▁이하로	-10.9978
▁일본에	-10.9982
▁생산성	-10.9987
이든	-10.9987
▁고민이	-10.9988
▁KB	-10.999
▁분석해	-10.9993
▁늘려	-10.9994
주를	-10.9994
▁작년에	-10.9996
▁입양	-10.9996
▁들어온	-10.9997
▁커다란	-10.9998
▁완벽	-11.0001
놓은	-11.0002
구가	-11.0003
박스	-11.0009
▁특강	-11.0009
▁상점	-11.0009
et	-11.001
원과	-11.0011
▁작전	-11.0013
▁일본은	-11.0014
▁재미있는	-11.0016
▁복음	-11.0017
▁태도를	-11.0017
진단	-11.0017
으세요	-11.0021
▁2003	-11.0023
▁궁금	-11.0023
▁대책이	-11.0025
끼리	-11.0027
▁옥상	-11.0027
▁대회에	-11.0027
▁문재인정부	-11.0029
▁국면	-11.0032
▁몫	-11.0033
▁연결하는	-11.0034
▁선교	-11.0034
켓	-11.0037
▁안정성	-11.0039
▁끝나	-11.004
▁사람들과	-11.0042
대전	-11.0043
▁고령화	-11.0043
▁소득주도성장	-11.0044
월말	-11.0045
▁배우자	-11.0046
시간에	-11.0049
▁금융감독원	-11.0053
▁있니	-11.0056
준비	-11.0057
▁했어	-11.0058
꼬	-11.006
▁썼다	-11.0061
▁속한	-11.0061
▁동양	-11.0061
▁강화하는	-11.0064
▁좋	-11.0064
▁투입해	-11.0065
57	-11.0069
▁심의위원회	-11.007
▁만나고	-11.007
▁후회	-11.0072
▁유효	-11.0072
el	-11.0076
▁챔피언	-11.0078
▁자신에게	-11.008
▁1980	-11.0081
▁공로	-11.0083
▁잇는	-11.0084
▁후에도	-11.009
▁공군	-11.009
67	-11.0091
▁살아가는	-11.0092
▁추첨	-11.0093
▁가시면	-11.0093
자료를	-11.0093
▁했으나	-11.0096
▁블루	-11.0097
▁허락	-11.0097
▁편이	-11.0097
▁카자흐스탄	-11.0098
▁메모리	-11.0099
▁산책	-11.01
▁활용하는	-11.01
▁노력하고	-11.01
▁유독	-11.0102
신속한	-11.0102
치기	-11.0103
▁언론에	-11.0104
▁교복	-11.0108
잉	-11.0108
▁드러난	-11.0109
▁김성태	-11.0111
▁잠실	-11.0113
▁가르쳐	-11.0113
▁싶다는	-11.0114
▁증가할	-11.0115
▁많았고	-11.0118
▁스트레스를	-11.012
▁트럭	-11.0122
▁물건이	-11.0123
▁웹사이트	-11.0124
▁전체적으로	-11.0125
▁갑	-11.0125
▁환수	-11.0126
▁이어진다	-11.0127
▁갖	-11.0127
책임자	-11.013
▁나타나고	-11.0133
랄	-11.0134
▁업계의	-11.0138
▁공무원의	-11.0139
▁컨테이너	-11.014
▁축제가	-11.0141
▁가능하고	-11.0141
실에	-11.0143
▁받으면	-11.0147
실이	-11.0147
안정	-11.015
46	-11.0151
부의	-11.0151
▁안전하고	-11.0151
▁뒤집	-11.0151
▁고통을	-11.0152
▁전반적인	-11.0152
▁용인시	-11.0154
동물	-11.0155
▁느껴	-11.0155
▁태어난	-11.0156
▁가죽	-11.0158
▁있죠	-11.0159
▁서대문구	-11.0159
행동	-11.0159
▁구성되어	-11.0161
노동자	-11.0162
▁소매	-11.0163
주시면	-11.0165
▁발부	-11.0167
▁금융위기	-11.0171
▁줘	-11.0171
▁요구하고	-11.0171
사에서	-11.0172
▁경영진	-11.0172
통일	-11.0172
▁축구대표팀	-11.0173
▁시작되는	-11.0174
▁가중	-11.0175
▁채우	-11.0176
▁신원	-11.0176
▁양도	-11.0177
▁700	-11.0179
▁남용	-11.018
▁맞습니다	-11.0181
▁의미한다	-11.0183
▁국무위원장의	-11.0186
▁공사가	-11.0187
▁이정	-11.0187
레스	-11.0187
괴	-11.0187
▁핀테크	-11.0188
▁가능할까요	-11.0189
▁없으며	-11.0191
▁대금	-11.0193
▁숨졌다	-11.0194
▁신세계	-11.0195
▁무대에서	-11.0197
▁선배	-11.0198
▁나라에서	-11.0201
▁서울시는	-11.0202
▁오후에	-11.0203
▁넓어	-11.0204
▁국정원	-11.0206
▁금연	-11.0206
▁직접적인	-11.0207
▁공지	-11.0207
▁올해도	-11.0207
▁제품들	-11.0208
▁기본적으로	-11.0208
운반	-11.021
▁먹기	-11.0213
▁능	-11.0213
▁추진하기	-11.0215
▁인력을	-11.0215
▁사랑의	-11.0215
트로	-11.0215
▁웃음	-11.0217
▁합리적인	-11.0217
▁하실	-11.0217
▁관람객	-11.0218
수수료	-11.0222
전환	-11.0222
▁괜찮아요	-11.0224
▁모르	-11.0224
▁자제	-11.0226
▁어릴	-11.0226
▁떡볶이	-11.0231
▁실시간으로	-11.0232
▁가져다	-11.0232
▁지속될	-11.0235
드라마	-11.0235
▁짐을	-11.0236
▁감소했다	-11.0236
▁벌어졌다	-11.0237
▁위상	-11.0238
투표	-11.0238
낙	-11.0239
▁47	-11.024
학자	-11.0242
▁재현	-11.0243
▁때문이라고	-11.0248
▁민주평화당	-11.0252
88	-11.0254
시나요	-11.0256
▁아프	-11.0257
▁가자	-11.0257
▁텔레비전	-11.0258
줬다	-11.0258
사인	-11.0262
▁거두	-11.0262
▁비공개	-11.0263
▁극단	-11.0266
▁권위	-11.0266
▁소수	-11.0266
▁사회적경제	-11.0267
68	-11.027
▁피고인	-11.0271
▁협력해	-11.0271
지침	-11.0272
▁업소	-11.0273
합니까	-11.0273
▁고유	-11.0273
복합	-11.0277
▁쟁점	-11.028
협정	-11.0282
▁고객들이	-11.0284
▁농협	-11.0285
▁독도	-11.0285
팝	-11.0288
▁세무	-11.0288
코스	-11.0289
▁가족의	-11.0289
▁동해	-11.0291
▁다양하게	-11.0291
▁편리하게	-11.0292
▁학생의	-11.0292
▁판단을	-11.0296
립니다	-11.0298
▁국내에	-11.0301
층이	-11.0301
▁노트북	-11.0301
▁변호사가	-11.0302
▁바쁜	-11.0302
▁혼자서	-11.0305
▁수익률	-11.0305
▁감각	-11.0306
안보	-11.0306
▁무단	-11.0307
▁제보	-11.0309
▁최우수	-11.031
▁올리	-11.0311
▁자재	-11.0311
마당	-11.0312
▁지원금	-11.0312
센터는	-11.0312
▁보도에	-11.0312
▁가전	-11.0314
▁개인이	-11.0314
딘	-11.0317
▁확립	-11.0318
▁미래에	-11.0319
나눔	-11.0321
▁총재	-11.0322
▁난다	-11.0322
▁질의	-11.0324
▁봐요	-11.0325
▁서면으로	-11.0328
▁남자가	-11.0329
▁맺은	-11.0333
▁침수	-11.0334
▁수상자	-11.0334
▁비건	-11.0336
故	-11.0337
공동체	-11.0338
▁확보를	-11.034
▁갖추	-11.0341
▁나지	-11.0342
▁긍정적으로	-11.0343
▁내용이다	-11.0343
▁문화원	-11.0346
▁답장	-11.0347
▁용산	-11.0348
▁효과적으로	-11.0348
하셔서	-11.0348
▁주연	-11.0348
IS	-11.0351
론이	-11.0352
▁거리에	-11.0352
건물	-11.0353
▁소개하고	-11.0356
▁이용이	-11.0356
마크	-11.0357
더라고요	-11.036
▁용이	-11.036
▁한창	-11.0361
▁연도	-11.0365
▁주최하는	-11.0365
75	-11.0366
▁와이파이	-11.0366
▁구조를	-11.0367
득점	-11.0367
드릴게요	-11.0368
▁연구팀	-11.0369
▁내면	-11.0369
▁타이	-11.037
▁올해로	-11.0373
▁상향	-11.0374
▁한달	-11.0374
▁정기적으로	-11.0374
▁군산	-11.0375
줘	-11.0377
수술	-11.0378
범위	-11.0381
채용	-11.0382
▁소개하는	-11.0382
인원	-11.0384
▁신청자	-11.0386
핵	-11.0386
수로	-11.0389
▁벤투	-11.039
▁집이	-11.039
▁청소년들이	-11.0391
▁고려할	-11.0391
▁시원한	-11.0392
▁매운	-11.0394
▁상주	-11.0394
▁현대자동차	-11.0394
렸던	-11.0395
▁저자	-11.0396
▁모은다	-11.0398
▁시드니	-11.0398
▁타당성	-11.0399
▁겨울철	-11.0403
신도시	-11.0404
▁참여가	-11.0407
▁프로그램으로	-11.0407
▁완벽하게	-11.0408
▁상의	-11.0409
운전	-11.0411
▁생기	-11.0411
▁명성	-11.0411
▁건강보험	-11.0417
▁해고	-11.0419
▁위안부	-11.042
▁구두	-11.0421
▁보시면	-11.0422
▁확대될	-11.0422
▁반박	-11.0424
▁장소에	-11.0424
▁형제	-11.0426
▁반영한	-11.043
▁지문	-11.0433
▁자발적	-11.0433
▁마당	-11.0434
▁들어오	-11.0438
▁전반적으로	-11.0439
▁치고	-11.0441
▁결정한	-11.0442
▁있었어	-11.0443
▁서울과	-11.0443
▁어울리는	-11.0443
▁뛰	-11.0444
자문	-11.0444
▁발생한다	-11.0445
▁사회를	-11.0445
▁모델로	-11.0446
▁띠	-11.0446
▁프로모션	-11.0448
덴	-11.0448
미술	-11.0448
▁체감	-11.0451
▁의무를	-11.0452
▁갖는다	-11.0454
▁하죠	-11.0454
▁관점에서	-11.0455
럼	-11.0457
▁마르	-11.0458
합의	-11.0459
▁사후	-11.0459
▁하원	-11.0459
▁국회의장	-11.046
▁그곳에서	-11.0462
▁해줄	-11.0462
▁충분	-11.0464
▁감안해	-11.0464
▁최우선	-11.0465
▁페이스북에	-11.0466
▁협의체	-11.0467
▁담보	-11.0467
자격	-11.0468
▁의혹과	-11.0469
▁선정한	-11.0473
▁표면	-11.0475
▁합의했다	-11.0478
머니	-11.048
▁매장에서	-11.048
▁급속	-11.048
렛	-11.048
▁선보일	-11.0481
소재	-11.0481
▁등도	-11.0481
%	-11.0482
▁내륙	-11.0482
▁제작진	-11.0487
▁신장	-11.0489
▁쿠	-11.0489
▁고성	-11.0489
▁약세	-11.049
이익	-11.0492
▁드러내	-11.0492
▁양보	-11.0493
재판	-11.0493
▁박사	-11.0496
▁악취	-11.0498
▁무엇인가요	-11.05
승인	-11.0502
▁사인	-11.0503
▁원합니다	-11.0504
배우	-11.0505
렉	-11.0508
▁구성해	-11.051
▁듣기	-11.051
부대	-11.0513
▁화이트	-11.0514
▁정도다	-11.0516
▁절약	-11.0519
▁첨부하여	-11.0519
▁5%	-11.052
▁처리하기	-11.0522
▁전문기관	-11.0523
▁불가능하다	-11.0523
▁부각	-11.0523
협약	-11.0525
▁나섰	-11.0526
▁밖에서	-11.0528
▁이뤄	-11.0529
협회가	-11.053
▁성사	-11.0531
▁불가피	-11.0531
▁살짝	-11.0531
▁붙어	-11.0533
▁쪽에서	-11.0534
협의체	-11.0537
▁공시가격	-11.0542
▁말하고	-11.0542
▁실력이	-11.0544
▁자녀가	-11.0548
▁밝혀졌다	-11.0548
하기를	-11.0549
생활을	-11.055
▁괜찮은	-11.055
▁확인하는	-11.0555
▁맛있	-11.0555
▁뚜렷한	-11.0557
▁일부가	-11.056
팀을	-11.056
▁회동	-11.0564
▁상품권	-11.0565
▁도정	-11.0571
▁방이	-11.0573
▁안양	-11.0573
▁유지하는	-11.0574
논	-11.0575
▁신기	-11.0578
▁디자인을	-11.058
▁네덜란드	-11.058
▁무언가	-11.058
▁질서	-11.0581
▁직원을	-11.0583
IC	-11.0584
▁골을	-11.0591
비와	-11.0593
어로	-11.0596
▁메이크업	-11.0597
▁일으킨	-11.0597
자마자	-11.0597
▁눈빛	-11.0599
하긴	-11.0599
지방자치법	-11.06
▁사연	-11.0602
▁산업이	-11.0603
▁활동하는	-11.0606
▁번호를	-11.0606
▁친절	-11.0609
▁취할	-11.061
금지	-11.0613
▁있었는지	-11.0614
▁대륙	-11.0618
▁추후	-11.0618
▁펜	-11.0624
▁일어나는	-11.0625
▁남측	-11.0627
▁방문을	-11.0628
▁멀	-11.0629
효과	-11.063
▁언제든지	-11.063
▁운동이	-11.0633
인데요	-11.0634
▁분기	-11.0635
▁문화와	-11.0637
▁제기되고	-11.0639
▁오기	-11.0639
▁쉽고	-11.0639
▁일상생활	-11.0642
해양	-11.0643
▁고지	-11.0645
▁엔터테인먼트	-11.0645
▁봉투	-11.0647
▁걸렸다	-11.0647
▁아이스크림	-11.0647
▁저지른	-11.0647
▁금융위원회	-11.0649
▁기술과	-11.065
보니	-11.065
▁범위를	-11.0651
▁예전에	-11.0654
▁종일	-11.0655
시장은	-11.0657
▁과제를	-11.0659
종의	-11.0659
▁가족을	-11.066
▁반성	-11.0661
▁중심에	-11.0662
▁삼성바이오로직스	-11.0664
▁미친	-11.0666
치가	-11.0667
▁이슈가	-11.0667
▁폭우	-11.0669
음에도	-11.0669
▁환경에서	-11.0671
▁사이즈가	-11.0671
▁제휴	-11.0673
▁수요일	-11.0673
▁광화문	-11.0673
▁이동통신	-11.0676
▁봅니다	-11.0677
▁거대	-11.0679
▁한꺼번에	-11.068
▁명확히	-11.0682
화학	-11.0683
▁판단해	-11.0685
▁외면	-11.0686
▁매출액	-11.0687
▁FA	-11.0688
▁효과적인	-11.0689
▁공정성	-11.0689
▁쉬는	-11.0689
▁단서	-11.069
▁지은	-11.0691
▁경기도청	-11.0691
▁기다리는	-11.0692
보전	-11.0692
▁인상이	-11.0694
▁코스피	-11.0696
▁빛을	-11.0696
▁수사권	-11.0697
▁티셔츠	-11.0697
▁투자유치	-11.0699
▁노력할	-11.0699
▁시대가	-11.0702
▁저지	-11.0703
▁여는	-11.0704
▁공세	-11.0706
▁빨	-11.0706
▁찾았	-11.0709
▁기사가	-11.0712
▁방침을	-11.0714
▁온실가스	-11.0714
▁무더위	-11.0714
심사를	-11.0715
▁혐오	-11.0718
▁선생님이	-11.0718
▁간다	-11.072
경이	-11.0726
▁입장에서는	-11.0728
율을	-11.0728
▁부족해	-11.0731
점에서	-11.0731
택시	-11.0736
▁의료진	-11.0736
▁발언이	-11.0739
▁정수	-11.074
▁공급이	-11.0742
▁타는	-11.0742
혹	-11.0745
▁화성시	-11.0746
▁공판	-11.0746
▁언젠가	-11.0748
▁푸틴	-11.0748
플레이	-11.0749
▁저소득	-11.0749
▁일선	-11.075
▁관광객들이	-11.0754
▁제공된다	-11.0757
▁사회에서	-11.0757
▁통계청	-11.0758
▁130	-11.0758
▁연기가	-11.0759
▁총수	-11.076
▁진행되며	-11.0761
▁갑질	-11.0761
▁살기	-11.0762
▁마련하고	-11.0762
▁출력	-11.0762
▁연계해	-11.0764
▁대학에	-11.0764
is	-11.0764
▁스캔들	-11.0764
▁부드러운	-11.0765
▁객관적	-11.0765
▁도주	-11.0766
▁다해	-11.0767
▁쉴	-11.0768
▁기량	-11.0768
▁헌신	-11.0769
팩	-11.0771
▁대목이다	-11.0772
▁시간과	-11.0772
▁장려	-11.0772
▁학계	-11.0773
▁접할	-11.0773
▁속속	-11.0775
망이	-11.078
으니까	-11.0781
▁자랑하는	-11.0782
샵	-11.0782
▁드디어	-11.0782
▁오리	-11.0783
대금	-11.0783
▁남북이	-11.0785
▁신청이	-11.0786
▁지금의	-11.0786
▁부산광역시	-11.0787
▁고려한	-11.0787
▁곤	-11.0791
▁의약품	-11.0792
▁고인	-11.0793
▁약물	-11.0794
▁공표	-11.0795
▁지분을	-11.0795
▁펼칠	-11.0799
팔렘방	-11.0799
수원	-11.0801
▁고위급	-11.0803
54	-11.0803
▁눈치	-11.0805
왔	-11.0805
▁투명성	-11.0807
▁아이의	-11.0808
▁행진	-11.0808
▁금융회사	-11.0809
다운	-11.0812
일로부터	-11.0813
▁일어났	-11.0813
▁지목	-11.0815
▁현역	-11.0815
▁신선한	-11.0816
▁예상보다	-11.0816
▁뽑아	-11.0816
▁다음으로	-11.0817
▁기원	-11.082
▁가계	-11.0822
스코	-11.0823
▁문제와	-11.0826
공정	-11.0827
모임	-11.0828
▁본청	-11.083
▁적게	-11.0831
▁취지로	-11.0832
▁위험한	-11.0833
펠	-11.0833
구매	-11.0834
▁일도	-11.0834
▁드라마가	-11.0835
▁처리할	-11.0839
85	-11.0839
▁하는데요	-11.0841
외교	-11.0848
세로	-11.085
▁일괄	-11.0851
▁못하면	-11.0853
▁구제역	-11.0853
▁시일	-11.0853
▁악재	-11.0855
MA	-11.0857
▁있어도	-11.0857
시스템을	-11.0858
▁포도	-11.0859
▁흙	-11.0861
▁올리고	-11.0861
▁작품은	-11.0863
▁양상	-11.0864
▁콘	-11.0866
▁에스	-11.0866
84	-11.0868
▁그쳤다	-11.087
▁추세다	-11.087
▁미치지	-11.0872
▁당했다	-11.0872
▁사용되는	-11.0874
▁반영해	-11.0874
▁바이	-11.0875
▁좋게	-11.0875
▁교통안전	-11.0876
▁책상	-11.0877
▁바꾸는	-11.0879
▁전격	-11.088
▁사진과	-11.0882
▁제조사	-11.0885
이므로	-11.0886
▁마쳤다	-11.0887
▁지사의	-11.089
▁주최한	-11.089
총장	-11.089
양이	-11.0893
▁어린이들이	-11.0894
▁내리고	-11.0895
▁사내	-11.0896
▁이승	-11.0898
▁신선	-11.0898
▁견적	-11.0898
▁주장하고	-11.0899
셨어요	-11.0899
됐는데	-11.0899
▁어렵고	-11.0901
▁넘겨	-11.0901
튜	-11.0901
아웃	-11.0903
▁등장하는	-11.0904
▁파주시	-11.0905
▁자유한국당이	-11.0907
DC	-11.0909
99	-11.091
▁밖	-11.0911
▁바라요	-11.0912
▁목요일	-11.0912
▁공직자	-11.0916
▁올라오	-11.0917
▁그녀를	-11.0919
▁김동연	-11.0922
▁들어와	-11.0925
▁축사	-11.0925
▁나오면	-11.0926
우는	-11.0929
트가	-11.093
망을	-11.0932
▁감자	-11.0932
▁시민의	-11.0933
▁전인	-11.0934
▁어디에서	-11.0935
▁떨어질	-11.0937
▁도와주	-11.0937
▁상인	-11.0939
▁2001	-11.0942
▁중순	-11.0943
▁등에게	-11.0943
▁당내	-11.0945
▁영업이익	-11.0945
▁대법원장이	-11.0946
▁해변	-11.0946
▁무선	-11.0947
▁급증	-11.0947
▁같은데요	-11.0947
▁공부하는	-11.0947
▁아니하다	-11.095
▁길에	-11.095
의견	-11.0952
▁연동	-11.0954
▁방역	-11.0954
▁벤처	-11.0954
▁누릴	-11.0955
▁가능하세요	-11.0956
MS	-11.0957
전기	-11.0957
▁요즘은	-11.0958
▁업체에	-11.0962
▁개발이	-11.0963
▁어때	-11.097
▁개선에	-11.0971
▁주식을	-11.0974
▁않나요	-11.0974
2000	-11.0974
주실	-11.0974
▁시점에	-11.0975
▁포즈	-11.0977
의무	-11.098
▁이영	-11.098
▁우려도	-11.0981
▁산출	-11.0984
▁체계적으로	-11.0985
▁자격이	-11.0985
▁농업인	-11.0986
▁마트	-11.0987
▁영구	-11.0988
▁수탁	-11.0988
▁나타날	-11.0988
▁대화가	-11.0989
▁토론토	-11.0991
▁간절	-11.0992
▁모르겠다	-11.0992
▁활기	-11.1001
▁51	-11.1001
▁양질	-11.1002
▁지나면	-11.1003
▁경제에	-11.1004
▁의사소통	-11.1006
▁알려지면서	-11.1006
▁이외의	-11.1008
▁앤	-11.1012
▁들었어요	-11.1013
▁가상	-11.1016
▁유인	-11.1018
아시아	-11.1018
▁슛	-11.1018
▁경쟁력이	-11.1019
▁공휴일	-11.1022
▁그러한	-11.1022
트를	-11.1023
▁나타냈다	-11.1023
▁있으세요	-11.1023
▁핫	-11.1023
▁단체가	-11.1025
▁누락	-11.1025
지역에서	-11.1027
▁먹이	-11.1028
▁기자회견에서	-11.1029
▁구매한	-11.103
▁코스닥	-11.103
▁부당한	-11.103
▁잇	-11.1031
됐는지	-11.1032
▁사육	-11.1032
글로벌	-11.1033
▁다양성	-11.1034
▁듯하다	-11.1034
마켓	-11.1035
▁경제정책	-11.104
▁공정거래위원회	-11.104
▁재학	-11.1042
▁저번	-11.1045
▁복잡	-11.1047
▁우리은행	-11.1049
▁제조업체	-11.105
▁75	-11.1052
▁인증을	-11.1054
사람	-11.1056
▁인스타그램	-11.1056
▁아니었다	-11.1057
현황	-11.1058
▁중이던	-11.1058
▁열쇠	-11.1059
▁적힌	-11.106
▁창업자	-11.106
▁중학생	-11.1062
▁PD	-11.1063
▁혈액	-11.1063
▁감사하겠습니다	-11.1064
▁공조	-11.1066
78	-11.1066
▁프로그램이다	-11.1067
▁영하	-11.1067
단장	-11.1067
▁성분이	-11.1069
▁춘천	-11.1071
▁출연한	-11.1071
▁의하면	-11.1073
끊	-11.1074
▁겪은	-11.1075
▁크로스	-11.1075
▁여름에	-11.1077
▁보고서에	-11.1078
▁제어	-11.1081
▁환경에	-11.1081
▁세계의	-11.1083
닥	-11.1085
▁가능하다는	-11.1088
▁취약한	-11.1089
골을	-11.109
▁세입	-11.109
▁상속	-11.109
▁동화	-11.1091
버린	-11.1092
▁청탁	-11.1092
정부가	-11.1096
▁자에게	-11.1097
▁재개발	-11.1098
▁흰	-11.11
▁주위	-11.1102
과학기술	-11.1103
밭	-11.1104
활성화	-11.1104
▁곰	-11.1105
▁형식으로	-11.1109
▁공중	-11.111
▁정신을	-11.111
▁마련할	-11.111
▁정준영	-11.1111
▁만나서	-11.1111
▁내용으로	-11.1112
▁리콜	-11.1112
▁들었	-11.1113
▁부근	-11.1114
▁어때요	-11.1115
▁타임	-11.1116
▁성황리	-11.1119
▁여사	-11.1122
▁약속했다	-11.1125
▁독립운동	-11.1126
▁자율주행	-11.1127
랭	-11.1127
▁자발적으로	-11.1128
▁많기	-11.1131
▁불참	-11.1131
▁비롯하여	-11.1132
▁꼽았다	-11.1132
76	-11.1133
▁타자	-11.1135
▁걸고	-11.1136
▁유기	-11.1136
▁지방정부	-11.1137
▁시기를	-11.1138
▁호남	-11.1138
캐	-11.1139
수의	-11.1142
됐	-11.1143
▁좋다고	-11.1144
회계	-11.1146
▁펜션	-11.1146
시장이	-11.1148
▁되세요	-11.115
▁교과서	-11.115
▁이후에는	-11.1153
▁고전	-11.1154
▁대목	-11.1156
▁모집한다	-11.1158
기본법	-11.116
▁검은	-11.1161
▁여주	-11.1161
▁전당대회	-11.1163
▁줄어드는	-11.1163
▁정신적	-11.1164
▁적용할	-11.1165
▁중이에요	-11.1165
▁인천공항	-11.1166
▁수비수	-11.1166
42	-11.1166
▁조사할	-11.1167
패를	-11.1168
▁장착	-11.1169
이스	-11.1169
▁계란	-11.1169
▁어렵다고	-11.1172
▁계시	-11.1172
▁비서실장	-11.1173
분부터	-11.1176
▁연령대	-11.1178
▁인보이스	-11.118
▁경기도농업기술원	-11.118
▁출퇴근	-11.1181
▁제임스	-11.1181
▁자료가	-11.1183
▁재미있	-11.1184
텔	-11.1184
▁이밖에	-11.1185
▁팬들에게	-11.1186
▁결과로	-11.1187
▁잉글랜드	-11.119
갔	-11.119
실을	-11.119
▁책임감	-11.1194
▁보이며	-11.1194
▁청소년들	-11.1195
▁젊은이들	-11.1197
▁인명피해	-11.1198
▁무너지	-11.1198
▁청년들이	-11.1199
▁간식	-11.12
▁출간	-11.1201
▁지자체가	-11.1203
▁과도	-11.1203
▁너한테	-11.1203
▁오시면	-11.1205
▁넷플릭스	-11.1206
▁느낀	-11.1206
▁제공한	-11.1209
윈	-11.1209
▁KBO	-11.1209
브랜드	-11.1209
생명	-11.1209
체가	-11.121
▁일산	-11.121
▁느꼈	-11.1212
▁관심사	-11.1213
청이	-11.1214
▁블로그	-11.1216
▁손쉽게	-11.1216
시아	-11.1217
▁고용부	-11.1218
▁피로	-11.1222
▁운영되고	-11.1224
▁감사원	-11.1226
▁석방	-11.1227
해진다	-11.1227
▁사용하여	-11.1233
▁스타벅스	-11.1234
▁도민의	-11.1238
▁녹음	-11.1239
▁대학이	-11.124
▁저번에	-11.1241
▁발표된	-11.1243
▁해산	-11.1247
▁회피	-11.1248
청사	-11.1249
▁최고경영자	-11.1251
▁부사장	-11.1252
▁샤워	-11.1252
민원	-11.1252
▁꽉	-11.1254
럴	-11.1254
대구	-11.1255
▁중대한	-11.1257
▁잡기	-11.1258
▁폴	-11.1258
▁선별	-11.1259
▁모니터	-11.126
보관	-11.126
▁손으로	-11.1261
▁설치해	-11.1261
▁우린	-11.1261
▁감동을	-11.1262
▁차지한	-11.1263
▁조국	-11.1264
▁해경	-11.1264
무늬	-11.1265
▁성장이	-11.1267
▁골프장	-11.1271
▁파마	-11.1273
▁단가	-11.1273
▁생산하는	-11.1276
▁접수한	-11.1276
▁늘리는	-11.1277
▁인정한	-11.1279
▁해임	-11.1279
▁입주자	-11.128
▁FTA	-11.1281
▁원정	-11.1284
▁싶어서	-11.1286
▁인사들이	-11.1286
▁시티	-11.1287
▁심의회	-11.1288
▁맞춘	-11.1289
▁주십시오	-11.1289
▁들려	-11.1294
▁먹어	-11.1294
▁아래와	-11.1296
▁떨어졌	-11.1296
사항이	-11.1297
▁참가하는	-11.1298
세력	-11.1298
69	-11.1299
▁들어간다	-11.1301
▁가벼운	-11.1305
▁두려움	-11.1305
▁삼겹살	-11.1305
▁백신	-11.1305
▁소셜	-11.1306
▁더블	-11.1307
▁올랐	-11.1308
과목	-11.1308
▁사법농단	-11.1312
▁구는	-11.1314
▁아이들에게	-11.1315
잠	-11.1317
▁목사가	-11.1321
▁해주는	-11.1321
▁결렬	-11.1324
▁장소로	-11.1324
진흥원	-11.1325
▁상실	-11.1326
▁월요일에	-11.1326
▁사서	-11.133
▁여러분이	-11.1331
분을	-11.1332
▁중국산	-11.1333
▁처리를	-11.1335
▁참석하는	-11.1336
▁도의회	-11.1336
▁존경	-11.1337
▁사료	-11.1337
요구	-11.1338
▁벨	-11.1339
▁보좌관	-11.134
▁중부	-11.134
▁설립된	-11.1341
▁폭으로	-11.1341
▁부재	-11.1344
청구	-11.1345
▁당부	-11.1347
▁불확실성이	-11.135
식으로	-11.1351
몽	-11.1351
▁타입	-11.1351
소비	-11.1352
▁페이	-11.1352
▁서울에	-11.1353
▁맞춤	-11.1354
효과가	-11.1354
▁가까워	-11.1356
▁전통적인	-11.1356
▁합니까	-11.1358
로써	-11.1362
건에	-11.1363
위원회를	-11.1364
▁여성을	-11.1368
▁하나님이	-11.1368
▁바닥에	-11.1368
▁파워	-11.1368
▁김희	-11.1372
확	-11.1374
▁늘면서	-11.1375
▁참여하여	-11.1377
▁전체를	-11.1379
▁신속히	-11.138
▁용의자	-11.1385
▁장학금	-11.1386
▁49	-11.1386
콩	-11.139
앞으로	-11.139
▁우정	-11.139
▁케어	-11.1391
▁손흥민이	-11.1393
지사	-11.1393
단위	-11.1394
▁서둘러	-11.1395
▁종류가	-11.1395
사유	-11.1396
▁편견	-11.1398
▁경기도민	-11.1399
제주	-11.14
▁통신원	-11.14
▁앞으로는	-11.1402
자들에게	-11.1403
부와	-11.1403
언론	-11.1404
▁학부모들	-11.1404
▁올릴	-11.1405
연수	-11.1405
자연	-11.1406
▁화해	-11.1407
▁발라	-11.1409
트럼프	-11.141
기준을	-11.1411
95	-11.1412
▁부상으로	-11.1412
▁옷은	-11.1412
▁의원을	-11.1414
▁벌이	-11.1416
▁방문했다	-11.1416
▁신청서	-11.1417
▁실습	-11.1418
▁체결한	-11.1418
팀은	-11.1419
▁시범사업	-11.142
기관이	-11.1421
▁궁	-11.1423
▁연애	-11.1424
▁상한	-11.1425
▁노조가	-11.1426
▁불평등	-11.1428
대통령	-11.1428
빅	-11.1428
▁기후	-11.1429
▁일자	-11.143
▁서울중앙지법	-11.1431
▁공유하는	-11.1431
▁수행하기	-11.1432
▁한우	-11.1432
▁참가자들이	-11.1432
▁학교가	-11.1437
▁한동안	-11.1437
하느라	-11.1437
버리	-11.1439
▁학생과	-11.1439
▁상황은	-11.1439
▁묶	-11.1441
▁뻔	-11.1443
▁나라를	-11.1443
▁부회장이	-11.1445
▁사면	-11.1446
▁못해서	-11.1448
연이	-11.1448
설이	-11.1449
▁스티븐	-11.1449
▁콘셉트	-11.1449
▁협정	-11.145
▁축산	-11.1451
▁염두	-11.1452
▁부리	-11.1453
▁이해찬	-11.1453
▁귀추	-11.1453
▁달했다	-11.1454
▁이적	-11.1454
해지면서	-11.1458
▁결정된	-11.1459
▁체육시설	-11.1459
▁보게	-11.1461
▁채무	-11.1462
내역	-11.1462
▁곳도	-11.1462
고속도로	-11.1465
▁경연	-11.1465
픽	-11.1467
▁아이들은	-11.1467
▁폴란드	-11.1468
▁회계연도	-11.1468
▁숨겨	-11.1469
▁삼성바이오	-11.147
▁나옵니다	-11.147
부분	-11.1471
▁참석할	-11.1474
▁보행	-11.1474
▁사람도	-11.1477
▁요금이	-11.1484
▁방송인	-11.1486
인천	-11.1487
▁호수	-11.1489
되지만	-11.1491
▁대부	-11.1492
▁수확	-11.1492
▁많지만	-11.1493
▁입는	-11.1493
▁받았다고	-11.1494
▁이외에도	-11.1496
▁소망	-11.1497
▁시행계획	-11.1497
▁결정에	-11.1498
▁붉은	-11.1498
▁이루는	-11.1499
컨	-11.1501
복을	-11.1501
▁우대	-11.1503
▁속도로	-11.1504
▁개인적으로	-11.1506
74	-11.1506
▁아쉬움	-11.1506
v	-11.1508
▁보자	-11.1508
▁생긴다	-11.1509
▁소폭	-11.1509
자에	-11.151
▁뜻이	-11.1511
되었을	-11.1513
분간	-11.1513
▁인물이	-11.1513
▁강점	-11.1514
▁선정해	-11.1515
▁중앙정부	-11.1516
성적	-11.1517
▁피부에	-11.1518
▁습관	-11.152
▁오피스텔	-11.1522
▁재선	-11.1523
▁감사드립니다	-11.1523
▁적용되는	-11.1524
▁놀라운	-11.1524
▁정상회담에서	-11.1525
봤	-11.1526
▁지시했다	-11.1526
▁생각할	-11.1528
▁계열	-11.1529
느라	-11.153
▁남기	-11.1533
▁확대해	-11.1533
▁되찾	-11.1535
▁한국문화원	-11.1536
또	-11.1538
▁그리스도	-11.154
▁붙잡혔다	-11.1541
해져	-11.1541
▁백제	-11.1542
▁지내고	-11.1543
▁노동자들	-11.1544
▁흐름이	-11.1544
▁증인	-11.1544
▁주도하는	-11.1546
▁안산시	-11.1546
▁김재	-11.1547
▁보강	-11.1549
▁멋	-11.1552
▁X	-11.1553
▁수립하여	-11.1556
▁측에서	-11.1556
▁울산시	-11.1558
▁수혜	-11.156
▁계약이	-11.1561
▁의원과	-11.1561
▁환자들	-11.1562
고요	-11.1562
▁거치	-11.1563
▁김병	-11.1563
▁코인	-11.1568
▁알아야	-11.1568
업종	-11.157
▁깨끗한	-11.1572
▁배분	-11.1574
쌀	-11.1575
▁결산	-11.1575
▁짓고	-11.1575
▁농어촌	-11.1575
▁표명	-11.1576
▁사랑이	-11.1578
▁잘라	-11.1581
▁목적을	-11.1582
▁돼야	-11.1582
▁등장했다	-11.1582
계의	-11.1583
▁일본군	-11.1584
▁사건으로	-11.1587
▁통신사	-11.1588
▁읽는	-11.159
하네요	-11.159
공개	-11.1591
탐	-11.1592
▁규정하고	-11.1593
▁서울시장	-11.1593
▁생각했다	-11.1593
담당자	-11.1593
▁확	-11.1593
▁욕구	-11.1594
조성	-11.1595
▁일주일에	-11.1595
▁마드리드	-11.1596
▁맺고	-11.1596
▁헝가리	-11.1596
▁양천구	-11.1599
▁마침	-11.1599
▁자금이	-11.1601
층에서	-11.1603
셨나요	-11.1605
▁곳곳	-11.1605
▁방송사	-11.1606
▁코트	-11.1608
▁기뻐	-11.161
가스	-11.1612
▁놓은	-11.1612
▁크리스	-11.1612
(18	-11.1613
▁남지	-11.1613
설명회	-11.1613
▁얻기	-11.1614
▁박원순	-11.1614
▁개원	-11.1614
▁터지	-11.1615
▁좋아서	-11.1617
▁차주	-11.1617
▁공제	-11.1617
▁성관계	-11.1618
▁놀러	-11.1618
▁부산에서	-11.1618
▁외국어	-11.1619
광장	-11.1623
▁달린	-11.1624
▁거기서	-11.1624
▁여가	-11.1624
작가	-11.1629
▁케이스	-11.1631
▁중국을	-11.1631
스럽다	-11.1631
▁확산되고	-11.1631
▁급격한	-11.1632
▁로맨스	-11.1633
▁빌딩	-11.1633
▁혁명	-11.1633
아트	-11.1636
▁감독과	-11.1636
▁받았던	-11.1638
▁유착	-11.1641
수단	-11.1642
▁서산	-11.1644
▁호텔에	-11.1644
▁샤	-11.1646
뉴스	-11.1646
▁도청	-11.1649
▁모래	-11.165
▁법을	-11.1651
▁디저트	-11.1651
▁식약처	-11.1651
사이트	-11.1651
타이	-11.1652
▁중재	-11.1657
▁쏟아	-11.1658
8%)	-11.1662
▁지루	-11.1662
▁최고위원	-11.1662
▁개정안이	-11.1664
▁뿐이다	-11.1664
▁협동조합	-11.1664
▁죽은	-11.1666
▁붙잡	-11.1666
▁줬다	-11.1666
▁아카데미	-11.1666
▁관계자가	-11.1667
▁종전	-11.1667
▁참석자들	-11.1668
▁결재	-11.1668
▁재심	-11.1668
▁후보로	-11.167
▁여동생	-11.167
▁전신	-11.1671
▁유죄	-11.1671
89	-11.1672
▁세웠다	-11.1673
▁높아진	-11.1674
▁콜라	-11.1675
▁알렸다	-11.1678
절차를	-11.1679
▁결승전	-11.1679
(8	-11.1681
▁김현	-11.1681
운영에	-11.1681
▁시작된다	-11.1682
▁금메달을	-11.1685
am	-11.1686
▁관리하여야	-11.1687
▁베를린	-11.1688
▁정도는	-11.1689
▁사업계획	-11.1689
▁속에서도	-11.169
▁겨우	-11.169
▁티켓을	-11.1692
▁국채	-11.1693
▁잡을	-11.1694
▁장난감	-11.1695
나갈	-11.1695
▁소금	-11.1695
자로서	-11.1696
▁표정	-11.1697
▁오신	-11.1697
▁기술개발	-11.1698
작품	-11.1701
▁빼앗	-11.1701
▁악기	-11.1702
바다	-11.1703
▁지지율	-11.1704
▁해가	-11.1706
띤	-11.1707
▁김경	-11.1708
하이닉스	-11.171
▁자를	-11.1711
▁받았	-11.1712
▁메일로	-11.1717
▁되어야	-11.1717
▁봤을	-11.1721
▁상태에	-11.1722
▁1.5	-11.1723
옷	-11.1724
▁놀라	-11.1724
롬	-11.1725
▁어렸을	-11.1726
▁마사지	-11.1726
토론	-11.1727
▁달아	-11.1729
▁수익성	-11.173
▁입었다	-11.1731
▁터져	-11.1731
▁역사가	-11.1731
▁해촉	-11.1732
▁임시정부	-11.1732
▁추진한	-11.1733
대학원	-11.1733
▁안타	-11.1734
▁내용과	-11.1735
▁꾸준한	-11.1738
▁내기	-11.1739
▁어머니가	-11.174
회원	-11.1741
▁경보	-11.1741
▁시간대	-11.1741
▁꿈이	-11.1743
▁펼치는	-11.1744
▁리모델링	-11.1744
▁몰래	-11.1746
▁결단	-11.1746
▁궁금해	-11.1747
5%)	-11.175
드라	-11.1751
▁발표할	-11.1753
된다고	-11.1754
▁분할	-11.1755
▁빼고	-11.1757
▁분단	-11.1757
고객	-11.1758
▁예약이	-11.1758
▁공방	-11.1761
▁것인가	-11.1763
▁오빠	-11.1765
종이	-11.1766
▁공주	-11.1766
▁기간은	-11.1768
▁토요일에	-11.1768
▁그녀에게	-11.1769
▁대상에	-11.1769
▁세무조사	-11.177
▁JTBC	-11.1771
▁54	-11.1772
▁주한미군	-11.1772
▁변호인	-11.1773
▁전략이	-11.1774
▁합의안	-11.1774
▁모은	-11.1775
정의	-11.1775
▁기록하고	-11.1777
냥	-11.1779
▁먹지	-11.1783
▁원산지	-11.1784
사회적	-11.1786
층으로	-11.1786
▁준비되어	-11.1787
▁앱을	-11.1787
▁공항에서	-11.1787
▁교장	-11.1787
▁써야	-11.1788
주의보	-11.1788
지정	-11.1789
▁실질적	-11.1795
해준다	-11.1795
▁대입	-11.1797
바이	-11.1797
▁유료	-11.1797
▁도모	-11.1797
▁인가	-11.18
▁위성	-11.18
▁후보를	-11.18
▁신부	-11.1801
▁화요일	-11.1805
▁행정처	-11.1805
▁취한	-11.1805
▁감사의	-11.1807
▁돌아온	-11.1807
▁확대할	-11.1812
▁재차	-11.1812
정당	-11.1812
▁운영자	-11.1812
▁촬영한	-11.1812
▁왜곡	-11.1817
‧	-11.1819
▁검진	-11.1821
▁가짜	-11.1821
▁있느냐	-11.1821
▁몰랐	-11.1822
▁일원	-11.1823
▁김수	-11.1823
▁엄청	-11.1824
▁난방	-11.1825
▁언제든	-11.1826
노인	-11.1826
방문	-11.1827
▁도입한	-11.1831
▁양이	-11.1837
▁좋아하지	-11.1837
98	-11.1837
7%)	-11.1837
▁돋보이는	-11.1839
▁중간선거	-11.1839
▁선고받았다	-11.1839
화와	-11.184
▁회원들이	-11.184
▁판교	-11.1842
▁경제를	-11.1844
63	-11.1844
▁증권사	-11.1846
▁확대되고	-11.1847
▁벌어지는	-11.1848
0%)	-11.1848
▁쓰기	-11.1849
하이	-11.1849
▁신조	-11.185
▁않았어	-11.1851
▁조용	-11.1854
▁금속	-11.1856
▁휴가를	-11.1856
▁멍	-11.1856
집을	-11.1857
▁그들에게	-11.1857
▁보험금	-11.1858
▁소고기	-11.186
▁쪽은	-11.186
▁물고기	-11.186
▁통로	-11.1861
▁한국문화	-11.1862
▁평범한	-11.1868
▁민속	-11.1868
▁지키는	-11.1868
봤다	-11.1869
▁게시판에	-11.187
▁그와	-11.187
▁되어서	-11.1871
▁중간에	-11.1872
▁여자가	-11.1874
▁지난해보다	-11.1875
지원을	-11.1876
▁스티커	-11.1876
▁공급하는	-11.1876
▁혜	-11.1876
▁김해	-11.188
타워	-11.188
▁공무원은	-11.188
기념	-11.1881
▁평택항	-11.1881
조를	-11.1883
▁신상	-11.1883
▁들어오는	-11.1884
▁꾸려	-11.1884
▁녹지	-11.1885
이요	-11.1886
▁잠정	-11.1886
증진	-11.1889
구간	-11.1889
ay	-11.1891
통제	-11.1892
ri	-11.1892
▁해설	-11.1893
석을	-11.1893
▁기적	-11.1893
▁분식회계	-11.1895
▁출동한	-11.1902
▁뉴질랜드	-11.1903
였는데	-11.1909
스티	-11.1909
▁박씨	-11.1912
▁일정한	-11.1915
하시기	-11.1915
▁다루	-11.1915
▁아뇨	-11.1916
▁지혜	-11.1916
액은	-11.1917
했다면	-11.1918
차전에서	-11.192
▁맡았	-11.192
▁중소기업이	-11.1925
쇄	-11.1927
▁타인	-11.1928
▁나노	-11.1928
▁품절	-11.1929
정상	-11.1931
▁그렇군요	-11.1933
▁넣은	-11.1933
올림픽	-11.1934
▁단체에	-11.1934
▁북핵	-11.1935
▁평화의	-11.1936
드릴	-11.1938
▁가족들과	-11.1938
▁연락처	-11.1938
▁처한	-11.1938
▁다큐멘터리	-11.1938
누리	-11.194
▁지켜보	-11.194
ra	-11.1941
▁이념	-11.1943
∼6	-11.1943
▁공항에	-11.1944
▁할까요	-11.1945
▁보상금	-11.1945
▁수분	-11.1945
▁브리핑	-11.1945
▁확인되지	-11.1945
▁강세	-11.1945
▁위험을	-11.1949
▁나랑	-11.1951
▁유용	-11.1951
▁이끌고	-11.1953
▁기록물	-11.1954
▁만들었	-11.1956
▁불과하다	-11.1957
▁주사	-11.196
▁조건으로	-11.196
계좌	-11.1963
▁생물	-11.1963
해달라고	-11.1963
▁사라진	-11.1965
▁아닐까	-11.1966
▁공유재산	-11.1968
▁기아차	-11.1968
▁재고가	-11.1971
▁벌이는	-11.1972
냉	-11.1973
경남	-11.1974
비서관	-11.1974
▁절차에	-11.1974
행위를	-11.1975
96	-11.1976
▁겹치	-11.1979
▁무한	-11.198
▁차량번호	-11.198
▁기리	-11.1981
▁차별화된	-11.1984
2)	-11.1984
▁확보하고	-11.1985
▁대표를	-11.1986
▁느	-11.1986
▁힐링	-11.1989
▁초등	-11.1989
▁북구	-11.1989
▁보내주	-11.1989
기자	-11.1989
▁챔피언스리그	-11.199
호는	-11.1991
▁정세	-11.1991
▁사회공헌	-11.1993
▁제출받	-11.1993
▁속에는	-11.1995
▁개최하는	-11.1995
▁들어갔	-11.1997
▁매뉴얼	-11.2002
시의회	-11.2002
▁사무관	-11.2002
수출	-11.2003
▁단행	-11.2005
▁헌	-11.2006
▁본부	-11.2006
es	-11.2007
▁돕고	-11.2008
▁선교사	-11.2009
금이	-11.2013
▁조건이	-11.2013
여부	-11.2015
▁받았고	-11.2017
한데	-11.2018
가치	-11.2019
▁방한	-11.202
▁했	-11.2021
▁강의를	-11.2023
▁외신	-11.2027
사업은	-11.2029
▁단백질	-11.2029
▁엘리베이터	-11.2029
▁바퀴	-11.2031
▁추격	-11.2032
인들에게	-11.2032
▁시기가	-11.2035
해주시기	-11.2035
▁로마	-11.2036
▁블록	-11.2037
건축물	-11.204
▁크다고	-11.204
▁하위	-11.2042
▁하나님께서	-11.2042
▁결정하는	-11.2043
▁가졌	-11.2044
행복	-11.2046
임금	-11.2046
▁부총리는	-11.2047
▁행복하게	-11.2048
▁기법	-11.2048
▁LED	-11.2048
▁청산	-11.205
문서	-11.2052
51	-11.2053
▁아닌지	-11.2057
▁상세	-11.2062
▁변경할	-11.2064
니스	-11.2065
▁소주	-11.2067
벤	-11.2068
▁이루어진	-11.207
▁인간이	-11.207
▁미세	-11.207
▁아닌가	-11.207
학적	-11.2071
▁경고했다	-11.2071
▁우울	-11.2072
▁지정할	-11.2072
▁국가들	-11.2073
▁주장한	-11.2073
▁너도	-11.2075
▁도망	-11.2075
▁극심한	-11.2077
ir	-11.2077
▁냉동	-11.2077
▁고조	-11.2079
▁황교안	-11.2081
▁발생하면	-11.2082
▁매번	-11.2083
▁농사	-11.2084
▁걷기	-11.2084
▁나누	-11.2085
(15	-11.2085
율은	-11.2087
묵	-11.2087
▁시내버스	-11.2088
▁담았다	-11.2089
▁수상한	-11.2089
▁방법에	-11.209
▁푸른	-11.2091
▁관계공무원	-11.2091
▁유예	-11.2092
▁서비스는	-11.2093
▁안동	-11.2093
▁자체적으로	-11.2093
▁요청이	-11.2094
▁이벤트가	-11.2094
▁넘겨진	-11.2095
▁교회가	-11.2096
위기	-11.2096
▁빠졌다	-11.2097
주신	-11.2099
▁해방	-11.21
▁이미지가	-11.21
▁하도급	-11.2101
▁약한	-11.2102
▁가져	-11.2103
▁자신만	-11.2104
▁단점	-11.2105
▁마련돼	-11.2106
▁낭비	-11.2106
▁안성	-11.2107
▁시간당	-11.2108
앱	-11.2109
▁관계없이	-11.2111
▁높아지는	-11.2111
▁선거에서	-11.2112
▁매력이	-11.2113
▁음반	-11.2113
▁체계를	-11.2113
▁빨라	-11.2116
▁삶에	-11.2118
▁정류장	-11.2119
▁중이며	-11.212
보안	-11.2122
▁맑은	-11.2124
▁되었고	-11.2125
▁재활	-11.2125
광주	-11.2126
뱅크	-11.2126
모씨	-11.2126
▁말도	-11.2126
▁쏠린다	-11.213
▁예선	-11.2132
▁선행	-11.2133
▁계곡	-11.2134
중학교	-11.2136
▁여파로	-11.2137
가능	-11.2137
▁경력이	-11.2137
리와	-11.2138
사이즈	-11.2138
▁둘러싸고	-11.2138
률을	-11.2139
▁염증	-11.2141
▁위반한	-11.2141
노선	-11.2141
▁우위	-11.2142
▁빠	-11.2143
▁가능하게	-11.2145
▁지냈	-11.2145
61	-11.2146
▁자유로운	-11.2146
▁행정기관	-11.2147
▁고창	-11.2149
개월이	-11.2149
▁학생은	-11.215
▁오전에	-11.215
대행	-11.2151
▁원천	-11.2153
관리를	-11.2153
▁교사가	-11.2155
▁불고기	-11.2157
겠어	-11.2158
▁악용	-11.2158
▁생명을	-11.2158
거에요	-11.2159
▁긴장감	-11.216
▁불가피하다	-11.216
지금	-11.216
▁안무	-11.2161
인재	-11.2162
품을	-11.2165
▁일로	-11.2167
▁금메달	-11.2168
▁뛰어나	-11.217
▁동작구	-11.2173
과정을	-11.2175
86	-11.2175
▁인생을	-11.2181
▁분위기다	-11.2182
▁샷	-11.2182
▁Y	-11.2183
▁품종	-11.2184
▁생선	-11.2184
▁공청회	-11.2184
▁도장	-11.2185
73	-11.2187
▁물어	-11.219
▁갔습니다	-11.219
▁오늘도	-11.2196
▁장미	-11.2197
상황을	-11.2198
▁구의	-11.2199
▁산지	-11.2199
단속	-11.2201
취업	-11.2202
▁가능한지	-11.2203
신청서를	-11.2203
현지시각	-11.2204
▁세우고	-11.2204
▁만기	-11.2204
▁굳	-11.2205
▁김장	-11.2205
▁기관에	-11.2206
채권	-11.2207
▁만나기	-11.2208
내용을	-11.2209
▁만약에	-11.2209
▁피해자들	-11.221
▁흔적	-11.221
지출	-11.2211
▁만찬	-11.2213
▁감리	-11.2213
▁작업에	-11.2215
▁순천	-11.2216
▁영국의	-11.2217
▁걱정하지	-11.2218
▁법원의	-11.2218
▁승소	-11.2218
▁상위권	-11.2218
▁않았을	-11.2219
흐	-11.222
▁응급	-11.2221
▁개최하고	-11.2221
프리	-11.2222
▁전문적인	-11.2223
사단	-11.2223
▁할리우드	-11.2223
▁숨지고	-11.2226
▁일본과	-11.2226
겐	-11.2226
▁명소	-11.2226
▁증가로	-11.2227
비로	-11.2228
▁털	-11.2231
▁하향	-11.2232
회에서	-11.2237
해주셔서	-11.2237
▁체험할	-11.2238
년마다	-11.224
▁한자리에	-11.224
▁사립	-11.2241
▁띈다	-11.2243
▁경상남도	-11.2243
▁최정	-11.2243
주일	-11.2245
▁식재료	-11.2245
▁진압	-11.2246
▁갔어요	-11.2247
▁독려	-11.2247
▁힘들었	-11.2248
▁심사위원	-11.225
▁주자	-11.225
▁띄	-11.2254
민간	-11.2255
수행	-11.2256
▁무산	-11.2257
▁마련된다	-11.2257
▁대도시	-11.226
▁엄청나	-11.2261
▁고도	-11.2261
보조	-11.2262
SA	-11.2262
텔레콤	-11.2263
▁강제징용	-11.2263
▁남겼다	-11.2263
72	-11.2265
▁커지는	-11.2268
▁로비	-11.2269
되기를	-11.227
▁열풍	-11.227
호와	-11.2272
▁요구에	-11.2275
▁거쳐야	-11.2276
▁세계에	-11.2276
▁존재한다	-11.2277
▁확보했다	-11.2281
영업	-11.2282
▁치솟	-11.2282
▁데리고	-11.2283
▁금융시장	-11.2283
▁실시하여야	-11.2284
▁이마트	-11.2284
▁싶은데요	-11.2284
▁시행할	-11.2285
▁실정	-11.2287
호를	-11.2287
▁계속되고	-11.229
▁서해안	-11.229
▁단계에서	-11.2291
채널	-11.2291
심의회	-11.2292
▁분야별	-11.2294
▁53	-11.2294
▁노동시간	-11.2296
▁있었기	-11.2297
▁걸음	-11.23
▁폭넓	-11.2302
▁슬픔	-11.2302
▁나와서	-11.2302
▁방식의	-11.2303
배가	-11.2307
지와	-11.2307
네트워크	-11.2307
학년도	-11.2308
▁개발하고	-11.2308
▁얼굴에	-11.231
▁풀이	-11.2312
▁항만	-11.2315
▁유산	-11.2316
▁분석도	-11.2316
▁모르고	-11.2317
▁요인으로	-11.232
▁구도	-11.232
▁체납	-11.2323
▁공격을	-11.2323
▁추억을	-11.2324
▁의상	-11.2325
▁환급	-11.2326
▁날을	-11.2327
▁싼	-11.2329
▁심의하기	-11.233
는데요	-11.2331
▁횟수	-11.2331
확대	-11.2331
▁공통	-11.2332
▁선호도	-11.2333
▁승계	-11.2334
▁이밖에도	-11.2335
스카	-11.2336
▁해보	-11.2336
깃	-11.234
▁뜻으로	-11.2341
▁불공정	-11.2343
▁생활폐기물	-11.2344
위의	-11.2344
▁싸움	-11.2344
▁교역	-11.2345
▁생애	-11.2345
▁밝	-11.2345
▁움직이는	-11.2346
▁흔적이	-11.2349
▁시점에서	-11.2349
▁캠퍼스	-11.235
▁판매량	-11.2351
▁정책과	-11.2351
▁작곡	-11.2355
▁우회	-11.2355
▁서쪽	-11.2358
▁확보하기	-11.2359
해달라	-11.236
▁양성평등	-11.2361
▁멈춰	-11.2362
▁벚꽃	-11.2362
▁봤	-11.2362
▁물리	-11.2363
▁깊어	-11.2364
▁겪었다	-11.2364
뷰	-11.2364
▁공장에서	-11.2366
협동조합	-11.2367
92	-11.2368
▁올라온	-11.2368
▁1970	-11.2368
▁취해	-11.2369
기계	-11.2369
▁청년들	-11.237
▁급감	-11.237
사업장	-11.2372
▁복사	-11.2372
경보	-11.2374
▁여건이	-11.2375
▁편의시설	-11.2376
▁발병	-11.2376
▁기업으로	-11.2377
▁짓는	-11.2378
▁평화를	-11.2379
▁자고	-11.238
▁김기	-11.2381
▁전시장	-11.2381
▁잦은	-11.2382
▁어떠세요	-11.2382
▁압류	-11.2383
▁과반수의	-11.2384
▁가해	-11.2385
▁통역	-11.2385
▁결과물	-11.2386
▁대관	-11.2386
후보	-11.2386
▁무늬	-11.2387
▁해수욕장	-11.2387
지방자치단체	-11.2388
회째	-11.2391
▁출생	-11.2393
▁갖춰	-11.2395
▁아래로	-11.2396
▁고마워	-11.2396
▁비위	-11.2397
▁조립	-11.2399
▁매물	-11.2399
천억원	-11.24
벤처	-11.2401
특구	-11.2401
▁떨어지고	-11.2401
▁창구	-11.2402
▁가려고	-11.2402
▁미루	-11.2403
▁탄탄한	-11.2403
▁우리나라에서	-11.2404
▁증세	-11.2405
▁친구는	-11.2406
어를	-11.2407
기관에	-11.2408
▁비만	-11.2408
▁지향	-11.2412
▁하러	-11.2412
보상	-11.2412
▁작품들	-11.2413
▁복수	-11.2414
▁안경	-11.2415
▁영남	-11.2416
▁경영권	-11.2417
▁정상회의	-11.2417
뒀	-11.2418
▁치아	-11.242
청은	-11.242
▁황금	-11.242
▁덜어	-11.242
프라	-11.2422
성의	-11.2422
▁언론이	-11.2427
▁젊은이들이	-11.2428
CEO	-11.2428
태평양	-11.2429
리어	-11.2429
▁자율적	-11.2429
▁수료	-11.243
월드	-11.2431
▁포털	-11.2434
▁이유에	-11.2434
▁주목할	-11.2436
ed	-11.2438
권자	-11.244
▁송도	-11.244
▁공직	-11.2441
렸지만	-11.2441
▁화려	-11.2442
▁읍	-11.2442
▁예정이	-11.2442
▁확보할	-11.2443
▁물량이	-11.2444
▁도봉구	-11.2444
력과	-11.2444
▁조선시대	-11.2444
▁영혼	-11.2445
▁커지면서	-11.2445
▁갓	-11.2447
질서	-11.2447
▁장시간	-11.2447
▁탄력근로제	-11.2448
(10	-11.245
닌	-11.245
▁직면	-11.245
▁윤씨	-11.2451
▁협상에	-11.2451
▁투명	-11.2453
▁성공할	-11.2453
▁실용	-11.2454
▁동결	-11.2454
수와	-11.2455
▁처음부터	-11.2458
▁당사	-11.2459
▁56	-11.2459
▁욕	-11.246
▁판매하고	-11.2462
▁민간위탁	-11.2462
▁위원에게	-11.2462
▁알기	-11.2463
▁교육은	-11.2464
▁1998	-11.2464
▁의병	-11.2466
▁알리기	-11.2467
큰	-11.2468
3%)	-11.2471
▁믿을	-11.2473
겠	-11.2473
▁궁금한	-11.2474
87	-11.2475
▁GS	-11.2476
▁참여자	-11.2478
▁몰라	-11.2479
▁소방관	-11.248
PS	-11.248
▁인용	-11.2481
▁일요일에	-11.2482
00	-11.2482
NA	-11.2482
▁부산의	-11.2484
▁의사결정	-11.2484
▁지나가	-11.2485
▁궁금합니다	-11.2486
▁침입	-11.2486
▁지난해부터	-11.2487
▁이루어지	-11.2488
▁돌입	-11.2489
그룹이	-11.2489
▁악수	-11.2491
▁확률이	-11.2491
▁민관	-11.2491
▁공론화	-11.2492
▁룸	-11.2493
79	-11.2493
즐	-11.2494
나가는	-11.2494
▁방송에서	-11.2496
▁향수	-11.2496
▁폭탄	-11.2497
▁남산	-11.25
▁점검하고	-11.2503
▁답방	-11.2503
▁살펴보	-11.2503
▁정보공개	-11.2504
▁의료기기	-11.2504
▁안전점검	-11.2504
▁정유	-11.2504
▁선거제도	-11.2506
호로	-11.2508
민주	-11.2509
▁와중에	-11.251
매장	-11.2512
▁전술	-11.2516
▁천안시	-11.2517
▁논의했다	-11.2517
둬	-11.2519
▁보니까	-11.2521
▁구성하고	-11.2522
▁이낙연	-11.2522
▁꿈꾸는	-11.2523
▁최장	-11.2523
▁개최할	-11.2525
▁최강	-11.2527
▁새우	-11.2529
명씩	-11.2536
▁떠나는	-11.2538
▁들면	-11.2539
롤	-11.2539
▁넘지	-11.2539
▁겁니까	-11.2543
▁비춰	-11.2543
▁문법	-11.2544
▁장소에서	-11.2545
▁교과	-11.2546
▁완료되면	-11.2549
▁국토	-11.2549
▁자진	-11.2549
▁연구위원	-11.255
이었는데	-11.2551
문화재단	-11.2552
기술을	-11.2552
▁금강산	-11.2554
▁중요합니다	-11.2554
▁부분에서	-11.2554
▁운전자가	-11.2556
요청	-11.2557
▁그러면서	-11.2557
▁문구	-11.2557
▁앙	-11.2557
▁경협	-11.2558
자재	-11.2559
▁진단했다	-11.2559
주식	-11.256
▁모금	-11.256
▁교수의	-11.2562
▁전원이	-11.2562
▁우선적으로	-11.2562
▁교착	-11.2565
▁신생아	-11.2565
53	-11.2567
Z	-11.257
▁만들어야	-11.2571
▁일일	-11.2572
▁벗	-11.2572
▁적다	-11.2572
▁성장률	-11.2575
▁인력이	-11.2576
▁우려된다	-11.2577
▁측면이	-11.2578
▁창원시	-11.2578
셔도	-11.2579
▁콘서트를	-11.2581
▁이해하기	-11.2582
놨	-11.2583
▁내부에	-11.2583
▁민감한	-11.2586
▁축적	-11.2586
4%)	-11.2588
▁진행되었다	-11.2588
▁행태	-11.2589
▁기능성	-11.2589
▁우울증	-11.2589
▁예금	-11.259
▁확인하기	-11.259
▁어우러진	-11.2591
▁공무원들이	-11.2593
▁전국의	-11.2595
▁옛날	-11.2596
신용	-11.2598
▁세계를	-11.2598
▁유가	-11.2599
▁확대에	-11.2601
▁링크	-11.2603
▁사각지대	-11.2603
▁지속가능한	-11.2604
만으로도	-11.2605
▁다르	-11.2612
▁늘어나면서	-11.2613
▁특례	-11.2614
▁폐업	-11.2615
▁것인데	-11.2618
▁가마	-11.2623
관에서	-11.2625
▁솔직히	-11.2625
▁땅을	-11.2628
▁주전	-11.2628
▁가능성에	-11.2629
▁행정적	-11.2631
▁낚시	-11.2633
부모	-11.2634
▁수강료	-11.2638
▁재질	-11.2638
▁기다려야	-11.2639
▁찾아온	-11.2639
▁외식	-11.264
▁KTX	-11.2646
▁맞추	-11.2646
▁컨	-11.2647
▁느끼	-11.2647
▁실장	-11.2648
▁주민센터	-11.2649
▁공식적으로	-11.265
▁용도로	-11.2651
▁송부	-11.2654
편이	-11.2655
이어	-11.2656
▁역사와	-11.2656
▁강풍	-11.2657
▁번씩	-11.2659
졌어요	-11.266
▁납입	-11.2662
▁적절	-11.2662
▁이룬	-11.2663
▁도시의	-11.2666
▁즐기고	-11.2666
▁뚜렷	-11.2667
▁57	-11.2668
전용	-11.2676
▁직위	-11.2676
▁조성사업	-11.2676
▁시연	-11.2678
스키	-11.2679
▁소재로	-11.2679
▁치료제	-11.2679
▁날아	-11.2679
▁정말로	-11.2679
그린	-11.268
▁식량	-11.2682
▁충	-11.2682
▁경제협력	-11.2682
내기	-11.2684
▁목표다	-11.2684
▁게시물	-11.2686
▁민간단체	-11.2687
94	-11.2688
▁추경	-11.2688
해주고	-11.2689
▁빠졌	-11.269
▁수사관	-11.2695
▁성북구	-11.2695
▁못했어요	-11.2699
▁팩	-11.2699
▁알려줄	-11.27
▁가정의	-11.2702
▁본래	-11.2702
푸드	-11.2703
▁물론이고	-11.2704
▁놓인	-11.2704
▁헌법재판소	-11.2706
▁분포	-11.2706
▁요새	-11.271
▁렌즈	-11.2712
원이에요	-11.2712
▁도의	-11.2712
▁감기	-11.2714
▁등판	-11.2714
▁녹아	-11.2714
미디어	-11.2715
닐	-11.2715
스러워	-11.2716
▁치료가	-11.2718
▁마크	-11.2719
▁가족은	-11.2719
▁극우	-11.2721
▁가보	-11.2722
▁오더	-11.2722
비치	-11.2723
▁맛볼	-11.2723
▁회원국	-11.2724
▁번호판	-11.2724
▁편안한	-11.2724
▁멤버들이	-11.2725
▁존재하는	-11.2726
▁벼	-11.2726
▁이렇다	-11.2726
▁이르기까지	-11.2726
▁웹툰	-11.2727
▁마시는	-11.2727
▁외곽	-11.2727
▁즐기	-11.2727
▁하고자	-11.2728
▁편리	-11.2728
▁상사	-11.273
▁됐고	-11.273
▁작아	-11.2731
(9	-11.2732
법은	-11.2732
▁수납	-11.2732
▁예보	-11.2734
시책	-11.2734
▁괜찮아	-11.2734
▁교육에	-11.2736
밴드	-11.2737
하느냐	-11.2737
▁이끈	-11.2737
경쟁력	-11.2739
▁대표로	-11.2739
▁창단	-11.274
▁관점	-11.2743
▁찍고	-11.2744
▁향상에	-11.2744
▁온전	-11.2746
▁주면	-11.2746
▁해결하는	-11.2747
▁관절	-11.2747
▁셋째	-11.2747
▁달러를	-11.275
판을	-11.2752
▁종결	-11.2752
▁연구결과	-11.2753
▁분석됐다	-11.2754
▁관객들이	-11.2755
▁이상한	-11.2755
희망	-11.2756
▁바위	-11.2757
▁상품으로	-11.2757
▁배우들	-11.2758
비행	-11.276
▁진동	-11.276
▁소식에	-11.2761
▁이모	-11.2761
▁대학에서	-11.2767
솜	-11.2767
▁힙합	-11.2768
▁수송	-11.2769
▁얘기가	-11.2769
▁가지는	-11.2771
비용을	-11.2772
봉사	-11.2773
어린이	-11.2776
▁조정할	-11.2777
▁상원	-11.2777
▁설문	-11.2778
▁희생자	-11.2778
▁협의하여	-11.2779
▁사형	-11.278
▁하다가	-11.278
▁주관부서의	-11.2782
▁추천한	-11.2782
▁맞았다	-11.2782
▁MC	-11.2783
▁기대했다	-11.2785
겠죠	-11.2785
▁원형	-11.2787
▁차에	-11.2788
▁체크아웃	-11.2789
▁언론사	-11.2789
▁알려주시면	-11.279
▁있었을	-11.2791
▁잘하는	-11.2792
▁세제	-11.2795
내고	-11.2796
▁출시한	-11.2797
▁인근에서	-11.2797
▁흐르는	-11.2797
소방	-11.2804
▁관해서	-11.2806
륜	-11.2806
틱	-11.2807
줘야	-11.2808
▁낯선	-11.2809
▁저작권	-11.2809
▁소셜미디어	-11.2809
기간은	-11.281
▁반해	-11.2811
▁길거리	-11.2815
▁전년도	-11.2815
▁정보통신	-11.2816
▁지각	-11.2816
▁연이어	-11.2817
▁적용된	-11.2817
▁소진	-11.2819
복구	-11.282
▁유적	-11.2821
받았	-11.2821
사법	-11.2824
▁낫	-11.2825
∼10	-11.2828
▁해명했다	-11.2828
권에	-11.2829
기만	-11.2829
▁제품과	-11.283
▁경제부총리	-11.283
▁생기면	-11.283
▁출하	-11.2831
▁성동구	-11.2833
▁박수	-11.2834
베리	-11.2835
▁업체의	-11.2835
▁랩	-11.2836
▁케이티	-11.2838
▁이메일로	-11.2839
▁ICT	-11.2839
▁두되	-11.2839
▁그리스	-11.2839
▁미래의	-11.2839
▁개가	-11.284
▁회화	-11.284
▁주님	-11.284
▁정하고	-11.2842
▁160	-11.2842
▁전에는	-11.2842
▁선정했다	-11.2842
▁한참	-11.2843
▁커진	-11.2844
▁행동이	-11.2846
6%)	-11.2846
▁동쪽	-11.2847
▁탁	-11.2847
▁협력사	-11.2847
9%)	-11.2848
▁노동조합	-11.2848
▁추진에	-11.2848
▁않자	-11.2849
▁범인	-11.285
▁가볍게	-11.2851
주체	-11.2853
▁접근이	-11.2853
▁하나만	-11.2854
▁계획에	-11.2855
▁소원	-11.2856
▁의미로	-11.2858
▁생각하면	-11.2858
▁하나다	-11.2859
▁이씨	-11.2859
▁공개적으로	-11.2862
▁원해요	-11.2862
▁안정적	-11.2862
▁체중	-11.2863
▁발표하고	-11.2863
자들을	-11.2865
▁편리한	-11.2866
▁증거가	-11.2867
▁등장한	-11.2868
▁청문회	-11.287
▁임대주택	-11.2871
▁모습에	-11.2871
▁메신저	-11.2872
▁집행유예	-11.2872
▁있으므로	-11.2872
▁광범위	-11.2873
▁중이라고	-11.2874
▁로고	-11.2875
▁돌아왔다	-11.2878
▁멘토	-11.288
▁이뤄졌	-11.288
▁먹은	-11.2888
▁법원은	-11.2889
▁59	-11.2891
▁더욱더	-11.2891
▁68	-11.2892
들로부터	-11.2893
▁햄버거	-11.2893
▁서예	-11.2893
▁감안	-11.2895
▁다루는	-11.2895
곳에서	-11.2896
-3	-11.2896
il	-11.2896
문화원	-11.2896
▁2030	-11.2899
▁법원에	-11.2899
▁계승	-11.2899
▁리조트	-11.29
▁회담이	-11.2901
▁거주하고	-11.2904
용역	-11.2904
▁기억에	-11.2904
▁주문이	-11.2905
▁대응을	-11.2905
▁설명하고	-11.2907
▁자치단체	-11.2907
실태	-11.2912
하시나요	-11.2912
끈	-11.2913
▁타이틀	-11.2914
▁나경원	-11.2914
프레	-11.2914
▁완성차	-11.2914
▁우연히	-11.2917
▁티저	-11.2918
▁평생학습	-11.2918
▁전문인력	-11.2918
▁수험생	-11.2918
▁김영철	-11.2918
▁VR	-11.292
▁벤	-11.292
▁간접	-11.2921
▁NC	-11.2921
물류	-11.2924
ol	-11.2925
▁배후	-11.2927
대에서	-11.2927
▁:	-11.2928
첨	-11.2929
▁사격	-11.293
▁돌아와	-11.2933
▁갔	-11.2935
▁대표자	-11.2935
▁아시안컵	-11.2935
▁처지	-11.2935
▁예멘	-11.2937
▁베이	-11.2937
▁인사가	-11.2939
▁공기청정기	-11.2941
▁고난	-11.2941
▁마련을	-11.2942
▁민감	-11.2942
▁사용허가	-11.2942
▁캠핑	-11.2943
▁필요해	-11.2944
▁항소심	-11.2945
▁마켓	-11.2945
위권	-11.2946
▁강화하기	-11.2946
▁소모	-11.2949
▁공천	-11.2949
▁다양	-11.2951
▁선수를	-11.2951
투자증권	-11.2951
▁판단한	-11.2952
▁정교	-11.2955
▁방안에	-11.2955
▁좁은	-11.2956
▁로버트	-11.2956
▁진심	-11.2957
국내	-11.2959
폴	-11.2963
▁늘리	-11.2965
▁융자금	-11.2965
▁대가로	-11.2969
유럽	-11.2969
▁아이디	-11.2973
▁당첨	-11.2974
파이	-11.2974
▁행정부가	-11.2975
▁110	-11.2975
▁적혀	-11.2977
▁학교폭력	-11.2979
▁금품	-11.298
▁끝이	-11.2981
▁유감	-11.2982
▁세우	-11.2983
문이	-11.2983
므로	-11.2984
▁통증이	-11.2984
▁분담	-11.2986
서류	-11.2987
▁지원한	-11.2988
마케팅	-11.2989
▁카메라를	-11.2992
증이	-11.2993
▁물러	-11.2994
BC	-11.2996
▁됐	-11.2997
▁시각이	-11.2997
▁과자	-11.2997
▁큐	-11.2998
▁갱신	-11.2998
▁보증금	-11.2999
외국인	-11.2999
▁제출할	-11.2999
▁품격	-11.3
▁빌리	-11.3
▁도대체	-11.3
프트	-11.3001
지표	-11.3002
백만	-11.3002
▁낙태	-11.3003
▁야채	-11.3003
▁먼지	-11.3004
상에서	-11.3006
▁결과적으로	-11.3006
▁이십	-11.3007
▁원본	-11.3007
▁않았기	-11.3008
▁때문이라는	-11.3009
▁최우수상	-11.301
▁늘어났다	-11.301
▁장사	-11.301
컴	-11.3011
▁경험과	-11.3012
▁보호하기	-11.3013
▁바깥	-11.3013
▁국무위원장	-11.3015
PC	-11.3015
▁똑같이	-11.3015
▁교육과	-11.3016
▁흐르	-11.3016
▁비율은	-11.3019
▁확대하는	-11.302
▁사우디아라비아	-11.302
▁경상북도	-11.302
▁매력적인	-11.3021
▁쪽이	-11.3021
▁잇달	-11.3021
성에	-11.3022
단에	-11.3024
▁사임	-11.3025
▁볼턴	-11.3026
▁부자	-11.3028
▁눈으로	-11.3029
▁대표적이다	-11.303
▁강조하는	-11.303
▁예정이에요	-11.3031
주차	-11.3031
▁사용하기	-11.3031
해주신	-11.3032
▁전국에	-11.3033
▁출신인	-11.3034
로서는	-11.3036
▁한국전쟁	-11.3036
▁기록이	-11.3038
▁나타난다	-11.3038
▁정상적으로	-11.3039
▁토양	-11.304
▁맡겨	-11.3041
▁가도	-11.3044
▁욕설	-11.3044
▁불꽃	-11.3045
케어	-11.3045
▁이었다	-11.3048
▁던지	-11.3048
▁국기	-11.3052
▁영동	-11.3052
화물	-11.3052
▁바꾸고	-11.3053
인터넷	-11.3054
재가	-11.3055
▁부장	-11.3055
▁기업체	-11.3055
▁보행자	-11.3055
▁유가족	-11.3058
방안을	-11.3061
▁공기업	-11.3062
▁운영된다	-11.3062
▁두려워	-11.3062
▁척추	-11.3064
정은	-11.3066
스럽게	-11.3066
▁확보해	-11.3068
하기가	-11.3068
▁논쟁	-11.3069
▁기금을	-11.3069
▁제한적	-11.3069
▁이어지면서	-11.3069
해볼	-11.3069
▁교육부가	-11.307
▁치안	-11.3073
▁후보자가	-11.3074
▁보여줬다	-11.3076
▁반발이	-11.3077
▁산다	-11.3077
부지	-11.3078
▁실명	-11.3083
▁잃고	-11.3084
▁스피커	-11.3084
년여	-11.3085
▁다툼	-11.3086
▁출품	-11.3086
▁일대에서	-11.3086
▁일본어	-11.3088
놀	-11.3089
▁홍역	-11.3089
▁촉구하	-11.3089
▁감염병	-11.309
▁박차	-11.309
71	-11.309
▁방에	-11.309
밸리	-11.309
▁서비스로	-11.3094
▁지키고	-11.3094
▁규정된	-11.3094
▁아웃	-11.3095
▁펼친다	-11.3097
▁한국당이	-11.3098
러스	-11.3098
▁옮기	-11.3099
▁결함	-11.3099
▁미용	-11.31
▁높다고	-11.31
▁계속되는	-11.3105
▁넥슨	-11.3105
▁서점	-11.3106
▁끊어	-11.3109
▁김밥	-11.311
▁여기에서	-11.311
▁인사들	-11.3112
▁달라진	-11.3113
▁장악	-11.3113
▁상징하는	-11.3114
▁인연	-11.3115
▁차별화	-11.3115
▁당대표	-11.3116
구의	-11.3117
▁나가요	-11.312
▁나라에	-11.3121
졌으며	-11.3121
법상	-11.3122
▁데에	-11.3122
거든	-11.3124
▁실질적으로	-11.3124
▁발견했다	-11.3125
▁있었으나	-11.3127
군과	-11.3129
▁있겠습니다	-11.3129
지회	-11.313
▁뭐예요	-11.313
▁나눈	-11.3131
▁문제다	-11.3134
▁이루어	-11.3134
▁추운	-11.3137
▁참가할	-11.3138
▁아끼지	-11.3138
▁막고	-11.3139
▁위해서다	-11.3142
▁도보	-11.3143
콤	-11.3144
▁모르겠어	-11.3145
▁불확실성	-11.3145
▁깊게	-11.3148
▁붐	-11.3148
▁오세요	-11.3149
▁변형	-11.3149
▁접근성이	-11.3149
졌던	-11.315
▁무덤	-11.315
▁대치	-11.315
▁메달	-11.3151
▁도박	-11.3151
제약	-11.3152
▁금요일에	-11.3156
▁존재감	-11.3157
▁챙기	-11.3159
ST	-11.316
▁서기	-11.316
▁않았는데	-11.316
▁적극적	-11.316
▁코미디	-11.3161
▁58	-11.3161
▁소방서	-11.3162
▁면역	-11.3163
▁찾아볼	-11.3164
▁말아	-11.3165
▁명확한	-11.3166
▁넘어가	-11.3166
▁건강관리	-11.3168
여자	-11.3168
▁서울중앙지검	-11.317
▁호날두	-11.317
▁노회찬	-11.317
▁비서관	-11.317
▁질문이	-11.3171
▁벤처기업	-11.3172
▁디자인이	-11.3175
▁파악됐다	-11.3175
번지	-11.3176
▁수탁기관	-11.3179
▁정신이	-11.3182
▁포항시	-11.3183
▁이룰	-11.3183
▁구축을	-11.3184
▁지정하는	-11.3185
▁3∼4	-11.3187
길에	-11.319
회복	-11.319
▁바람직하다	-11.3191
▁나가겠다	-11.3193
권의	-11.3193
▁소문	-11.3194
▁법안이	-11.3201
▁정상적인	-11.3203
▁원하시는	-11.3204
길이	-11.3204
▁이종	-11.3204
▁하반기에	-11.3205
97	-11.3206
▁타이어	-11.3207
▁송치	-11.3207
▁보이지만	-11.3209
▁조식	-11.3212
▁이듬해	-11.3213
▁한눈에	-11.3213
▁미안하지만	-11.3214
심리	-11.3215
▁일어났다	-11.3216
▁1999	-11.3216
▁개발해	-11.3217
거리는	-11.3218
▁노력해	-11.3221
▁하시	-11.3222
▁땅에	-11.3222
▁완료된	-11.3222
▁조기에	-11.3223
▁폭발적	-11.3223
▁마이	-11.3223
갑니다	-11.3225
▁설명해	-11.3225
▁필터	-11.3225
▁후배	-11.3226
▁동맹	-11.3228
▁글자	-11.3228
하였으나	-11.323
▁동원해	-11.323
▁고려대	-11.3232
▁뒤에는	-11.3234
▁대형마트	-11.3235
▁색다른	-11.3236
▁한류가	-11.3236
▁찾아보	-11.3236
▁말라	-11.3236
▁견	-11.3236
▁드리고	-11.3237
▁만났다	-11.3239
실로	-11.3239
▁참조	-11.3241
▁1%	-11.3242
▁제천	-11.3243
▁떨어지	-11.3243
뢰	-11.3245
▁앓고	-11.3246
▁미국인	-11.3247
▁구원	-11.3247
하기에	-11.3249
▁명문	-11.3252
면에	-11.3253
▁길어	-11.3254
∼9	-11.3255
▁느끼게	-11.3255
▁과징금	-11.3256
피스	-11.3258
▁효력	-11.3259
▁연초	-11.326
휘	-11.326
았지만	-11.3261
▁있겠다	-11.3266
▁겉	-11.327
주시겠어요	-11.3271
▁관리할	-11.3272
하므로	-11.3274
▁막는	-11.3277
데이터	-11.3277
▁판매량이	-11.3278
▁오토바이	-11.3278
▁돌아갈	-11.3279
▁어우러져	-11.328
▁네티즌들	-11.328
▁맡는다	-11.3281
전화	-11.3281
▁새끼	-11.3282
▁경남도	-11.3283
▁서식의	-11.3284
▁음악이	-11.3284
ow	-11.3285
▁평화와	-11.3286
▁역사상	-11.3288
▁벌여	-11.3288
▁들지	-11.3288
▁실시해	-11.3288
능력을	-11.3289
▁바가	-11.3289
▁샐러드	-11.3289
▁되자	-11.329
▁아니할	-11.3291
▁횡	-11.3291
▁시에는	-11.3292
▁공공성	-11.3293
멜	-11.3293
통계	-11.3294
지난해	-11.3294
▁본질	-11.3296
제도를	-11.3298
국으로	-11.3298
▁광주광역시	-11.33
▁이용하고	-11.3303
겠고	-11.3304
▁요청하는	-11.3305
▁남다른	-11.3306
▁애로사항	-11.3307
▁걸친	-11.3309
▁걸려요	-11.331
▁믿어	-11.331
▁다룬	-11.3312
▁시행한다	-11.3313
▁활발히	-11.3313
▁청주시	-11.3313
▁재판이	-11.3313
▁다짐	-11.3314
▁72	-11.3315
▁재산을	-11.3315
컨설팅	-11.3316
▁주름	-11.3317
▁이익이	-11.3318
▁소위원회	-11.3318
▁저와	-11.3319
▁정문	-11.3319
▁공부하고	-11.332
▁산소	-11.332
▁소위	-11.3322
▁금천구	-11.3323
▁혐의에	-11.3323
▁콘텐츠가	-11.3323
▁처리가	-11.3323
▁약속한	-11.3326
▁여학생	-11.3326
시장에	-11.3329
▁비롯	-11.3331
▁보이기	-11.3331
▁심리적	-11.3333
주시길	-11.3337
▁소외	-11.3337
▁학년	-11.3337
▁위탁기간	-11.3337
▁발명	-11.3338
▁오브	-11.3343
▁메모	-11.3343
자들	-11.3344
▁알레르기	-11.3344
경찰서에	-11.3344
▁66	-11.3345
▁선발된	-11.3346
봐야	-11.3348
집단	-11.3348
▁우편	-11.3349
봐도	-11.335
▁장부	-11.335
▁들어올	-11.3351
▁고등	-11.3352
▁혁신을	-11.3352
▁기지	-11.3354
기한	-11.3356
찌	-11.3357
▁발전할	-11.3358
▁빚어	-11.3358
▁민원이	-11.3359
▁진출한	-11.3359
콘서트	-11.3359
톱	-11.336
▁피할	-11.3361
▁소비자의	-11.3361
체를	-11.3363
▁남아있는	-11.3364
호텔에서	-11.3365
▁침묵	-11.3366
▁지방보조금	-11.3366
▁보냅니다	-11.3367
▁장관을	-11.337
▁비교하면	-11.337
▁영향력이	-11.3371
▁감정이	-11.3372
활동에	-11.3374
▁부의장	-11.3375
▁라인업	-11.3375
▁투자자들이	-11.3376
▁규격	-11.3377
▁주인이	-11.3377
▁등산	-11.3378
▁응모	-11.3379
▁원장이	-11.3379
▁허브	-11.338
회의에서	-11.338
겠지	-11.338
▁방문하여	-11.3384
▁미쳤다	-11.3384
▁반박했다	-11.3384
▁약국	-11.3385
▁자정	-11.3386
▁귀여운	-11.3388
▁신청하여야	-11.3388
하진	-11.339
▁레알	-11.339
진은	-11.3393
▁키우	-11.3394
▁대우	-11.3396
▁정전	-11.3396
▁소명	-11.3396
뇌	-11.3397
▁이뤄지	-11.3397
▁원리	-11.3399
▁행복을	-11.3399
▁회전	-11.3399
▁보내준	-11.3399
▁밀어	-11.3401
▁정부에서	-11.3401
▁먹방	-11.3401
▁어린이들	-11.3402
▁주시고	-11.3403
▁과정은	-11.3404
▁따르	-11.3405
되길	-11.3405
▁부작용이	-11.3406
▁회원들	-11.3407
▁예상하고	-11.3408
▁중대	-11.3409
▁프로세스	-11.341
▁나오면서	-11.341
▁택	-11.3413
▁상임	-11.3414
▁중장기	-11.3414
▁표현한	-11.3415
▁내달	-11.3415
▁현지인들	-11.3417
▁전임	-11.3421
▁원하지	-11.3422
▁접종	-11.3426
▁옷이	-11.3426
뼈	-11.3427
▁주변에서	-11.3427
았어요	-11.3428
▁분석하고	-11.3428
▁회식	-11.3429
▁모스크바	-11.3432
▁국민적	-11.3432
▁현대중공업	-11.3432
▁현장의	-11.3433
▁미성년자	-11.3433
▁밝히고	-11.3435
▁군사적	-11.3438
▁금융당국이	-11.3438
▁예정돼	-11.344
▁재미있게	-11.3441
▁SUV	-11.3444
▁유럽의	-11.3446
▁신화	-11.3448
대한민국	-11.3449
▁판단하고	-11.3449
▁걸어가	-11.345
▁필자	-11.345
▁총액	-11.3453
▁드림	-11.3453
원들이	-11.3454
▁인센티브	-11.3454
▁보류	-11.3454
▁겨울에	-11.3456
▁납치	-11.3456
▁인턴	-11.3456
▁이루어져	-11.3456
▁위대한	-11.3456
근본적인	-11.3458
62	-11.3458
분과	-11.3459
친화	-11.3459
주로	-11.346
▁야기	-11.3461
▁실태조사	-11.3463
▁시골	-11.3466
인치	-11.3467
▁한잔	-11.3468
▁소송에서	-11.3469
▁중소벤처기업부	-11.3469
▁마스터	-11.3469
▁요금제	-11.347
딸	-11.3472
▁평가하는	-11.3477
▁피우	-11.3477
해지	-11.3479
었으며	-11.3479
▁심해	-11.3479
베르	-11.3479
상과	-11.3482
워드	-11.3483
십니까	-11.3483
▁84	-11.3485
문화를	-11.3486
▁산림청	-11.3488
93	-11.349
▁전남도	-11.3491
▁케	-11.3493
▁포천	-11.3496
▁교육기관	-11.3499
▁모듈	-11.3499
▁팬클럽	-11.3499
▁신분으로	-11.35
▁어떨까요	-11.3501
▁시중은행	-11.3501
▁서류가	-11.3502
졌	-11.3503
▁추진된다	-11.3503
▁동해안	-11.3504
▁“20	-11.3504
▁수단으로	-11.3505
▁무대가	-11.3507
▁비핵화와	-11.3507
반도체	-11.3508
일보	-11.3509
▁축제는	-11.3509
관계자	-11.3512
▁64	-11.3512
▁위원을	-11.3512
▁고객사	-11.3514
▁소개해	-11.3516
▁수업에	-11.3518
▁채취	-11.3518
▁증정	-11.352
▁아나운서	-11.3521
▁어두운	-11.3521
z	-11.3524
▁영웅	-11.3524
▁닦	-11.3525
▁이뤄져야	-11.3526
자유	-11.3526
▁연루	-11.3527
▁찌	-11.353
▁주시	-11.353
▁적용한	-11.3532
▁탁월한	-11.3536
하에	-11.3537
▁불안감	-11.3537
▁대변	-11.3539
긋	-11.3543
▁들었는데	-11.3543
▁계속될	-11.3543
▁현저	-11.3543
▁근접	-11.3544
근로	-11.3544
▁63	-11.3546
▁같지	-11.3546
▁신고자	-11.3547
▁세수	-11.3548
지역으로	-11.3549
2%)	-11.355
▁이어갔다	-11.355
▁물리적	-11.3551
▁영화에	-11.3551
▁관계에	-11.3553
▁한류의	-11.3554
▁주거환경	-11.3559
▁빠르고	-11.3561
▁판로	-11.3565
▁이견이	-11.3566
▁촉발	-11.3566
▁흥미로운	-11.3566
▁유지하기	-11.3566
▁돌아올	-11.3566
▁있겠지만	-11.3567
▁단말기	-11.3569
▁신입생	-11.3569
▁해외여행	-11.357
사업으로	-11.3571
▁다닐	-11.3571
▁노래가	-11.3573
국회	-11.3574
▁김모	-11.3575
▁강화할	-11.3576
▁들었어	-11.3576
문화재	-11.3577
우드	-11.3577
봄	-11.3578
▁나와요	-11.3581
▁편의성	-11.3582
▁인민	-11.3582
▁성장하고	-11.3582
▁신약	-11.3583
▁알았	-11.3584
관리에	-11.3585
▁너랑	-11.3586
TO	-11.3586
▁활용하여	-11.3587
▁초미세먼지	-11.359
▁맞다	-11.359
▁나눌	-11.359
▁사원	-11.3591
▁조속히	-11.3592
▁몸매	-11.3594
▁기대할	-11.3594
▁무효	-11.3597
▁1500	-11.3597
운행	-11.3599
배출	-11.36
▁타협	-11.36
▁씻	-11.3603
▁시비	-11.3604
▁안고	-11.3604
▁재미를	-11.3605
일수록	-11.3605
▁선수는	-11.3606
발표	-11.3606
▁전설	-11.3606
▁말이야	-11.3606
▁조성하는	-11.3606
▁도시계획	-11.3607
▁에이스	-11.3607
▁비영리	-11.3608
▁됐습니다	-11.3608
▁익숙	-11.3608
▁85	-11.3609
러시아	-11.3609
▁끝으로	-11.361
▁불가피한	-11.3611
▁아쉬운	-11.3611
▁유네스코	-11.3611
▁발걸음	-11.3611
▁방송되는	-11.3611
관리법	-11.3612
해보세요	-11.3613
▁돌아보	-11.3613
▁도자기	-11.3614
▁염려	-11.3615
▁표본	-11.3616
▁공간에서	-11.3617
▁배우들이	-11.3619
▁지원대상자	-11.3621
▁버튼을	-11.3621
상환	-11.3622
▁다행	-11.3622
▁액수	-11.3622
▁자매	-11.3623
▁듣	-11.3624
▁장난	-11.3624
▁분야를	-11.3626
▁혹	-11.3626
▁주문했다	-11.3627
▁모이는	-11.3627
▁배송이	-11.3627
▁사이즈는	-11.3627
▁핀	-11.3628
터가	-11.3629
▁동서	-11.3631
▁취소할	-11.3632
뱃	-11.3633
삼성	-11.3633
▁신한은행	-11.3634
▁인천국제공항	-11.3634
▁설치되어	-11.3634
차원	-11.3634
▁마산	-11.3635
▁대세	-11.3639
목표	-11.364
식물	-11.3641
▁학생을	-11.3642
▁검색어	-11.3643
▁접대	-11.3645
▁지원대상	-11.3647
▁시급한	-11.365
▁사항과	-11.3652
▁대중문화	-11.3652
바람	-11.3653
▁샌드위치	-11.3656
▁컨디션	-11.3656
▁흥미를	-11.3656
▁한진그룹	-11.3656
▁신뢰도	-11.3656
수영	-11.3657
▁사드	-11.3657
▁펼쳐졌다	-11.3658
▁막히	-11.3658
▁심하게	-11.3659
▁속하는	-11.366
▁물놀이	-11.366
▁호조	-11.366
▁검출	-11.3662
▁당연	-11.3664
해서는	-11.3666
▁분명한	-11.3669
▁대법원이	-11.367
▁관중	-11.3672
▁하신	-11.3672
▁버려	-11.3678
▁전력이	-11.3678
PA	-11.3679
▁토큰	-11.3679
▁스킨	-11.368
▁면밀	-11.3681
▁사라지	-11.3682
향상	-11.3682
▁빨간	-11.3683
▁구직자	-11.3683
▁주었다	-11.3684
▁수립하고	-11.3686
▁대두	-11.3688
비아	-11.3689
▁제기돼	-11.3691
▁성립	-11.3691
▁원단	-11.3691
▁유학생	-11.3691
▁만세	-11.3692
▁명백	-11.3694
대책을	-11.3695
▁장기적으로	-11.3697
소장	-11.3698
달라	-11.3698
▁코레일	-11.3701
▁반려견	-11.3702
▁기간으로	-11.3702
▁환경오염	-11.3702
▁고립	-11.3703
여년	-11.3703
▁음식물류	-11.3704
▁다릅니다	-11.3705
▁아세안	-11.3705
▁목적지	-11.3706
▁지역별	-11.3708
▁반발하고	-11.3708
트라	-11.371
▁검거	-11.371
▁주어	-11.3712
▁움직이	-11.3713
전국	-11.3713
▁컨퍼런스	-11.3713
▁연세대	-11.3714
업을	-11.3714
일정	-11.3714
돼요	-11.3715
꾸	-11.3715
▁FC	-11.3715
경찰청	-11.3715
▁살해한	-11.3717
▁합성	-11.3717
수도	-11.3718
▁어선	-11.3718
▁심어	-11.3719
▁던진	-11.3719
▁이번엔	-11.3719
▁후보의	-11.3721
▁고객을	-11.3721
▁신고한	-11.3722
▁적었다	-11.3722
▁연결해	-11.3722
▁권익	-11.3723
▁떠났다	-11.3724
▁삭감	-11.3724
▁교차	-11.3724
▁6·13	-11.3724
▁가뭄	-11.3724
▁배수	-11.3725
▁위탁하여	-11.3725
▁꾀	-11.3725
▁대부분은	-11.3726
▁대주주	-11.3726
▁카풀	-11.3727
▁운영과	-11.3727
부동산	-11.3729
▁사업주	-11.3729
▁연구가	-11.3729
▁찬반	-11.373
▁1·2	-11.373
색이	-11.3734
▁개최되었다	-11.3735
▁말하며	-11.3735
▁팬들과	-11.3736
▁강화해	-11.3737
▁서서	-11.3739
▁착수했다	-11.3743
▁오가는	-11.3746
▁무엇입니까	-11.3747
▁아니었	-11.3747
▁마실	-11.3747
검사를	-11.3749
▁일가	-11.375
▁만남을	-11.3751
십니다	-11.3751
▁보컬	-11.3751
▁발전과	-11.3752
▁지금부터	-11.3752
▁표지	-11.3755
▁처리하는	-11.3756
▁소독	-11.3756
▁지원받	-11.3756
▁들리	-11.3757
▁박정	-11.3758
▁고쳐	-11.376
▁글씨	-11.3763
th	-11.3764
▁멀어	-11.3765
농장	-11.3765
▁기록해	-11.3766
▁지원센터	-11.3768
샌	-11.377
▁로드맵	-11.377
▁장벽	-11.377
▁컴백	-11.3771
▁시부터	-11.3771
수리	-11.3771
▁카드사	-11.3774
▁협력업체	-11.3776
▁나서야	-11.3777
▁우산	-11.3779
▁부탁합니다	-11.3781
▁밀집	-11.3786
▁효과적	-11.3786
▁건네	-11.3787
▁구워	-11.3788
▁한파	-11.379
시장의	-11.379
▁외국인이	-11.3791
물로	-11.3792
▁향이	-11.3792
▁살던	-11.3792
안내	-11.3792
▁다운로드	-11.3793
▁높아지	-11.3794
▁배제할	-11.3795
▁훈	-11.3796
특위	-11.3797
▁밝혔	-11.3798
급식	-11.38
▁확진	-11.38
▁보충	-11.3802
▁주인공이	-11.3802
▁장군	-11.3803
▁연장할	-11.3803
▁인종	-11.3804
주지	-11.3805
▁도발	-11.3806
▁치러	-11.3806
▁과다	-11.3807
▁날로	-11.3809
▁김선	-11.3811
문화예술	-11.3811
부품	-11.3811
▁일회용	-11.3814
▁키우고	-11.3814
회관	-11.3814
▁취하	-11.3815
▁법령에	-11.3815
▁오렌지	-11.3816
▁유래	-11.3816
▁메이저리그	-11.3816
취소	-11.3817
닥터	-11.3818
us	-11.3818
▁제작된	-11.382
▁곱	-11.382
▁지배구조	-11.3821
▁신한	-11.3821
그리	-11.3822
▁아래에	-11.3825
▁스페셜	-11.3826
해줘	-11.3826
▁청장	-11.3826
▁인사청문회	-11.3828
사령부	-11.3828
희가	-11.383
▁바뀌었다	-11.3831
▁않겠다는	-11.3831
층의	-11.3832
▁결실	-11.3832
▁맵	-11.3833
▁밑에	-11.3833
었으면	-11.3838
▁라오스	-11.3839
▁맛집	-11.3839
▁신고했다	-11.384
▁씨를	-11.384
시죠	-11.3841
▁1997	-11.3842
▁공용	-11.3843
량은	-11.3844
▁연말까지	-11.3845
▁놓여	-11.3845
▁국물	-11.3845
▁떠올랐다	-11.3848
▁남았	-11.3848
시다	-11.3849
▁시원	-11.385
▁일정에	-11.385
▁율	-11.3851
▁우체국	-11.3855
▁여행사	-11.3856
답게	-11.3857
경험	-11.3857
▁꿀	-11.3859
▁방문이	-11.3859
▁맛과	-11.3861
▁농림축산식품부	-11.3862
텀	-11.3862
▁스테이크	-11.3862
▁연평균	-11.3863
▁남는	-11.3864
▁출시된	-11.3864
▁참석한다	-11.3865
▁누구보다	-11.3866
일방적으로	-11.3867
▁없는지	-11.3867
▁보았	-11.3868
기사	-11.3868
였어	-11.3869
▁112	-11.3871
재를	-11.3872
▁연구기관	-11.3873
▁IP	-11.3873
폭력	-11.3877
▁거지	-11.3879
▁주관한	-11.388
▁사역	-11.388
▁들어서는	-11.3883
▁맡게	-11.3885
▁기자들과	-11.3885
▁모드	-11.3886
안타	-11.3888
▁바꾼	-11.3889
▁보내주신	-11.3891
▁전달하는	-11.3892
▁시급	-11.3893
▁논의할	-11.3898
에게서	-11.3899
▁믿는다	-11.39
공사가	-11.3901
▁근로자의	-11.3901
▁이바지	-11.3902
▁열광	-11.3902
▁발언은	-11.3902
▁무게	-11.3902
시장을	-11.3903
▁공사장	-11.3904
▁낙동강	-11.3908
▁이뤘다	-11.3908
▁이산가족	-11.3908
▁쌍둥이	-11.3908
▁합의에	-11.391
▁막혀	-11.391
군을	-11.3912
▁구성하되	-11.3913
했으니	-11.3913
▁때문이	-11.3913
▁집중할	-11.3913
▁치르	-11.3915
시켜야	-11.3918
스마트	-11.392
▁면모	-11.3923
동향	-11.3923
▁걷는	-11.3923
▁목회자	-11.3927
터미널	-11.3927
드립니다	-11.3929
샘	-11.393
▁좌절	-11.393
▁묻어	-11.3931
▁무거운	-11.3931
▁놀이터	-11.3932
▁이윤	-11.3934
▁매칭	-11.3935
계획서	-11.3935
▁기술적	-11.3937
▁제도적	-11.3937
▁의안	-11.394
▁속초	-11.3943
▁바탕	-11.3944
▁고사	-11.3945
▁선진	-11.3947
▁조카	-11.3947
▁민원인	-11.3947
▁남양주	-11.3948
▁잡았	-11.3949
▁갈라	-11.3949
설치	-11.3949
▁맞을	-11.3952
힘	-11.3954
▁기대되는	-11.3956
▁뜨겁게	-11.3957
▁단독주택	-11.3957
▁많다고	-11.3958
▁사생활	-11.396
▁성함	-11.3961
▁발판	-11.3961
▁대미	-11.3963
▁인상에	-11.3963
▁특색	-11.3964
▁참가했다	-11.3964
▁두바이	-11.3965
▁마련하기	-11.3965
▁61	-11.3967
▁대응이	-11.3968
▁기부금	-11.3968
▁배웠	-11.3968
▁구조적	-11.3971
▁판단되는	-11.3972
ur	-11.3972
▁받고자	-11.3972
▁지역에서는	-11.3973
인식	-11.3974
▁개선될	-11.3974
▁연결된	-11.3974
▁한옥	-11.3975
▁행정처분	-11.3975
▁바뀌	-11.3975
▁확정됐다	-11.3975
▁둘이	-11.3975
경북	-11.3976
싸움	-11.3978
▁지원과	-11.3978
▁만만치	-11.3978
▁프리미어리그	-11.3978
▁과잉	-11.3979
▁특성에	-11.3983
▁회장과	-11.3985
▁약정	-11.3987
▁이해하는	-11.3987
▁모두에게	-11.3987
▁띄는	-11.3988
▁의학	-11.399
▁결제가	-11.399
▁불고	-11.3991
▁가방은	-11.3992
▁발전소	-11.3995
▁수산물	-11.3996
회로	-11.3996
세종	-11.3996
▁조성하고	-11.3997
▁정하지	-11.3998
▁해소를	-11.3998
▁오찬	-11.3998
깨	-11.3999
▁겪어	-11.4001
▁셧다운	-11.4001
▁위원회에서	-11.4002
▁관심도	-11.4002
▁불구속	-11.4002
▁시흥	-11.4003
▁기다려주세요	-11.4003
▁전기요금	-11.4003
▁동굴	-11.4005
현직	-11.4005
▁자택	-11.4006
▁않거나	-11.4006
▁죽음을	-11.4006
▁기피	-11.4006
▁없네요	-11.4007
▁제시하는	-11.4007
▁마찬가지	-11.4007
물품	-11.4008
▁종사	-11.4008
열차	-11.4008
▁아우	-11.4009
▁증액	-11.4012
▁나가고	-11.4013
▁주민과	-11.4013
▁여정	-11.4015
▁화폐	-11.4016
▁비극	-11.4017
선언	-11.4018
▁있는데요	-11.4019
ES	-11.4019
9000	-11.402
▁추위	-11.402
▁팔리	-11.4022
▁원작	-11.4023
▁언론인	-11.4023
▁바비큐	-11.4025
▁피드백	-11.4025
▁다저스	-11.4025
▁안방극장	-11.4025
▁만하다	-11.4025
주차장	-11.4026
▁낮다	-11.4026
un	-11.4029
▁서서히	-11.403
▁대응할	-11.403
▁초기에	-11.4031
▁검토할	-11.4032
▁다운	-11.4032
우리는	-11.4033
▁정답	-11.4034
▁적발된	-11.4035
▁개발했다	-11.4037
▁급하게	-11.4038
▁수천	-11.4038
▁가짜뉴스	-11.4039
▁선정돼	-11.4039
▁소아	-11.404
▁탐방	-11.404
▁안다	-11.404
▁푹	-11.404
▁국가에서	-11.4043
트는	-11.4044
겨울	-11.4044
순환	-11.4044
▁박수를	-11.4045
화로	-11.4046
▁구비	-11.4047
디아	-11.4048
▁촛불	-11.4048
▁표현을	-11.4049
▁구의회	-11.4049
빌딩	-11.405
▁선고받	-11.4053
▁자활	-11.4053
▁높아지면서	-11.4053
▁위헌	-11.4054
▁받아서	-11.4054
▁쿠키	-11.4054
▁일일이	-11.4056
금은	-11.4057
▁수준이다	-11.4057
전으로	-11.4057
계를	-11.4057
▁명의로	-11.4058
▁프레임	-11.4058
▁15%	-11.4059
▁제출했다	-11.406
▁탓이다	-11.4062
▁열매	-11.4064
▁경제활동	-11.4065
▁분열	-11.4066
▁양주	-11.4067
▁작용했다	-11.4068
▁원가	-11.4068
▁방송국	-11.4069
▁여성들의	-11.4069
▁신형	-11.407
GM	-11.4071
▁일제강점기	-11.4072
▁아동학대	-11.4072
▁신학	-11.4072
해야만	-11.4072
하였는데	-11.4073
▁채용비리	-11.4073
▁이루어질	-11.4074
▁매출을	-11.4075
▁기념해	-11.4076
▁대상이다	-11.4076
▁규정함으로써	-11.4078
▁몰입	-11.4079
▁보일러	-11.4079
▁당국의	-11.4079
승을	-11.4079
▁곁	-11.408
82	-11.4082
단과	-11.4083
▁성장하는	-11.4084
▁멀티	-11.4085
▁식당에서	-11.4085
▁다니	-11.4089
변화	-11.409
▁간주	-11.4091
▁국영	-11.4095
▁CNN	-11.4096
홈	-11.4096
▁회장을	-11.4096
▁부서장	-11.4098
▁반기	-11.4099
▁꼬리	-11.41
▁구인	-11.4101
▁겨냥한	-11.4101
▁강구	-11.4101
답니다	-11.4102
▁버티	-11.4102
▁밭	-11.4104
▁즉석	-11.4104
하니까	-11.4109
제공	-11.4111
▁임산부	-11.4111
▁쉼터	-11.4111
▁자리잡	-11.4111
▁흑자	-11.4112
▁두번째	-11.4112
▁이어갈	-11.4113
▁남구	-11.4114
▁펼치	-11.4115
▁그렇다	-11.4116
6000	-11.4117
▁붓	-11.4118
▁돌입했다	-11.4119
유치	-11.412
SNS	-11.4121
▁마침내	-11.4122
▁청정	-11.4123
▁있었으면	-11.4124
▁배워	-11.4124
▁되었어요	-11.4125
▁그라운드	-11.4126
▁구매자	-11.4127
▁인문학	-11.4127
▁예술가	-11.4129
▁불필요한	-11.4129
▁3.1	-11.4132
▁구멍	-11.4133
▁팔아	-11.4134
액의	-11.4134
▁140	-11.4135
▁잎	-11.4135
▁속이	-11.4137
쟁	-11.4137
▁예우	-11.4137
▁진전이	-11.4138
▁자리로	-11.4138
▁과실	-11.4139
▁일들이	-11.4139
기부	-11.4139
▁인정하고	-11.414
▁주제를	-11.414
가루	-11.4141
털	-11.4142
▁용량	-11.4142
▁앞세워	-11.4143
▁픽업	-11.4143
되었는데	-11.4143
▁공공시설	-11.4144
▁선점	-11.4146
▁귀하	-11.4147
▁마련되어	-11.4148
▁제출된	-11.4148
▁김씨의	-11.4148
▁관련해서는	-11.4148
▁왕복	-11.415
▁감찰	-11.4152
▁했는지	-11.4153
우수	-11.4153
▁안에는	-11.4154
▁순찰	-11.4156
▁정시	-11.4157
▁관리하고	-11.416
▁산재	-11.416
▁열정	-11.4161
▁주택을	-11.4161
▁고리	-11.4165
▁기술력	-11.4165
조에서	-11.4167
▁외무상	-11.4167
대상은	-11.4168
▁슈팅	-11.4168
▁모릅니다	-11.4168
지인	-11.417
▁좋았다	-11.4173
▁경호	-11.4173
▁로드	-11.4174
▁현실적으로	-11.4175
▁치른	-11.4177
석은	-11.4177
▁공간에	-11.4177
▁주둔	-11.4177
▁체험을	-11.4181
▁재임	-11.4185
▁돌리	-11.4185
강원도	-11.4187
▁도시로	-11.4187
인분	-11.4188
주거	-11.4188
론을	-11.4188
▁각오	-11.4188
▁정통	-11.4189
영화제	-11.4189
▁준비할	-11.419
▁넘어섰다	-11.4191
돔	-11.4191
▁350	-11.4191
▁선보이고	-11.4192
영역	-11.4192
꿈	-11.4193
혁명	-11.4193
소에서	-11.4194
▁총무	-11.4195
▁신념	-11.4196
▁내각	-11.4196
용지	-11.4197
▁조현	-11.4197
▁대접	-11.4197
▁윈	-11.4198
▁클러스터	-11.4199
▁나고	-11.4201
▁개발사업	-11.4205
▁원주	-11.4207
▁다가가	-11.4207
▁개정안은	-11.4208
▁녹화	-11.4208
▁하나씩	-11.4209
▁알선	-11.4212
어도	-11.4213
▁시중	-11.4214
▁짧게	-11.4215
▁마이너스	-11.4215
▁느껴지는	-11.4215
등이	-11.4217
▁방지하기	-11.4217
▁그래요	-11.4218
유로	-11.4219
▁두루	-11.4219
▁그렇지만	-11.422
▁표출	-11.422
▁모습과	-11.4221
▁중앙은행	-11.4221
▁오천	-11.4221
▁부진한	-11.4225
▁어업	-11.4226
▁공연에	-11.4228
▁인식하고	-11.4229
▁합작	-11.4229
▁고속	-11.423
▁어렵	-11.423
▁미안	-11.4238
▁농기원	-11.4239
▁홍수	-11.424
▁균형을	-11.424
페스티벌	-11.4241
▁주어진	-11.4242
▁기록할	-11.4244
▁이끌었다	-11.4245
▁정무	-11.4246
우리가	-11.4248
▁씨와	-11.425
하죠	-11.425
▁자신과	-11.4251
▁수단	-11.4251
▁오케스트라	-11.4252
▁쓰여	-11.4252
▁도로를	-11.4254
▁네티즌	-11.4257
▁보다는	-11.4259
▁토론을	-11.4259
▁갖다	-11.4261
▁사안이	-11.4261
PI	-11.4262
▁반려	-11.4263
▁패러다임	-11.4263
▁받아들일	-11.4263
▁그룹이	-11.4263
▁자치회관	-11.4264
▁기둥	-11.4267
▁김광	-11.4267
▁날개	-11.4269
▁변경이	-11.4269
▁깎아	-11.4269
▁국무위원장과	-11.427
▁해운대	-11.4273
▁양해	-11.4274
▁넘은	-11.4274
▁차량은	-11.4277
▁않으면서	-11.4277
포장	-11.4277
▁건물은	-11.4278
▁찍는	-11.4278
드릴까요	-11.4279
▁대표단	-11.428
▁통영	-11.428
종목	-11.4281
▁김창	-11.4282
▁같다고	-11.4282
▁무게를	-11.4283
▁조성된	-11.4283
▁해상에서	-11.4284
▁지났	-11.4284
▁내려진	-11.4285
▁뉴욕에서	-11.4286
▁바뀌어	-11.4286
▁삼성물산	-11.4287
상인	-11.4287
띠	-11.4288
▁배부	-11.429
▁은혜	-11.429
▁실수로	-11.4291
공모	-11.4291
보고서를	-11.4293
독립	-11.4293
▁주장한다	-11.4293
▁화재로	-11.4293
▁저쪽	-11.4294
▁그러니까	-11.4296
▁그림은	-11.4298
▁등이다	-11.4298
센터장	-11.4299
▁가톨릭	-11.43
효율	-11.4302
▁거래처	-11.4302
▁서비스에	-11.4304
▁일체	-11.4305
▁주저	-11.4305
▁없으니	-11.4307
증명서	-11.4308
▁드시고	-11.4309
▁충주	-11.431
▁압도적	-11.431
사리	-11.431
AN	-11.4311
궐	-11.4311
▁퀴즈	-11.4311
▁로이터통신	-11.4311
▁대리인	-11.4311
▁빠질	-11.4314
SB	-11.4316
▁펼쳐질	-11.4316
▁노력하는	-11.4317
창호	-11.4317
▁상승했다	-11.4318
제도가	-11.432
판에	-11.432
▁때문이었다	-11.4321
▁경쟁률을	-11.4321
▁터널	-11.4322
▁업체는	-11.4324
기준에	-11.4324
▁지하철역	-11.4326
▁소각	-11.4326
▁평등	-11.4326
▁말씀드리	-11.4326
▁안정화	-11.4327
st	-11.4328
▁되게	-11.4328
▁중요하게	-11.4329
▁완성도	-11.433
▁하려면	-11.4331
없	-11.4331
물량	-11.4332
▁인정했다	-11.4333
난다	-11.4334
델	-11.4335
▁착각	-11.4337
▁운영해	-11.4338
검찰	-11.4339
▁광복	-11.4343
라이트	-11.4344
느	-11.4345
▁김제	-11.4346
▁맛있게	-11.4347
▁치과	-11.4349
▁적고	-11.4349
데도	-11.4349
▁관람객이	-11.4349
팀의	-11.4351
▁확실	-11.4351
시간은	-11.4353
▁공부할	-11.4355
▁쇼케이스	-11.4359
표준	-11.4361
▁통과한	-11.4362
▁동대문구	-11.4362
▁은폐	-11.4362
▁조언했다	-11.4363
▁의무가	-11.4363
▁우선순위	-11.4363
▁중구가	-11.4364
▁발달장애인	-11.4365
지방경찰청	-11.4366
▁시선이	-11.4367
▁안팎에서	-11.4367
▁발표하는	-11.4367
▁개발자	-11.4367
▁경제성장	-11.4367
▁헤드	-11.4367
▁아르바이트	-11.4368
이었어	-11.4369
민족	-11.4369
▁사례로	-11.4372
▁67	-11.4373
드리겠습니다	-11.4374
▁노출되	-11.4375
▁제발	-11.4377
▁예쁘	-11.4378
▁좋아지	-11.438
소방서	-11.4381
▁위의	-11.4381
▁지난주에	-11.4381
▁핑크	-11.4383
▁핸드	-11.4384
공업	-11.4384
▁가져올	-11.4384
▁KIA	-11.4385
▁대신해	-11.4386
▁구제	-11.4386
▁부위원장이	-11.4386
켜	-11.4387
셋	-11.4387
위인	-11.4388
해드릴게요	-11.4389
▁삼성이	-11.4389
▁병력	-11.439
▁정권이	-11.4393
정책에	-11.4396
▁난이도	-11.4397
▁시간도	-11.4399
▁천장	-11.4402
▁과태료를	-11.4402
스로	-11.4403
▁레드	-11.4403
▁가려면	-11.4404
▁다니고	-11.4405
▁지정하여	-11.4405
▁충남도	-11.4406
▁결핵	-11.4408
〉	-11.4408
수업	-11.4409
▁쉽다	-11.4412
매매	-11.4415
▁전철	-11.4415
▁쏘	-11.4416
납니다	-11.4421
▁날짜를	-11.4422
ation	-11.4422
▁욕심	-11.4424
▁취향	-11.4424
있어	-11.4425
▁원격	-11.4426
▁김준	-11.4427
▁조지	-11.4428
▁개정을	-11.4429
▁프로야구	-11.4431
°	-11.4433
▁거울	-11.4433
▁확보가	-11.4434
총회	-11.4434
▁소멸	-11.4435
했음에도	-11.4436
▁여성은	-11.4439
▁어쩌면	-11.4439
▁깨닫	-11.4439
▁찬양	-11.444
했다며	-11.4441
지원사업	-11.4443
▁말부터	-11.4443
▁르	-11.4445
흡	-11.4445
▁느꼈다	-11.4448
▁합산	-11.4449
▁버섯	-11.4449
▁막걸리	-11.4449
▁어르신들	-11.4452
공공기관	-11.4453
▁사흘	-11.4455
서도	-11.4455
▁번영	-11.4455
▁희귀	-11.4458
꺼	-11.4459
▁유동성	-11.4461
▁셰프	-11.4461
▁검토한	-11.4462
▁주춤	-11.4465
버렸다	-11.4471
▁필름	-11.4472
으신	-11.4473
였	-11.4473
정권	-11.4473
▁내일은	-11.4474
▁예고했다	-11.4474
▁않기로	-11.4475
인들은	-11.4477
▁바르셀로나	-11.4478
▁지형	-11.4478
▁개편안	-11.4478
▁상인들	-11.448
▁동남아시아	-11.4482
▁아산	-11.4482
▁차가운	-11.4482
▁담겨있다	-11.4483
▁혼합	-11.4484
▁교육의	-11.4484
▁평택시	-11.4485
계열	-11.4486
▁가평	-11.4486
▁노트	-11.4486
점에	-11.4487
▁진단을	-11.4487
▁연체	-11.4489
▁나왔습니다	-11.4489
▁학생들과	-11.449
▁잠재	-11.449
▁증설	-11.449
▁b	-11.4491
▁이불	-11.4492
▁추천하는	-11.4492
∼7	-11.4493
▁경기력	-11.4494
▁먹어야	-11.4494
성분	-11.4494
▁공직선거법	-11.4495
▁짝	-11.4496
08	-11.4498
공간을	-11.4498
▁판단에	-11.4499
임이	-11.4499
▁줄고	-11.4501
북부	-11.4503
▁지속되고	-11.4503
▁딜	-11.4505
▁캄보디아	-11.4506
▁떠오른	-11.4506
비전	-11.4507
▁없었고	-11.4508
포트	-11.4508
컷	-11.4511
했나요	-11.4512
▁깔	-11.4514
확보	-11.4514
▁음료수	-11.4516
▁익숙한	-11.4521
▁구름	-11.4521
조리	-11.4522
▁1,2	-11.4522
▁찾아와	-11.4523
▁외에는	-11.4523
사태	-11.4523
산이	-11.4523
▁부양	-11.4523
강사	-11.4526
▁이사장이	-11.4527
▁파악할	-11.4527
▁요청에	-11.4529
크림	-11.453
▁그림이	-11.453
▁더해져	-11.453
▁정책실장	-11.4531
▁까닭	-11.4531
▁곤충	-11.4533
▁방송에	-11.4533
▁설치돼	-11.4533
∼3	-11.4533
▁그런지	-11.4534
▁황의조	-11.4534
▁없었어요	-11.4537
▁헌재	-11.4537
기본계획	-11.4539
이즈	-11.454
▁소문이	-11.454
▁다음주	-11.4541
모든	-11.4542
▁우려했다	-11.4542
▁수준인	-11.4542
▁미안해	-11.4544
▁정화	-11.4545
▁일련	-11.4546
▁공무원으로	-11.4547
▁국민일보	-11.4547
▁지키기	-11.455
▁부족하다	-11.4552
▁아닌데	-11.4552
▁엄격한	-11.4555
▁있으니까	-11.4556
▁베테랑	-11.4556
▁부탁드려요	-11.4556
든지	-11.4557
금융지주	-11.4557
▁않으며	-11.4559
▁효율	-11.4559
왔습니다	-11.4562
▁높지	-11.4563
야만	-11.4563
▁울리	-11.4564
AT	-11.4564
에프	-11.4568
▁그려진	-11.4569
▁둘러	-11.4569
▁깔끔	-11.4571
▁혈관	-11.4571
▁없지	-11.4572
드림	-11.4575
▁목격	-11.4577
전은	-11.4578
▁업무가	-11.4578
▁악영향	-11.4581
GB	-11.4582
▁살펴보고	-11.4583
▁의심되는	-11.4584
▁특징이	-11.4584
식은	-11.4584
▁시속	-11.4585
▁오페라	-11.4585
▁동북아	-11.4585
주와	-11.4589
▁자유를	-11.4589
▁경로당	-11.459
▁공이	-11.459
행사를	-11.459
▁갖추어	-11.4592
▁나간	-11.4592
▁합격자	-11.4594
▁수업은	-11.4595
▁온다	-11.4595
▁빈곤	-11.4597
▁지진이	-11.4597
▁원으로	-11.4598
▁주축	-11.46
▁개최를	-11.4602
▁캔	-11.4603
▁사무실에	-11.4604
▁나만	-11.4605
▁말씀이	-11.4605
▁재적위원	-11.4606
▁내놓	-11.4606
▁바뀔	-11.4606
▁작용할	-11.4606
▁초에	-11.4606
▁의한다	-11.4606
▁“‘	-11.4607
쿼터	-11.4607
▁마이클	-11.4608
▁심정	-11.4609
▁국가주석	-11.4609
월드컵	-11.461
▁러	-11.4613
▁대응하기	-11.4613
▁하나하나	-11.4613
영국	-11.4614
▁복지부	-11.4614
▁작품으로	-11.4614
▁세상이	-11.4615
재단이	-11.4615
▁양극화	-11.4618
▁수감	-11.4618
▁은행권	-11.4619
▁도시락	-11.4619
▁AP	-11.4619
▁먹어도	-11.4621
▁술에	-11.4622
▁끄는	-11.4622
▁것임을	-11.4622
▁방탄소년단이	-11.4623
▁공개된다	-11.4623
점은	-11.4623
보육	-11.4624
대사관	-11.4624
▁부임	-11.4626
▁플	-11.4627
▁자치법규	-11.4631
▁아이콘	-11.4633
지점	-11.4634
몸	-11.4634
▁권한이	-11.4635
촬영	-11.4635
▁인재를	-11.4636
▁편안하게	-11.4636
해주시면	-11.4637
▁분과위원회	-11.4642
▁올라왔다	-11.4642
▁승점	-11.4642
차관	-11.4644
▁급한	-11.4645
▁선물로	-11.4645
▁매장에	-11.4646
▁인정받	-11.4646
▁부천시	-11.4647
▁작성하고	-11.4647
▁장수	-11.4648
▁설치한다	-11.4651
▁신산업	-11.4651
▁말아야	-11.4652
▁유로	-11.4652
▁줄줄	-11.4655
▁과기정통부	-11.4655
정리	-11.4657
▁알려지지	-11.4657
▁빨간색	-11.4657
정상회담	-11.466
잘	-11.4662
▁조성에	-11.4664
▁쏟아졌다	-11.4664
종을	-11.4666
▁미국으로	-11.4667
▁Q	-11.4667
만으로는	-11.4668
▁베스트	-11.4668
커피	-11.4669
1%)	-11.4669
▁저가	-11.4671
▁방으로	-11.4672
▁줄어	-11.4675
▁집값이	-11.4676
▁경기지사	-11.4677
▁바뀌는	-11.4677
▁자동화	-11.4678
▁사실에	-11.4678
멘	-11.4679
▁돌아오는	-11.4679
▁싸우	-11.4679
재해	-11.468
▁법조계	-11.4681
▁주도권	-11.4681
개인	-11.4682
▁동아시아	-11.4683
▁실체	-11.4686
▁인삼	-11.4687
▁73	-11.4689
▁성격을	-11.469
거리가	-11.4691
▁항공권	-11.4692
영향평가	-11.4692
▁형이	-11.4692
▁예방접종	-11.4694
▁예상치	-11.4695
▁스카이	-11.4695
▁봤는데	-11.4696
▁세관	-11.4696
▁살이	-11.4696
아서	-11.4698
▁됐어요	-11.4698
▁창출을	-11.4699
점수	-11.4702
▁위기가	-11.4703
▁흉	-11.4703
▁높을	-11.4705
내에	-11.4705
▁가늠	-11.4706
▁감사드린다	-11.4706
▁걸맞	-11.4708
법안	-11.4709
▁사진에	-11.4709
▁날은	-11.4712
▁줄어들고	-11.4712
▁바른	-11.4715
었는지	-11.4715
형이	-11.4715
▁살아남	-11.4716
구에	-11.4717
▁주시겠습니까	-11.4718
강화	-11.4718
▁기념품	-11.4721
▁야권	-11.4723
▁목격자	-11.4726
▁경향	-11.4728
보존	-11.4728
스쿨	-11.4729
컴퍼니	-11.4731
▁스틸	-11.4731
▁거액	-11.4732
▁불편함	-11.4732
▁운반	-11.4733
요인	-11.4733
▁청춘	-11.4734
었기	-11.4734
▁들어선	-11.4735
▁방식은	-11.4739
문제를	-11.4739
▁뜨겁다	-11.4739
돼서	-11.4741
▁주역	-11.4742
기보다는	-11.4742
비리	-11.4742
개씩	-11.4744
▁확보에	-11.4745
▁누르	-11.4745
▁송환	-11.4746
▁사업자가	-11.4746
▁영업이익이	-11.4747
▁강하다	-11.4748
▁판단이다	-11.475
▁상설	-11.475
▁동대문	-11.4754
▁유기농	-11.4754
▁샘	-11.4755
▁눌러	-11.4755
▁구매하는	-11.4756
▁이어서	-11.4756
▁대기오염	-11.4756
83	-11.4756
▁학문	-11.4757
듬	-11.4757
▁홍보대사	-11.4759
▁미달	-11.476
▁제도개선	-11.476
▁기장	-11.476
▁틀어	-11.4761
▁뒤쪽	-11.4761
▁유력한	-11.4761
소통	-11.4764
에서만	-11.4764
▁그러니	-11.4765
스토	-11.4765
▁상태였다	-11.4766
▁조업	-11.4767
▁구축하고	-11.4769
▁세션	-11.4771
▁영토	-11.4772
▁음식물	-11.4772
관리하여야	-11.4773
▁해소하기	-11.4774
▁박탈	-11.4775
제조	-11.4775
▁카페에서	-11.4776
하겠지만	-11.4777
▁년간	-11.4777
렵	-11.4778
렀	-11.4779
▁경신	-11.4779
▁전달할	-11.4781
▁일과	-11.4781
▁기획예산과장	-11.4781
▁손학규	-11.4781
▁진상규명	-11.4781
▁구체화	-11.4782
▁1994	-11.4785
▁몽	-11.4785
▁교직원	-11.4785
▁전환을	-11.4787
▁뛰어들	-11.4787
▁우리도	-11.4788
▁내놓고	-11.4789
▁이재용	-11.4789
셨습니다	-11.4794
▁공장이	-11.4794
▁실질	-11.4795
▁오피스	-11.4795
조작	-11.4796
이어야	-11.4797
▁위촉된	-11.4797
▁일대에	-11.4797
▁안내해	-11.4798
만원에	-11.4799
적이지	-11.4802
▁위치에	-11.4802
▁안된다	-11.4803
▁채로	-11.4803
앞으로도	-11.4803
▁것이기	-11.4803
ad	-11.4804
▁신속	-11.4804
▁인문	-11.4805
▁사업체	-11.4806
▁금융사	-11.4806
쉐	-11.4807
▁손잡고	-11.4807
▁위장	-11.4808
▁공무	-11.4808
▁전망하고	-11.4808
▁각기	-11.4808
하는지	-11.481
▁〈	-11.481
공학	-11.481
▁구속영장이	-11.4811
▁받았어요	-11.4811
▁할머니가	-11.4812
▁상식	-11.4813
측은	-11.4814
▁달간	-11.4815
▁홍콩에서	-11.4816
공시	-11.4817
스토리	-11.4817
▁국제적	-11.4817
역을	-11.482
▁법이	-11.4821
▁작곡가	-11.4821
만개	-11.4823
▁대행한다	-11.4824
▁시스템에	-11.4825
▁학교는	-11.4828
▁진도	-11.4829
▁브랜드가	-11.4829
▁뮤직	-11.4829
▁족	-11.483
▁한국은행	-11.483
▁처우	-11.4832
▁다를	-11.4832
▁국제유가	-11.4833
▁시민들에게	-11.4833
▁그러던	-11.4834
▁설탕	-11.4835
▁따지	-11.4837
요소	-11.4837
▁표결	-11.4838
▁사양	-11.4838
▁자식	-11.4838
방이	-11.4838
▁안심하고	-11.4838
▁인디	-11.4838
실은	-11.4838
인실	-11.4839
▁달라질	-11.484
곧	-11.484
▁했기	-11.4841
▁일각	-11.4842
▁신혼부부	-11.4843
막이	-11.4844
▁컨소시엄	-11.4844
▁됐다는	-11.4844
▁모형	-11.4846
▁중증	-11.4847
▁우려되는	-11.4848
▁상관없	-11.4851
통화	-11.4854
▁기승	-11.4854
▁분배	-11.4855
▁거품	-11.4855
▁기념행사	-11.4856
▁적용하는	-11.4857
▁몰고	-11.4858
▁전라남도	-11.4858
▁국가정보원	-11.4858
▁각별한	-11.4858
지방법원	-11.4858
▁드레스	-11.4858
▁때로	-11.4859
▁다가온	-11.4859
▁마음껏	-11.4859
▁우수사례	-11.4859
▁묶어	-11.486
▁없애	-11.486
▁있었으며	-11.486
▁그리워	-11.486
권은	-11.4861
금액이	-11.4861
▁따뜻하게	-11.4862
▁영역을	-11.4863
▁과열	-11.4863
▁보람	-11.4863
▁들어가면	-11.4863
▁가속화	-11.4865
▁주관으로	-11.4865
잎	-11.4866
▁누나	-11.4866
▁과천	-11.4867
▁현지인	-11.4867
▁부모와	-11.4868
▁향기	-11.4868
▁고의	-11.487
▁느낀다	-11.4872
▁도의원	-11.4872
▁때에	-11.4873
▁숫자가	-11.4874
자녀	-11.4875
▁우수성	-11.4876
▁아닌가요	-11.4876
구민	-11.4876
▁하차	-11.4877
▁포기하지	-11.4877
▁한전	-11.4877
▁주식시장	-11.4878
▁차등	-11.4879
▁낮게	-11.488
▁현실이	-11.488
▁우호	-11.4883
▁생산량	-11.4884
▁시한	-11.4885
▁김승	-11.4885
▁구사	-11.4886
▁있음에도	-11.4887
▁친구들은	-11.4887
▁부합	-11.4887
관으로	-11.4887
▁조용히	-11.489
극장	-11.4891
▁부모님이	-11.4892
▁가능하다고	-11.4892
▁펼친	-11.4893
▁찾는다	-11.4893
▁위탁운영	-11.4895
▁고령자	-11.4896
▁불법행위	-11.4897
▁경선	-11.4898
▁않으려	-11.49
▁장소는	-11.49
▁‘1	-11.4901
▁연준	-11.4901
▁스키	-11.4901
▁오일	-11.4902
▁영암	-11.4903
▁파도	-11.4904
▁저축은행	-11.4904
▁퇴원	-11.4904
▁봤어요	-11.4905
▁근무시간	-11.4905
▁칩	-11.4907
▁자르	-11.4907
▁광주형	-11.4907
▁액	-11.4908
▁고혈압	-11.4909
▁표현이	-11.491
▁지키지	-11.491
▁김혜	-11.4911
수용	-11.4913
▁물러나	-11.4914
▁혼잡	-11.4916
▁읽을	-11.4916
▁시트	-11.4916
▁장병	-11.4918
▁권유	-11.492
▁리드	-11.4921
(11	-11.4924
▁셀프	-11.4925
▁본관	-11.4925
▁마련하는	-11.4926
▁무역전쟁이	-11.4928
폭이	-11.4928
셨다	-11.4932
작전	-11.4933
▁정정	-11.4934
보조금	-11.4934
▁맞물려	-11.4935
▁내세우	-11.4935
▁색이	-11.4935
계가	-11.4935
▁사로잡았다	-11.4936
▁재계	-11.4936
▁재검토	-11.4937
측정	-11.4938
▁상당수가	-11.4938
▁미흡	-11.4939
▁입구에	-11.4939
▁요청합니다	-11.494
▁맑	-11.4941
능력이	-11.4942
▁충당	-11.4942
▁미션	-11.4943
▁한하여	-11.4943
▁롤	-11.4944
▁오르고	-11.4944
우주	-11.4944
▁셈	-11.4945
▁플라	-11.4945
▁증폭	-11.4946
관의	-11.4946
조치를	-11.4947
▁중개	-11.4947
전시회	-11.4949
▁이겨	-11.4949
플러스	-11.495
▁건강하게	-11.4951
▁신청하면	-11.4951
▁세상에서	-11.4952
▁작품이다	-11.4953
▁김학의	-11.4954
▁쌓여	-11.4955
▁트리	-11.4955
▁응용	-11.4956
이면서	-11.4957
▁일정으로	-11.4958
▁대중화	-11.4958
∼19	-11.4959
▁연계한	-11.4961
전력	-11.4961
세에	-11.4962
운송	-11.4962
▁트랙	-11.4963
▁지원자	-11.4963
▁인허가	-11.4963
냐고	-11.4964
▁합법	-11.4965
▁지상파	-11.4965
▁친서	-11.4967
▁돌아가는	-11.4972
▁좋아하고	-11.4972
▁중고	-11.4973
팀과	-11.4973
▁노동자들이	-11.4975
▁도자	-11.4975
▁증진을	-11.4976
▁훌륭	-11.4977
▁벌금형	-11.4978
▁맥락	-11.4979
▁연습을	-11.4979
▁콘서트가	-11.498
▁학교급식	-11.498
구의회	-11.4981
▁직원에게	-11.4984
체육회	-11.4984
▁작사	-11.4985
▁통화정책	-11.4985
▁맞추어	-11.4985
▁톡톡	-11.4986
▁of	-11.4986
▁국군	-11.4987
▁구할	-11.4987
∼4	-11.4988
매치	-11.499
심사위원회	-11.4991
스럽	-11.4993
농협	-11.4996
리의	-11.4996
▁공감을	-11.4997
표시	-11.4998
등의	-11.5
▁실장은	-11.5003
▁내놓을	-11.5007
▁보도자료	-11.5007
▁산업부	-11.5007
▁주유소	-11.5008
▁톱	-11.5008
▁캘리포니아	-11.5009
▁경쟁사	-11.5009
▁음악회	-11.5009
▁등장해	-11.501
▁사업추진	-11.5011
▁공문	-11.5011
▁기자들	-11.5012
▁관광객들	-11.5012
▁개그맨	-11.5012
▁낮춰	-11.5012
▁합의문	-11.5014
▁익명	-11.5014
▁집중력	-11.5017
▁괜찮습니다	-11.5018
▁저렴하게	-11.5021
지현	-11.5022
▁달이	-11.5022
▁재학생	-11.5024
▁밀접한	-11.5024
▁새마을	-11.5025
▁결론이	-11.5026
▁조경	-11.5027
▁조치로	-11.5028
▁연탄	-11.5028
▁둘러보	-11.5029
가지고	-11.503
국은	-11.5032
지대	-11.5034
▁도와드리겠습니다	-11.5039
했거나	-11.5039
▁삼성생명	-11.5039
▁러시아월드컵	-11.504
지킴이	-11.504
비용이	-11.5041
짝	-11.5041
▁없었지만	-11.5041
친화적	-11.5042
▁1995	-11.5042
▁작은도서관	-11.5042
▁선택하는	-11.5043
▁재편	-11.5045
결과를	-11.5048
and	-11.505
▁업체와	-11.505
▁휴대	-11.5052
▁이견	-11.5053
▁박상	-11.5053
▁돌보	-11.5054
▁지역별로	-11.5054
의약품	-11.5055
거야	-11.5057
▁웨이	-11.5057
민주당	-11.5059
이죠	-11.5061
▁푸드	-11.5062
▁뒤에도	-11.5064
▁좁아	-11.5064
▁규탄	-11.5064
▁많았	-11.5065
▁공개모집	-11.5065
피아	-11.5065
▁빙	-11.5067
▁하락했다	-11.5067
▁1996	-11.5068
▁입건	-11.5068
▁여파	-11.5071
▁교수와	-11.5071
▁여행지	-11.5071
▁생활에	-11.5072
학을	-11.5074
▁내놓았다	-11.5074
플랫폼	-11.5075
▁간담회에서	-11.5076
▁62	-11.5077
▁임직원들	-11.5078
▁걸린다	-11.5079
요리	-11.5082
▁다할	-11.5082
드린	-11.5083
▁실증	-11.5083
▁공존	-11.5085
맹	-11.5085
▁키즈	-11.5086
▁상승한	-11.5087
▁터치	-11.5088
▁상황과	-11.5089
▁그렇습니다	-11.509
▁넣는	-11.509
▁프로듀서	-11.509
▁핵무기	-11.5091
▁당연한	-11.5091
▁과시	-11.5093
▁국정감사	-11.5093
▁연락해	-11.5094
▁소중	-11.5095
▁선보이며	-11.5096
강남	-11.5097
▁선언했다	-11.5098
▁없거나	-11.5098
▁과거와	-11.51
▁4000	-11.51
▁무상으로	-11.5101
▁메시	-11.5104
뷰티	-11.5104
▁전하는	-11.5104
▁설교	-11.5105
▁민정수석	-11.5106
▁개발과	-11.5106
▁걸어서	-11.5107
▁한국어로	-11.5107
산단	-11.5108
▁기술로	-11.5108
▁싶다고	-11.511
옵니다	-11.5113
▁알림	-11.5114
▁대안을	-11.5114
해달라는	-11.5115
▁금리인상	-11.5117
▁내로	-11.5117
▁대한민국이	-11.5117
▁보인다고	-11.5118
▁올라와	-11.5118
▁민주화	-11.5118
선교	-11.5118
항목	-11.5119
▁나가서	-11.5119
▁있네요	-11.5122
0.0	-11.5122
▁전해진다	-11.5125
▁파기	-11.5127
▁식민지	-11.5127
보유	-11.5129
▁토마토	-11.5131
투쟁	-11.5132
▁있는지를	-11.5133
터를	-11.5135
▁해결해	-11.5135
형으로	-11.5136
▁작가는	-11.5137
▁비례	-11.5138
▁인명	-11.5139
▁시행하고	-11.514
국악	-11.514
▁전쟁이	-11.514
▁발탁	-11.5146
▁적용된다	-11.5146
▁가구가	-11.5149
지수가	-11.5149
▁그것에	-11.5151
▁교육생	-11.5151
▁영감	-11.5152
▁통관	-11.5153
▁투자하는	-11.5153
댐	-11.5154
▁관하여는	-11.5154
▁운동장	-11.5156
▁입대	-11.5157
▁불신	-11.5157
▁납세자	-11.5158
▁즐거움을	-11.5158
▁톤	-11.5158
▁어색	-11.5159
▁믿	-11.5159
▁최종적으로	-11.516
▁차종	-11.516
▁거다	-11.5161
▁단절	-11.5162
▁정관	-11.5163
▁s	-11.5164
▁고치	-11.5164
위탁	-11.5164
▁상기	-11.5166
휴가	-11.5168
▁우즈벡	-11.5169
▁진열	-11.5169
▁달라지	-11.517
▁경기침체	-11.517
운동을	-11.517
SI	-11.517
스테이	-11.5171
였으며	-11.5173
▁카카오페이	-11.5173
▁유명하다	-11.5174
▁쏟아져	-11.5177
▁청구서	-11.5178
▁경사	-11.5178
▁다가오는	-11.5181
드루킹	-11.5181
▁조례안	-11.5181
▁믿는	-11.5182
▁현실이다	-11.5183
혜택	-11.5183
▁트위터에	-11.5184
▁$	-11.5185
▁블룸버그	-11.5185
▁구매를	-11.5186
▁출석한	-11.5186
류를	-11.5187
▁위험도	-11.5188
▁박성	-11.5189
일반	-11.5189
▁버거	-11.5191
▁세균	-11.5191
갱	-11.5192
▁정점	-11.5195
▁콜롬비아	-11.5195
▁프로젝트에	-11.5196
▁빛나는	-11.5197
부로	-11.5197
▁탐사	-11.5198
▁지역화폐	-11.5199
▁무사히	-11.52
▁사본	-11.52
▁만들어낸	-11.5201
분양	-11.5201
참모	-11.5202
▁회원이	-11.5204
▁지난해에	-11.5205
▁시설에	-11.5206
사항에	-11.5206
▁용기를	-11.5211
▁알릴	-11.5212
라이프	-11.5212
▁그랜드	-11.5217
▁전복	-11.5217
로우	-11.5217
▁나가야	-11.5217
▁자녀들	-11.5219
▁초청해	-11.5222
▁기다릴	-11.5222
▁차례로	-11.5222
▁캐스팅	-11.5222
▁증가해	-11.5222
▁크루즈	-11.5222
▁상륙	-11.5223
▁방화	-11.5223
▁실업	-11.5223
보라	-11.5224
▁개소	-11.5225
▁폭락	-11.5225
▁졸업생	-11.5225
▁의원들의	-11.5226
▁노력해야	-11.5226
▁사진으로	-11.5226
판이	-11.5227
▁있으시면	-11.5227
▁돈으로	-11.5228
▁미안해요	-11.5229
▁겨	-11.523
▁온천	-11.523
▁주민들에게	-11.523
위와	-11.5232
▁일관	-11.5234
▁연중	-11.5235
▁고객은	-11.5236
▁명목으로	-11.5236
▁도와줄	-11.5236
▁업적	-11.5236
▁박해	-11.5237
▁국가와	-11.5237
▁접근성	-11.5239
▁데서	-11.524
▁여러분들	-11.524
TC	-11.5241
▁꾸며	-11.5243
보기	-11.5243
▁사랑에	-11.5244
▁사망했다	-11.5244
▁개최됐다	-11.5244
수산	-11.5246
▁원에	-11.5247
식당	-11.5247
톨	-11.5248
▁그러므로	-11.5249
▁들여다보	-11.5249
▁실거래가	-11.5249
볼게요	-11.5252
▁수록	-11.5253
▁시험이	-11.5256
▁향토	-11.5256
▁함양	-11.5257
▁예약하고	-11.5257
▁차관이	-11.5257
한반도	-11.5258
▁마련이	-11.526
▁이틀간	-11.526
▁알려야	-11.5261
시키려	-11.5261
성폭력	-11.5262
▁멈추	-11.5264
▁얻었	-11.5264
신청서	-11.5265
▁위치하고	-11.5267
▁여사가	-11.5268
▁증가에	-11.5269
▁SW	-11.5272
▁약속이	-11.5273
통을	-11.5274
▁늘리고	-11.5275
▁뭐라고	-11.5276
서부	-11.5276
▁리듬	-11.5276
▁일곱	-11.5277
▁커서	-11.5277
▁교섭단체	-11.5277
▁떠날	-11.5278
▁연차	-11.5279
조로	-11.5279
▁항구	-11.5281
▁이용하면	-11.5283
▁지역과	-11.5285
▁영위	-11.5285
함으로	-11.5286
▁예방하기	-11.5288
▁부를	-11.5288
▁연루된	-11.5291
▁환자를	-11.5294
▁고무	-11.5295
▁달콤한	-11.5295
▁징역형	-11.5297
3000	-11.5297
▁주문할	-11.5297
2,000	-11.5298
▁지지층	-11.5298
FA	-11.5299
▁회사와	-11.53
▁공기가	-11.53
었다고	-11.53
▁임박	-11.53
▁쉬고	-11.53
▁생각하기	-11.5301
▁높아진다	-11.5302
▁도울	-11.5302
▁한유총	-11.5302
▁아랍	-11.5304
▁넘는다	-11.5305
다보니	-11.5305
▁종류는	-11.5307
청소	-11.5307
▁열정을	-11.5308
▁경감	-11.5308
되었지만	-11.5309
스텔	-11.5309
년차	-11.531
▁건국	-11.5311
▁심각	-11.5311
위원은	-11.5313
▁프레	-11.5314
▁가세요	-11.5314
롯데	-11.5316
▁주한	-11.5317
▁변상	-11.5317
▁주먹	-11.5317
법률	-11.5319
▁순회	-11.532
▁시스템은	-11.532
▁충청	-11.5321
▁적도	-11.5322
▁가수들	-11.5322
▁언급하며	-11.5324
▁이민자	-11.5324
골프	-11.5325
▁스탠	-11.5325
▁보유세	-11.5326
▁어려웠다	-11.5327
▁소재한	-11.5327
▁전화로	-11.5328
▁축제로	-11.5328
▁행복해	-11.5328
▁쓰이는	-11.5328
▁가라앉	-11.5328
▁잇따르고	-11.5328
▁드러낸	-11.5329
▁농작물	-11.5329
▁효율성을	-11.5329
▁뉴욕타임스	-11.5329
▁사로잡는다	-11.5329
▁숨지게	-11.5329
▁택시기사	-11.533
▁단식	-11.533
▁친한	-11.5331
▁담당부서	-11.5334
▁사용된	-11.5335
▁배경이	-11.5335
PM	-11.5336
▁거센	-11.5336
님께	-11.5337
▁적성	-11.534
▁도시농업	-11.534
▁각급	-11.534
및	-11.5342
▁차는	-11.5343
▁중요하다는	-11.5344
▁총리와	-11.5345
▁연안	-11.5345
▁구속된	-11.5345
마이	-11.5346
▁남북한	-11.5347
▁빌보드	-11.5347
▁동상	-11.5348
▁방향이	-11.535
▁자로	-11.5354
▁동일하게	-11.5355
▁셔틀버스	-11.5355
▁성접대	-11.5355
▁의결권	-11.5357
▁말씀하시는	-11.5357
회와	-11.5359
▁그만두	-11.5359
▁보냈습니다	-11.536
▁SM	-11.536
▁원피스	-11.536
▁당선인	-11.5361
▁야근	-11.5363
▁거라는	-11.5367
▁도착했다	-11.5367
▁읽기	-11.5369
최저임금	-11.5369
흔	-11.5369
▁노란	-11.5371
▁화물차	-11.5373
▁가능하다면	-11.5373
▁신청했다	-11.5374
생물	-11.5374
시께	-11.5374
▁강진	-11.5375
▁잊	-11.5377
▁거주자	-11.5377
▁불행	-11.5378
하셨나요	-11.538
▁기반이	-11.538
▁하겠다는	-11.5381
▁제동	-11.5381
▁머무르	-11.5382
▁에피소드	-11.5382
▁자아냈다	-11.5382
▁전자상거래	-11.5382
뜰	-11.5382
▁오바마	-11.5382
▁공립	-11.5382
▁영문	-11.5383
▁강조하고	-11.5383
▁딸을	-11.5385
소에	-11.5386
▁영원히	-11.5386
▁펼쳐지는	-11.5387
▁일으키	-11.5387
럭	-11.5388
▁못했다는	-11.5388
▁남양주시	-11.5389
▁경험한	-11.5391
강에	-11.5395
듀	-11.5395
▁영예	-11.5396
잇	-11.5396
공학과	-11.5397
▁용서	-11.5397
▁호재	-11.5398
좋은	-11.5398
▁답변이	-11.5398
호기	-11.54
▁파장이	-11.5402
공원에서	-11.5404
▁신차	-11.5405
▁결정적인	-11.5406
SK	-11.5407
타임	-11.5407
였다는	-11.5408
▁범위가	-11.5409
▁하얀	-11.5409
▁이유에서다	-11.541
교육원	-11.541
▁창의	-11.541
▁서정	-11.541
▁노란색	-11.5411
▁선순환	-11.5411
▁담당하고	-11.5412
▁말하지	-11.5413
▁많았던	-11.5414
▁거주지	-11.5416
접수	-11.5416
▁불가능합니다	-11.5416
▁전시관	-11.5417
▁불편이	-11.5418
▁제공되는	-11.5418
8000	-11.5418
▁관련해서	-11.5419
▁이유도	-11.5419
▁미미	-11.5421
▁제한하는	-11.5422
▁사용하면	-11.5422
▁양국이	-11.5426
▁턱	-11.5427
▁사적	-11.5429
▁스파	-11.543
▁중형	-11.5431
▁데이	-11.5431
▁발의한	-11.5431
▁구름이	-11.5432
▁한두	-11.5433
▁맘	-11.5434
(17	-11.5435
▁발음	-11.5436
▁북부지역	-11.5436
▁열흘	-11.5437
▁가난한	-11.5438
훈이	-11.5439
▁서기는	-11.5441
▁의의	-11.5443
▁끌려	-11.5447
▁88	-11.5447
▁팀에	-11.5448
▁수익이	-11.5448
재정적	-11.5448
▁경제성장률	-11.5449
리더	-11.545
ie	-11.5451
▁정보기술	-11.5452
기관으로	-11.5453
▁납부하여야	-11.5454
계획에	-11.5455
▁월세	-11.5455
으므로	-11.5455
진료	-11.5456
▁고충	-11.5457
▁죽어	-11.5459
보급	-11.5459
▁치우	-11.5459
▁감수	-11.5461
안은	-11.5461
▁보이는데	-11.5462
영어	-11.5463
▁미드필더	-11.5463
▁안타까운	-11.5463
▁탐	-11.5464
▁조선일보	-11.5465
▁이야기는	-11.5465
▁여배우	-11.5465
▁주장에	-11.5465
카드를	-11.5465
▁좋을까요	-11.5467
싶	-11.5468
▁사업화	-11.5468
▁거니	-11.5469
▁77	-11.5472
▁위안화	-11.5473
▁1960	-11.5473
소비자	-11.5474
▁장면은	-11.5476
▁항소	-11.5476
▁수급자	-11.5476
▁나름	-11.5477
▁편한	-11.5477
▁언제부터	-11.5477
평가를	-11.548
▁운영비	-11.5481
▁결제는	-11.5481
▁공개해	-11.5482
▁정차	-11.5483
▁남성의	-11.5484
▁비대위	-11.5485
TF	-11.5486
▁들어설	-11.5486
▁태풍이	-11.5488
▁사람입니다	-11.5488
▁못했지만	-11.5488
▁비주얼	-11.549
▁여덟	-11.549
▁선보여	-11.549
▁학식과	-11.549
▁롯데백화점	-11.5491
▁금호	-11.5491
▁낙찰	-11.5491
▁해외로	-11.5492
▁균형발전	-11.5493
▁베트남에서	-11.5494
▁은행이	-11.5496
▁방제	-11.5496
▁벌어지고	-11.5497
▁하우스	-11.5499
▁개헌	-11.5499
(24	-11.5502
▁미지수	-11.5503
쇠	-11.5504
▁저해	-11.5505
▁성취	-11.5506
▁걸었다	-11.5507
▁가까	-11.5507
터널	-11.5507
화한	-11.5508
▁만드	-11.5508
▁위안	-11.5508
▁간직	-11.5509
패션	-11.5509
▁신작	-11.551
▁폴리	-11.551
▁심야	-11.5511
▁패소	-11.5512
지연	-11.5512
▁델	-11.5514
▁않겠다	-11.5515
IN	-11.5515
젊	-11.5516
▁형평성	-11.5518
▁조양호	-11.5518
▁1:1	-11.5519
▁좋으	-11.5519
▁침투	-11.5519
▁투자자들의	-11.5521
▁주도한	-11.5521
국장이	-11.5521
▁생산자	-11.5522
▁앉아서	-11.5522
▁풍성한	-11.5523
▁차분	-11.5523
▁선택이	-11.5525
▁수행한다	-11.5525
▁사업과	-11.5526
▁첨부된	-11.5526
▁엄마는	-11.5527
▁피하기	-11.5527
▁짐작	-11.5529
▁선택해	-11.5529
연장	-11.5531
▁조직이	-11.5531
▁BTS	-11.5531
▁부족하다는	-11.5533
▁연정	-11.5534
▁커뮤니케이션	-11.5539
청에서	-11.5539
▁구조물	-11.554
4000	-11.554
돌봄	-11.5541
▁실린	-11.5542
형태	-11.5542
주면	-11.5543
▁소속팀	-11.5543
▁아니기	-11.5544
▁나눴다	-11.5545
▁먹으러	-11.5545
▁사운드	-11.5545
▁개발하는	-11.5545
▁감싸	-11.5546
산업이	-11.5547
▁기성용	-11.5547
▁반짝	-11.5547
▁역을	-11.5549
야구	-11.5549
▁불과한	-11.5549
▁기준은	-11.555
▁프라	-11.555
▁고마워요	-11.5552
▁품고	-11.5552
▁일어나고	-11.5553
▁수강생	-11.5554
▁대지	-11.5554
무용	-11.5554
▁닿	-11.5555
▁대면	-11.5557
전선	-11.5558
▁도착해	-11.5559
▁알려줘	-11.5559
▁공개돼	-11.5559
▁스타디움에서	-11.5559
▁시행된	-11.556
▁부족으로	-11.556
▁요구된다	-11.5561
▁거실	-11.5562
▁죄송합니다만	-11.5562
▁청와대와	-11.5562
▁주장도	-11.5563
▁대학원	-11.5563
▁정도에	-11.5564
▁알아요	-11.5566
뇨	-11.5566
▁장례	-11.5566
▁만남이	-11.5567
▁스타들	-11.5567
▁노동자가	-11.5567
SR	-11.5569
▁화산	-11.5569
▁국민에게	-11.557
▁되기도	-11.557
▁습득	-11.5573
▁온갖	-11.5573
▁발견돼	-11.5573
▁터미널	-11.5573
▁파란색	-11.5574
실장은	-11.5574
▁재취업	-11.5575
▁원화	-11.5577
▁넘긴	-11.5577
▁구입할	-11.5579
▁여부와	-11.558
위원장은	-11.558
▁축산물	-11.5581
▁접근할	-11.5583
▁문화유산	-11.5584
▁판매자	-11.5585
시에는	-11.5585
▁해리	-11.5588
▁위험에	-11.5588
▁부른	-11.559
▁게시판	-11.5593
제와	-11.5593
됨	-11.5594
▁교섭	-11.5594
▁치러진	-11.5596
ICT	-11.5596
▁경품	-11.5598
정책이	-11.5599
▁뚜껑	-11.56
▁구직	-11.5601
▁라돈	-11.5604
▁사물	-11.5606
▁이러	-11.5608
▁줘야	-11.5608
▁욕망	-11.5609
레이션	-11.5609
로봇	-11.5611
▁함정	-11.5611
▁하동	-11.5613
▁출판사	-11.5613
▁포장해	-11.5614
▁다리가	-11.5614
▁평양에서	-11.5615
미사일	-11.5618
91	-11.5618
▁순위에	-11.5619
류가	-11.5619
▁법무	-11.5619
▁호소했다	-11.562
▁참석하고	-11.5621
▁작용한	-11.5624
되었다고	-11.5624
▁게이트	-11.5627
▁멋있	-11.5627
▁문자를	-11.5628
▁삽입	-11.5628
▁다뤄	-11.5628
렸는데	-11.5629
▁보내드리겠습니다	-11.5629
▁타깃	-11.563
▁복제	-11.5631
▁선정한다	-11.5631
▁도마	-11.5632
▁행운	-11.5632
권역	-11.5632
▁경상	-11.5632
였다고	-11.5632
▁잔액	-11.5633
▁방송이	-11.5634
▁관객이	-11.5637
업체의	-11.5639
▁시달리	-11.564
▁사라졌다	-11.5641
▁정리해	-11.5643
▁항공편	-11.5644
▁가격대	-11.5644
었으나	-11.5645
▁사이로	-11.5647
▁가정에서	-11.5648
▁밀리	-11.5649
인데도	-11.5649
▁일시적으로	-11.565
▁입안	-11.5651
▁길로	-11.5652
▁일간	-11.5653
▁95	-11.5654
▁검토해	-11.5654
▁표했다	-11.5655
▁중으로	-11.5656
▁주스	-11.5656
▁레벨	-11.5657
▁날씨에	-11.5658
▁일기	-11.5658
▁의문이	-11.5658
▁학력	-11.566
잡이	-11.5661
선정	-11.5661
▁소나무	-11.5662
▁안녕	-11.5662
▁답답	-11.5663
▁축복	-11.5663
▁지시한	-11.5665
▁개학	-11.5665
이었다는	-11.5665
▁붙은	-11.5666
렸어요	-11.5666
▁골드	-11.5666
▁증거인멸	-11.5667
▁콘퍼런스	-11.5667
▁잠이	-11.5668
▁형성된	-11.5669
픈	-11.5672
▁풀리	-11.5674
보자	-11.5675
획	-11.5676
▁싶었	-11.5676
7000	-11.5677
▁필수적	-11.5678
▁직종	-11.5678
▁다양하고	-11.5679
▁부산지역	-11.568
▁업무상	-11.5681
▁영상은	-11.5682
▁돌파구	-11.5682
▁짙은	-11.5683
▁게임이	-11.5683
▁전례	-11.5684
▁문턱	-11.5685
▁고유의	-11.5685
▁준비해야	-11.5686
▁민사	-11.5687
▁불상	-11.5687
▁흥미	-11.5687
신이	-11.5688
▁부적절한	-11.5689
▁제주시	-11.569
▁토대	-11.5691
▁명단에	-11.5692
▁지난번	-11.5692
▁상품에	-11.5693
▁어렵지	-11.5694
06	-11.5694
▁기내식	-11.5696
▁이동하는	-11.5697
넘	-11.5698
▁근로자가	-11.5698
▁명에	-11.5699
▁들이받	-11.5699
▁프로젝트가	-11.5701
▁기사는	-11.5702
단체가	-11.5705
함은	-11.5706
있습니다	-11.5706
▁노동시장	-11.5706
▁여겨	-11.5706
▁주소지	-11.5707
▁살리기	-11.5709
▁뽑는	-11.571
▁쌍용차	-11.571
받지	-11.5711
▁나타내는	-11.5711
▁의석	-11.5712
▁리뷰	-11.5712
▁가지가	-11.5713
엑스	-11.5715
▁유권자	-11.5715
▁강세를	-11.5715
▁중심지	-11.5715
▁정국	-11.5716
▁떠오르고	-11.5716
▁레이저	-11.5716
▁도래	-11.5716
▁키울	-11.5716
▁추출	-11.5717
▁검토하여	-11.5718
피해자	-11.5719
▁센터는	-11.5719
▁알바	-11.5719
▁시작했습니다	-11.5719
▁말하면	-11.5721
▁생각은	-11.5722
▁마셔	-11.5723
▁도로에서	-11.5724
였기	-11.5725
▁대상에서	-11.5725
이기에	-11.5725
▁이용료	-11.5726
곡동	-11.5726
▁배경에	-11.5728
스러웠	-11.573
▁인파	-11.573
ul	-11.573
▁몰린	-11.5733
차게	-11.5737
▁양자	-11.5737
▁여름방학	-11.5738
▁휘발유	-11.5738
▁중남미	-11.5738
▁권한대행	-11.5739
▁캠페인을	-11.5739
▁출범한	-11.5739
▁식중독	-11.5739
▁딴	-11.5739
▁래퍼	-11.5739
▁요원	-11.574
▁적당한	-11.5741
▁빠지	-11.5741
▁소액	-11.5741
미술관	-11.5741
▁사람에	-11.5742
▁사냥	-11.5743
▁사이트에	-11.5743
방울	-11.5743
▁제한이	-11.5744
▁나서서	-11.5745
▁그쪽	-11.5745
▁협치	-11.5745
▁엘지	-11.5746
▁진정성	-11.5746
▁사이트를	-11.5747
te	-11.5747
▁좋아해	-11.5747
▁수신	-11.5747
▁지나지	-11.5749
▁분야가	-11.5749
▁해당되는	-11.575
회말	-11.575
▁전승	-11.5751
▁추정하고	-11.5751
op	-11.5756
▁외환	-11.5756
▁키워드	-11.5757
배를	-11.5757
▁때와	-11.5757
81	-11.5759
건수	-11.5759
▁벽에	-11.576
▁상임위원회	-11.576
▁누워	-11.5761
▁하락한	-11.5762
▁시야	-11.5763
▁미치	-11.5765
▁유튜버	-11.5766
▁시카고	-11.5767
▁클릭	-11.5767
법과	-11.5768
시설에	-11.5769
격차	-11.5769
▁부친	-11.577
양식	-11.577
군사	-11.5772
▁상황이라	-11.5774
▁비결	-11.5775
▁사실관계	-11.5778
싸	-11.578
▁사측	-11.5781
▁넉넉	-11.5782
스톤	-11.5783
기념관	-11.5783
▁증명서	-11.5785
▁돕는다	-11.5786
▁지속해서	-11.5787
연구회	-11.5791
1000	-11.5792
▁아쉬워	-11.5794
점검을	-11.5794
▁기념촬영	-11.5795
▁공영	-11.5796
▁YG	-11.5797
▁생활이	-11.5797
▁만들어졌다	-11.5799
왔는데	-11.58
▁창설	-11.5801
▁포함되지	-11.5803
▁제반	-11.5803
▁앓	-11.5803
▁커지자	-11.5803
▁마련에	-11.5804
▁아픔을	-11.5805
▁격리	-11.5805
▁핵시설	-11.5805
▁성금	-11.5806
▁알려졌	-11.5807
▁정부를	-11.5809
▁공유할	-11.5811
▁하기로	-11.5812
▁고집	-11.5814
▁제외하면	-11.5815
친다	-11.5815
▁상임위	-11.5817
▁자율주행차	-11.5817
▁도로가	-11.5818
▁내장	-11.5819
▁때만	-11.5819
▁단일팀	-11.582
사고가	-11.582
▁챔피언십	-11.5821
▁강점기	-11.5821
▁향하는	-11.5822
▁일었다	-11.5823
▁사용량	-11.5823
▁토로했다	-11.5823
▁동물원	-11.5823
지검	-11.5824
▁확정되면	-11.5826
▁논평	-11.5827
집이	-11.5827
져야	-11.583
▁물었다	-11.5832
▁시기는	-11.5832
▁우버	-11.5833
▁점령	-11.5834
▁쇠	-11.5834
▁버리	-11.5835
▁단정	-11.5836
▁어려웠	-11.5837
맞이	-11.5838
▁개수	-11.5838
▁킹	-11.5839
한화	-11.584
▁시식	-11.584
부스	-11.5841
▁여신	-11.5841
▁아들을	-11.5841
시설물	-11.5841
동아리	-11.5842
▁비빔밥	-11.5842
까지만	-11.5842
리조트	-11.5843
▁쉽	-11.5843
▁영역에서	-11.5844
되더라도	-11.5844
▁드려요	-11.5845
▁흑인	-11.5847
▁진출이	-11.5848
관계를	-11.5849
▁받았는데	-11.5849
늘	-11.585
▁규정하는	-11.585
▁넓혀	-11.5851
▁슈퍼주니어	-11.5851
▁무더기	-11.5851
▁실태조사를	-11.5851
▁76	-11.5851
▁느껴진다	-11.5852
▁신재생에너지	-11.5852
▁모르겠지만	-11.5852
▁걸립니다	-11.5853
▁밝히지	-11.5854
LA	-11.5854
▁소통하는	-11.5855
▁설명하는	-11.5855
▁전제	-11.5857
▁계시는	-11.5857
▁연동형	-11.5857
▁전진	-11.5859
▁따라야	-11.5861
▁하니까	-11.5861
」,	-11.5862
▁사람이에요	-11.5862
▁영변	-11.5862
▁톰	-11.5862
끔	-11.5862
▁이루어지는	-11.5862
▁운동화	-11.5863
▁복장	-11.5863
검토	-11.5863
▁피난	-11.5864
▁다가오	-11.5865
▁작품에	-11.5866
▁IS	-11.5867
▁찾아야	-11.5867
월말까지	-11.5867
▁연구에	-11.5869
▁상봉	-11.5869
▁필요한데	-11.587
▁더했다	-11.5873
▁바뀌었	-11.5873
09	-11.5875
▁구보	-11.5875
▁세월	-11.5876
위반	-11.5876
숍	-11.5878
디스	-11.5878
▁들어왔다	-11.5878
▁남녀노소	-11.5879
▁무슬림	-11.5879
▁종업원	-11.5879
▁컨셉	-11.5879
▁카타르	-11.5879
▁바로잡	-11.5879
▁분양가	-11.588
해준	-11.5881
▁우수상	-11.5884
▁서울역	-11.5885
▁쌓이	-11.5886
▁치는	-11.5887
▁공연과	-11.5887
▁확대와	-11.5889
▁성당	-11.589
▁정책으로	-11.5891
▁수입이	-11.5892
▁알코올	-11.5894
▁똑같	-11.5895
▁지방자치단체가	-11.5897
▁연천	-11.5898
▁친구에게	-11.5898
정수	-11.5899
▁점심시간	-11.59
중에	-11.59
▁통학	-11.59
빨리	-11.5901
▁보내기	-11.5902
▁고려인	-11.5903
▁다량	-11.5903
▁교황	-11.5905
∼5	-11.5905
▁민심	-11.5905
▁표현하는	-11.5907
▁우크라이나	-11.5907
▁내세운	-11.5907
사업소	-11.5909
▁산하기관	-11.5909
▁후원금	-11.591
▁단체로	-11.5911
▁놓치	-11.5912
▁순방	-11.5912
▁제시하고	-11.5913
▁불황	-11.5917
▁재판에서	-11.5918
▁낮고	-11.592
▁압수	-11.592
▁목표는	-11.5921
▁분야로	-11.5921
▁모터	-11.5922
▁방문객	-11.5923
(0	-11.5924
▁판단할	-11.5925
녕	-11.5927
대표팀	-11.5927
▁기준치	-11.5927
홈런	-11.5928
업체에	-11.5928
▁교민들	-11.5928
▁타면	-11.5928
▁형상	-11.5931
▁환기	-11.5932
관리자	-11.5932
▁다녀오	-11.5932
위생	-11.5932
▁없었다고	-11.5933
사이	-11.5933
▁무엇	-11.5934
▁직원들에게	-11.5935
▁훌쩍	-11.5935
▁행렬	-11.5937
▁라벨	-11.5938
▁김병준	-11.5938
▁일행	-11.5939
▁개개인	-11.5939
인프라	-11.5939
▁고도화	-11.5939
드리고	-11.5939
▁취소하고	-11.594
▁다문화가족	-11.5942
▁공예	-11.5943
▁파스타	-11.5944
▁적정한	-11.5944
▁들어있	-11.5945
했더니	-11.5952
▁지친	-11.5952
▁분과	-11.5953
▁방위	-11.5954
끝	-11.5954
▁1,500	-11.5956
▁위치가	-11.5956
▁분명하다	-11.5957
▁귀농	-11.5957
청와대	-11.5958
수석	-11.596
하셨	-11.596
어린이집	-11.596
▁제시할	-11.5961
▁미투	-11.5962
▁정책적	-11.5962
▁참전	-11.5962
주실래요	-11.5963
▁예로	-11.5964
▁전라북도	-11.5964
리오	-11.5964
▁논의하는	-11.5965
▁조짐	-11.5965
강의	-11.5965
▁당국자	-11.5966
▁소유권	-11.5967
▁개념을	-11.5967
▁북한산	-11.5968
▁구미시	-11.5968
▁창의적	-11.5969
▁갈아	-11.597
▁개인적	-11.597
▁앞쪽	-11.5971
▁부검	-11.5971
▁문의가	-11.5971
▁마련한다	-11.5973
LG	-11.5974
▁통신원이	-11.5974
▁직권	-11.5974
▁드문	-11.5974
기까지	-11.5974
▁절실	-11.5975
▁안착	-11.5976
팀에	-11.5976
▁독재	-11.5979
▁실려	-11.598
▁모아지	-11.598
킬	-11.5984
두고	-11.5984
▁진상	-11.5985
▁풍성	-11.5985
▁선거에	-11.5985
▁기울이	-11.5987
▁뛰는	-11.5987
▁길어지	-11.5987
▁단일화	-11.5988
▁관리와	-11.5988
▁대출이	-11.599
전시	-11.5991
▁기관과	-11.5992
▁배경에는	-11.5992
▁머리카락	-11.5993
▁빈번	-11.5993
▁체인	-11.5993
▁생산이	-11.5994
▁찾아내	-11.5995
▁실전	-11.5996
▁커지	-11.5997
▁없다며	-11.5999
▁한국노총	-11.5999
LS	-11.6001
▁남미	-11.6002
▁증가하면서	-11.6002
▁광장에서	-11.6002
▁이동할	-11.6003
▁소속된	-11.6003
▁지난해까지	-11.6004
▁‘2017	-11.6004
준이	-11.6005
▁모기	-11.6007
▁과반수	-11.6007
▁삶과	-11.6008
▁교육장	-11.6009
▁성숙	-11.601
▁2.5	-11.601
▁가는데	-11.601
▁임차	-11.601
쌍	-11.6012
▁착륙	-11.6012
▁회부	-11.6013
디지털	-11.6013
▁일부러	-11.6014
▁보고를	-11.6015
▁농식품부	-11.6015
▁무게가	-11.6016
▁강제로	-11.6018
▁것이라며	-11.6018
▁의원실	-11.602
▁지고	-11.602
▁아마추어	-11.6021
▁돌아다니	-11.6022
▁언론들은	-11.6023
▁구성하며	-11.6024
체육관에서	-11.6024
▁교단	-11.6025
으셨	-11.6025
가치가	-11.6025
▁창의적인	-11.6026
작은	-11.6028
▁상습	-11.6028
방에서	-11.6028
▁데에는	-11.6029
하자고	-11.603
▁돋	-11.6031
▁일부는	-11.6031
▁꽃을	-11.6034
▁초부터	-11.6034
(16	-11.6035
▁LH	-11.6036
▁확보하는	-11.6036
▁유럽에서	-11.6036
지라도	-11.6037
▁늘어난다	-11.6039
▁나타났	-11.6039
해보고	-11.604
▁특정한	-11.604
관리시스템	-11.6041
▁재생에너지	-11.6043
(12	-11.6044
▁공공기관이	-11.6044
▁미용실	-11.6044
▁그것들	-11.6044
▁넘었다	-11.6046
▁것들	-11.6046
▁부결	-11.6047
살인	-11.6047
▁쌓인	-11.6047
▁나서기	-11.6047
▁경제성	-11.6048
▁선거제	-11.6049
▁차원	-11.6049
공부	-11.605
▁생중계	-11.605
▁엿볼	-11.605
▁팬미팅	-11.605
▁업로드	-11.605
▁시작되었다	-11.6052
▁파트	-11.6054
팬들	-11.6054
▁종로	-11.6055
▁출발해	-11.6055
▁받으시	-11.6057
▁몰라요	-11.6057
▁빛이	-11.6058
▁어른들	-11.6059
▁이뤄져	-11.6061
해드릴	-11.6061
▁인연이	-11.6063
▁전통문화	-11.6065
▁필리핀에	-11.6066
▁효율성	-11.6067
▁수소차	-11.6068
▁질이	-11.6068
뜻	-11.6069
발전소	-11.607
▁자생	-11.6071
▁실물	-11.6071
▁당선자	-11.6073
▁마라톤	-11.6073
았고	-11.6073
(21	-11.6073
▁작가들	-11.6076
▁장터	-11.6076
▁전쟁을	-11.6078
▁추진될	-11.6078
▁촉촉	-11.6079
▁그러는데	-11.6079
효과를	-11.6079
▁NH	-11.608
▁발견한	-11.608
▁잡힌	-11.608
▁중견	-11.6082
수요가	-11.6082
▁공개할	-11.6082
▁지키	-11.6082
▁은평구	-11.6083
▁우세	-11.6083
▁단계적으로	-11.6084
▁긍정	-11.6084
▁십자가	-11.6084
▁공헌	-11.6086
▁관료	-11.6086
▁유선	-11.6088
고교	-11.6088
▁사야	-11.6089
▁도입된	-11.609
하십시오	-11.6091
▁케미	-11.6092
▁물의	-11.6097
▁일명	-11.6101
▁발굴해	-11.6104
▁나타내	-11.6104
▁역사의	-11.6106
▁자기가	-11.6107
금액을	-11.6107
개정	-11.6107
▁보건의료	-11.6107
▁프린트	-11.6108
▁끌어올리	-11.6108
▁만듭니다	-11.6108
▁동계올림픽	-11.6108
▁건강과	-11.6108
▁명분	-11.6109
먹는	-11.6109
▁단단	-11.611
▁식당이	-11.6112
쪽으로	-11.6112
이신가요	-11.6112
▁더운	-11.6112
▁마리가	-11.6113
▁강화에	-11.6114
▁공급을	-11.6114
▁감탄	-11.6115
▁을지로	-11.6115
▁제치고	-11.6116
오던	-11.6116
▁결정하고	-11.6118
기에는	-11.6118
▁입상	-11.6119
▁선수로	-11.6119
▁지었다	-11.6122
▁중요하지만	-11.6122
▁도면	-11.6123
▁빈소	-11.6123
▁생산한	-11.6124
▁결정적	-11.6124
선은	-11.6125
▁카라	-11.6127
포를	-11.6128
▁대비한	-11.6131
▁초과하는	-11.6132
▁왔어	-11.6134
▁다스	-11.6136
▁공개하지	-11.6136
보드	-11.6136
▁시작될	-11.6136
▁일으킬	-11.6137
▁부적합	-11.6137
▁6·25	-11.6137
주에	-11.6137
▁계엄령	-11.6138
▁말했어요	-11.6139
▁온몸	-11.6139
▁미래가	-11.6139
▁의미하는	-11.6139
▁접경지역	-11.614
▁불펜	-11.614
▁조직을	-11.6141
∼8	-11.6144
하수	-11.6144
지역을	-11.6146
▁물어봐	-11.6147
활용	-11.6147
위원회에서	-11.6148
▁헬스케어	-11.6149
▁행위에	-11.6149
▁융	-11.6149
부담금	-11.615
▁광명	-11.615
▁내놓는	-11.615
VR	-11.6151
▁빠져나가	-11.6152
▁메뉴는	-11.6153
▁제안이	-11.6153
▁남원	-11.6153
▁때문인	-11.6154
님들	-11.6154
▁투명한	-11.6154
▁공무원들	-11.6156
▁정직	-11.6158
전통	-11.6159
▁동래	-11.616
▁평가하고	-11.6161
▁짬뽕	-11.6161
센터에	-11.6162
▁국도	-11.6163
▁마비	-11.6163
▁싱가포르에서	-11.6163
▁외관	-11.6164
▁자영업	-11.6165
▁쭉	-11.6165
드려	-11.6165
▁갯벌	-11.6166
▁리버풀	-11.6166
▁섞어	-11.6166
▁블랙리스트	-11.6166
▁이라크	-11.6167
▁정신과	-11.6168
▁마을에	-11.6168
만큼은	-11.6169
▁경기도교육청	-11.617
▁집중적	-11.6171
▁청년층	-11.6172
▁알려주는	-11.6172
▁택지	-11.6173
▁바라보고	-11.6174
▁던져	-11.6174
▁유의	-11.6174
▁선고했다	-11.6176
▁잔디	-11.6176
▁계엄	-11.6177
▁작품들이	-11.6179
까지도	-11.618
▁에코	-11.6181
▁의외	-11.6181
▁관여한	-11.6181
▁하려는	-11.6182
▁자막	-11.6182
07	-11.6186
▁실종된	-11.6187
▁요구하며	-11.6187
▁응답이	-11.6187
▁시점이	-11.6188
▁보이면서	-11.6189
▁기대해	-11.6191
▁들어가서	-11.6191
▁손님들	-11.6191
▁등장한다	-11.6192
▁실패한	-11.6192
▁팬이	-11.6192
▁제안서	-11.6192
무대	-11.6194
▁함께한	-11.6196
▁블	-11.6197
▁세력이	-11.6197
▁농담	-11.6198
분까지	-11.6199
▁지도부가	-11.62
▁이별	-11.62
▁농성	-11.6201
▁명확하게	-11.6201
▁삼성전자와	-11.6202
▁정도였다	-11.6202
▁같았	-11.6202
▁착한	-11.6204
▁김주	-11.6205
▁책자	-11.6205
▁넣었	-11.6206
▁유진	-11.6208
▁클라	-11.6209
▁논란은	-11.6209
▁생각한	-11.6211
as	-11.6213
▁아이디어가	-11.6214
▁폰	-11.6218
▁정보와	-11.6218
박근혜	-11.6218
▁드리는	-11.6219
▁이의신청	-11.6219
▁꼬집었	-11.6222
얀	-11.6222
▁랭킹	-11.6223
▁될까	-11.6223
▁구축해	-11.6223
▁지휘자	-11.6224
▁하셔야	-11.6224
파운드	-11.6224
▁귀찮	-11.6224
▁그린벨트	-11.6224
▁보육교사	-11.6225
▁토끼	-11.6226
▁몰리는	-11.6228
▁적혀있	-11.6228
했음을	-11.6228
(22	-11.6229
▁없을까요	-11.6229
▁싫	-11.623
▁밝히면서	-11.623
▁호황	-11.6231
자산운용	-11.6232
▁싶을	-11.6234
기본	-11.6237
패스	-11.6238
▁이득	-11.6238
▁토종	-11.6239
▁겁	-11.6239
▁크레	-11.624
▁자연환경	-11.624
수립	-11.6241
ter	-11.6241
▁낫다	-11.6242
생태	-11.6244
▁주거지	-11.6244
▁계획은	-11.6247
▁만일	-11.6248
의학	-11.6248
▁출전한	-11.6249
▁사무실에서	-11.6249
▁바다에	-11.6249
▁아버지는	-11.625
▁들어왔	-11.625
▁색깔이	-11.625
▁존재하지	-11.6251
▁음식에	-11.6252
▁촉진하기	-11.6252
▁스트리밍	-11.6253
▁충청남도	-11.6253
닷컴	-11.6254
▁괜찮을까요	-11.6254
동맹	-11.6254
▁필요하면	-11.6254
▁가꾸	-11.6255
▁연쇄	-11.6256
▁위조	-11.6257
▁기종	-11.6258
▁입맛	-11.6258
▁지원금을	-11.6261
▁넘어선	-11.6261
▁경연대회	-11.6261
▁응급실	-11.6262
실시	-11.6262
▁지내는	-11.6262
▁아이들과	-11.6265
▁자신감이	-11.6265
▁광교	-11.6265
▁했으며	-11.6265
아버지	-11.6267
▁왕실	-11.6269
비스	-11.6269
▁지방의	-11.6269
재원	-11.6269
화하는	-11.627
▁대개	-11.6273
▁이쪽	-11.6275
‘	-11.6275
▁판결했다	-11.6277
▁신사	-11.6279
찌감치	-11.6283
▁어울려	-11.6283
▁튼튼	-11.6283
▁자질	-11.6284
▁포착됐다	-11.6284
▁거북	-11.6285
윤리	-11.6286
OS	-11.6286
▁행사의	-11.6286
으론	-11.6286
▁모를	-11.6287
▁습	-11.6287
반을	-11.6287
▁다녀온	-11.6288
▁추워	-11.6289
▁농약	-11.629
해주시고	-11.6291
롭게	-11.6295
▁대체할	-11.6295
▁거제	-11.6296
▁직권남용	-11.6296
▁지원하겠다	-11.6297
▁재계약	-11.6297
스케	-11.6299
▁지우	-11.6299
▁군데	-11.6301
시스	-11.6303
▁원자력	-11.6303
세의	-11.6303
▁홈페이지에서	-11.6303
▁하단	-11.6304
▁판사들	-11.6305
▁연고	-11.6306
▁밝히는	-11.6306
현상	-11.6309
▁전문의	-11.6309
▁식감	-11.6309
ia	-11.631
▁방식에	-11.6311
오픈	-11.6312
▁단어를	-11.6312
▁나오자	-11.6312
스퀘어	-11.6312
▁고구마	-11.6312
▁사무국장	-11.6313
▁설렘	-11.6313
▁부분도	-11.6313
▁조치에	-11.6314
▁살면서	-11.6314
관과	-11.6314
▁방과	-11.6315
▁상태입니다	-11.6315
▁나뉘어	-11.6317
▁의식이	-11.6318
▁대조	-11.6321
▁입장권	-11.6323
▁갖기	-11.6326
▁의정부시	-11.6326
▁구별	-11.6327
▁뜻한다	-11.6327
▁대리점	-11.6329
▁tvN	-11.6331
▁은행에	-11.6331
▁밀착	-11.6333
경력	-11.6333
▁부가가치	-11.6333
▁마련해야	-11.6334
▁동물을	-11.6334
▁도입해	-11.6334
▁받으면서	-11.6336
▁소비자에게	-11.6337
새로운	-11.6338
▁필요성	-11.6339
▁과제가	-11.6339
▁아랍에미리트	-11.6342
▁햇빛	-11.6342
▁홍영표	-11.6342
▁슬로건	-11.6342
▁이병	-11.6342
▁경남지사	-11.6344
▁성장과	-11.6345
▁보유자	-11.6345
▁이룬다	-11.6345
▁집어	-11.6346
▁걷고	-11.6346
▁담합	-11.6347
부족	-11.6348
▁국민연금이	-11.635
▁제공합니다	-11.6351
▁마술	-11.6352
▁남기고	-11.6353
(14	-11.6353
▁익히	-11.6354
▁두며	-11.6354
▁설명할	-11.6356
▁브리핑에서	-11.6356
지원금	-11.6359
▁전달해	-11.6359
▁출신으로	-11.636
▁기류	-11.6361
▁확률	-11.6363
▁태평양	-11.6363
▁초대형	-11.6363
년생	-11.6364
▁미비	-11.6365
▁기여하고	-11.6366
칩	-11.6366
▁배송비	-11.6366
▁후보와	-11.6366
▁미추홀구	-11.6366
▁수용할	-11.6367
▁프로젝트는	-11.6368
평균	-11.637
▁털어놨다	-11.6372
▁학생부	-11.6372
▁개선과	-11.6372
▁심도	-11.6372
▁방콕	-11.6373
지휘	-11.6374
▁가져온	-11.6374
▁포토	-11.6375
▁진출에	-11.6376
▁임명한다	-11.6376
▁받았지만	-11.6377
▁적법	-11.6377
워크	-11.6378
▁다친	-11.638
▁강경화	-11.6381
▁유세	-11.6382
▁학살	-11.6382
▁장학	-11.6384
▁탈모	-11.6386
되어서	-11.6386
▁지적에	-11.6388
▁요약	-11.6389
▁안전에	-11.6389
버그	-11.6391
▁있나	-11.6397
협의	-11.6398
▁김대	-11.6398
메뉴	-11.6399
▁신년	-11.6399
킷	-11.6399
영장실질심사	-11.6401
▁구하기	-11.6402
▁명예훼손	-11.6402
▁않은데	-11.6402
▁훈훈	-11.6402
▁퇴장	-11.6407
▁계류	-11.6407
▁골문	-11.6408
럽	-11.6409
▁이루어졌다	-11.6409
▁스타들이	-11.6409
커머스	-11.641
유출	-11.6412
▁기침	-11.6413
▁성장한	-11.6413
▁아동의	-11.6413
▁기울이고	-11.6417
▁살았	-11.6418
▁부산항	-11.6422
▁협력이	-11.6422
십시오	-11.6424
▁대응에	-11.6424
▁71	-11.6425
감리	-11.6425
▁좋지만	-11.6426
▁78	-11.6426
메이	-11.6427
▁받았다는	-11.6427
베트남	-11.6427
자전거	-11.6428
▁메뉴판	-11.643
▁인접한	-11.643
▁맞는지	-11.643
이었다고	-11.6431
▁오산	-11.6431
벅	-11.6431
▁포르투갈	-11.6431
▁포트폴리오	-11.6431
▁신입사원	-11.6431
▁출석해	-11.6431
▁바나나	-11.6432
▁애들	-11.6432
▁오염물질	-11.6432
▁전문가와	-11.6433
▁드시면	-11.6433
▁거듭나	-11.6434
▁쌓은	-11.6434
▁상수도	-11.6434
▁아우르	-11.6435
▁나갔다	-11.6436
년만에	-11.6436
권과	-11.6436
▁여성과	-11.6439
▁목에	-11.6441
계산	-11.6444
▁최고치	-11.6446
졌기	-11.6446
▁개선하기	-11.6447
해주실	-11.6448
▁일감	-11.6449
▁도모하기	-11.6451
▁반송	-11.6451
이었으나	-11.6452
▁댓글을	-11.6454
[...]
